const unsigned char model[] = {
  0x1c, 0x00, 0x00, 0x00, 0x54, 0x46, 0x4c, 0x33, 0x14, 0x00, 0x20, 0x00, 
  0x1c, 0x00, 0x18, 0x00, 0x14, 0x00, 0x10, 0x00, 0x0c, 0x00, 0x00, 0x00, 
  0x08, 0x00, 0x04, 0x00, 0x14, 0x00, 0x00, 0x00, 0x1c, 0x00, 0x00, 0x00, 
  0x8c, 0x00, 0x00, 0x00, 0xe4, 0x00, 0x00, 0x00, 0xe4, 0x1a, 0x00, 0x00, 
  0xf4, 0x1a, 0x00, 0x00, 0xe4, 0x2c, 0x00, 0x00, 0x03, 0x00, 0x00, 0x00, 
  0x01, 0x00, 0x00, 0x00, 0x04, 0x00, 0x00, 0x00, 0xba, 0xe4, 0xff, 0xff, 
  0x0c, 0x00, 0x00, 0x00, 0x1c, 0x00, 0x00, 0x00, 0x3c, 0x00, 0x00, 0x00, 
  0x0f, 0x00, 0x00, 0x00, 0x73, 0x65, 0x72, 0x76, 0x69, 0x6e, 0x67, 0x5f, 
  0x64, 0x65, 0x66, 0x61, 0x75, 0x6c, 0x74, 0x00, 0x01, 0x00, 0x00, 0x00, 
  0x04, 0x00, 0x00, 0x00, 0x90, 0xff, 0xff, 0xff, 0x12, 0x00, 0x00, 0x00, 
  0x04, 0x00, 0x00, 0x00, 0x08, 0x00, 0x00, 0x00, 0x6f, 0x75, 0x74, 0x70, 
  0x75, 0x74, 0x5f, 0x30, 0x00, 0x00, 0x00, 0x00, 0x01, 0x00, 0x00, 0x00, 
  0x04, 0x00, 0x00, 0x00, 0xc6, 0xe4, 0xff, 0xff, 0x04, 0x00, 0x00, 0x00, 
  0x0c, 0x00, 0x00, 0x00, 0x6b, 0x65, 0x72, 0x61, 0x73, 0x5f, 0x74, 0x65, 
  0x6e, 0x73, 0x6f, 0x72, 0x00, 0x00, 0x00, 0x00, 0x02, 0x00, 0x00, 0x00, 
  0x34, 0x00, 0x00, 0x00, 0x04, 0x00, 0x00, 0x00, 0xdc, 0xff, 0xff, 0xff, 
  0x15, 0x00, 0x00, 0x00, 0x04, 0x00, 0x00, 0x00, 0x13, 0x00, 0x00, 0x00, 
  0x43, 0x4f, 0x4e, 0x56, 0x45, 0x52, 0x53, 0x49, 0x4f, 0x4e, 0x5f, 0x4d, 
  0x45, 0x54, 0x41, 0x44, 0x41, 0x54, 0x41, 0x00, 0x08, 0x00, 0x0c, 0x00, 
  0x08, 0x00, 0x04, 0x00, 0x08, 0x00, 0x00, 0x00, 0x14, 0x00, 0x00, 0x00, 
  0x04, 0x00, 0x00, 0x00, 0x13, 0x00, 0x00, 0x00, 0x6d, 0x69, 0x6e, 0x5f, 
  0x72, 0x75, 0x6e, 0x74, 0x69, 0x6d, 0x65, 0x5f, 0x76, 0x65, 0x72, 0x73, 
  0x69, 0x6f, 0x6e, 0x00, 0x16, 0x00, 0x00, 0x00, 0xfc, 0x19, 0x00, 0x00, 
  0xf4, 0x19, 0x00, 0x00, 0xdc, 0x19, 0x00, 0x00, 0xc4, 0x19, 0x00, 0x00, 
  0x74, 0x19, 0x00, 0x00, 0xe4, 0x18, 0x00, 0x00, 0xd4, 0x06, 0x00, 0x00, 
  0x84, 0x06, 0x00, 0x00, 0xf4, 0x01, 0x00, 0x00, 0xc4, 0x01, 0x00, 0x00, 
  0xdc, 0x00, 0x00, 0x00, 0xd4, 0x00, 0x00, 0x00, 0xcc, 0x00, 0x00, 0x00, 
  0xc4, 0x00, 0x00, 0x00, 0xbc, 0x00, 0x00, 0x00, 0xb4, 0x00, 0x00, 0x00, 
  0xac, 0x00, 0x00, 0x00, 0xa4, 0x00, 0x00, 0x00, 0x9c, 0x00, 0x00, 0x00, 
  0x94, 0x00, 0x00, 0x00, 0x74, 0x00, 0x00, 0x00, 0x04, 0x00, 0x00, 0x00, 
  0x9a, 0xe5, 0xff, 0xff, 0x04, 0x00, 0x00, 0x00, 0x60, 0x00, 0x00, 0x00, 
  0x0c, 0x00, 0x00, 0x00, 0x08, 0x00, 0x0e, 0x00, 0x08, 0x00, 0x04, 0x00, 
  0x08, 0x00, 0x00, 0x00, 0x10, 0x00, 0x00, 0x00, 0x28, 0x00, 0x00, 0x00, 
  0x00, 0x00, 0x06, 0x00, 0x08, 0x00, 0x04, 0x00, 0x06, 0x00, 0x00, 0x00, 
  0x04, 0x00, 0x00, 0x00, 0x01, 0x00, 0x00, 0x00, 0xeb, 0x03, 0x00, 0x00, 
  0x0c, 0x00, 0x18, 0x00, 0x14, 0x00, 0x10, 0x00, 0x0c, 0x00, 0x04, 0x00, 
  0x0c, 0x00, 0x00, 0x00, 0x2b, 0xb0, 0xf0, 0x73, 0xe6, 0x5c, 0xa7, 0x46, 
  0x02, 0x00, 0x00, 0x00, 0x02, 0x00, 0x00, 0x00, 0x04, 0x00, 0x00, 0x00, 
  0x06, 0x00, 0x00, 0x00, 0x32, 0x2e, 0x32, 0x30, 0x2e, 0x30, 0x00, 0x00, 
  0x06, 0xe6, 0xff, 0xff, 0x04, 0x00, 0x00, 0x00, 0x10, 0x00, 0x00, 0x00, 
  0x31, 0x2e, 0x31, 0x34, 0x2e, 0x30, 0x00, 0x00, 0x00, 0x00, 0x00, 0x00, 
  0x00, 0x00, 0x00, 0x00, 0xac, 0xd5, 0xff, 0xff, 0xb0, 0xd5, 0xff, 0xff, 
  0xb4, 0xd5, 0xff, 0xff, 0xb8, 0xd5, 0xff, 0xff, 0xbc, 0xd5, 0xff, 0xff, 
  0xc0, 0xd5, 0xff, 0xff, 0xc4, 0xd5, 0xff, 0xff, 0xc8, 0xd5, 0xff, 0xff, 
  0xcc, 0xd5, 0xff, 0xff, 0x46, 0xe6, 0xff, 0xff, 0x04, 0x00, 0x00, 0x00, 
  0xd8, 0x00, 0x00, 0x00, 0x0b, 0x10, 0x73, 0x93, 0x40, 0x8d, 0xdc, 0xd9, 
  0x81, 0x68, 0x31, 0xbe, 0xa4, 0x66, 0xd7, 0x04, 0xca, 0x15, 0x31, 0x84, 
  0xf2, 0x15, 0x40, 0xa0, 0x82, 0x38, 0x28, 0x73, 0x46, 0x65, 0x7f, 0xdf, 
  0xda, 0x56, 0x44, 0xed, 0xb1, 0x08, 0x9f, 0xac, 0xd5, 0x12, 0x39, 0xfe, 
  0x0a, 0x0b, 0x85, 0xc9, 0xc9, 0xba, 0xbc, 0x19, 0x0e, 0x57, 0xc5, 0x5e, 
  0xf2, 0x60, 0xe7, 0xcd, 0x7f, 0xa1, 0xd4, 0xb8, 0x10, 0xd3, 0x0f, 0xd2, 
  0x2a, 0x54, 0x3e, 0x19, 0xab, 0x43, 0x2c, 0x47, 0x13, 0xd2, 0x7b, 0xa4, 
  0xef, 0xb4, 0xb2, 0x0b, 0x2c, 0xcd, 0x02, 0xc2, 0x36, 0xce, 0x6d, 0xaa, 
  0x6e, 0xe6, 0x6d, 0xf8, 0x0e, 0xc5, 0x58, 0x7f, 0xa9, 0xc9, 0x72, 0xd6, 
  0x1f, 0x13, 0xa5, 0xb8, 0x4b, 0xfb, 0x75, 0x8f, 0xa2, 0xb2, 0x70, 0xf8, 
  0x9d, 0xe7, 0x41, 0x64, 0xeb, 0x94, 0xef, 0x05, 0x69, 0x81, 0xfd, 0x2f, 
  0xef, 0x4f, 0x2a, 0x4d, 0xf0, 0xa8, 0xf2, 0x60, 0x7c, 0x45, 0x35, 0x70, 
  0x38, 0xb7, 0x49, 0xd1, 0x1a, 0xf6, 0x7f, 0x77, 0xff, 0x7f, 0xd6, 0xa7, 
  0x9d, 0xae, 0xa1, 0x65, 0x07, 0xbc, 0x28, 0x65, 0x16, 0xd4, 0xc1, 0x79, 
  0x55, 0x81, 0xce, 0xf1, 0xdc, 0xee, 0x53, 0xce, 0xfc, 0x60, 0x69, 0xf6, 
  0x37, 0xba, 0x07, 0x12, 0xf3, 0x17, 0xfd, 0x33, 0x34, 0xc0, 0x19, 0x42, 
  0x7a, 0x5a, 0x9f, 0x53, 0x81, 0x75, 0xe7, 0x2b, 0xf6, 0x32, 0xbe, 0x8c, 
  0x69, 0xe0, 0x38, 0x3e, 0xe4, 0x59, 0x19, 0x47, 0x61, 0x20, 0xb5, 0x01, 
  0x0a, 0xbe, 0xd4, 0xcc, 0x2a, 0xe7, 0xff, 0xff, 0x04, 0x00, 0x00, 0x00, 
  0x20, 0x00, 0x00, 0x00, 0xbf, 0x90, 0xfe, 0xff, 0xbd, 0x6a, 0x0e, 0x00, 
  0x29, 0x16, 0x10, 0x00, 0x8d, 0x33, 0x1b, 0x00, 0x2c, 0x14, 0x11, 0x00, 
  0xd6, 0xfc, 0xee, 0xff, 0xf0, 0x9f, 0xf0, 0xff, 0xe3, 0x23, 0xed, 0xff, 
  0x56, 0xe7, 0xff, 0xff, 0x04, 0x00, 0x00, 0x00, 0x80, 0x04, 0x00, 0x00, 
  0xf2, 0x15, 0xe2, 0x55, 0x62, 0x53, 0xc1, 0x14, 0xe2, 0xdd, 0x72, 0x78, 
  0x4c, 0x31, 0x39, 0xc2, 0xc1, 0x5f, 0x4c, 0x61, 0x16, 0x58, 0x25, 0xb5, 
  0x21, 0x11, 0x44, 0x12, 0x0b, 0x4e, 0xf9, 0x28, 0x39, 0x48, 0x1e, 0x7f, 
  0x27, 0x5e, 0xe2, 0xe3, 0xe9, 0x02, 0xcb, 0xd3, 0x41, 0x12, 0x01, 0xf9, 
  0x22, 0x71, 0x04, 0x6b, 0xb7, 0xf2, 0xea, 0x34, 0xff, 0x4c, 0x67, 0x29, 
  0x04, 0xde, 0x0e, 0xbd, 0xbd, 0xe4, 0x3f, 0x20, 0xba, 0xda, 0xed, 0x4d, 
  0x20, 0xcb, 0x1b, 0x8d, 0x9c, 0xf3, 0xbe, 0xa5, 0x15, 0x09, 0x8f, 0xe0, 
  0x13, 0xdd, 0x11, 0x3b, 0x64, 0x2b, 0x96, 0x0b, 0xaa, 0x61, 0x11, 0xfb, 
  0x90, 0x40, 0x8a, 0xfd, 0x2b, 0x27, 0x38, 0xe5, 0x04, 0x42, 0xcd, 0xf0, 
  0x45, 0x27, 0x41, 0xf3, 0x07, 0x8a, 0x1f, 0xd3, 0x17, 0xc7, 0x55, 0x2e, 
  0xcb, 0xe2, 0x35, 0x07, 0xa9, 0xba, 0xf5, 0x67, 0x00, 0x8a, 0x46, 0x94, 
  0x47, 0x4e, 0x1e, 0xd9, 0xc0, 0x81, 0x40, 0xa2, 0x57, 0x1c, 0x33, 0x70, 
  0xb8, 0x92, 0xd1, 0xb0, 0xb8, 0x36, 0xc8, 0x6a, 0x9f, 0x81, 0xc5, 0x13, 
  0xf9, 0xee, 0x40, 0xf2, 0xed, 0x36, 0xfd, 0xa6, 0xd0, 0xd9, 0x78, 0x0d, 
  0x41, 0xb7, 0xdd, 0x96, 0x26, 0x00, 0xed, 0x55, 0xd7, 0xd5, 0xd7, 0xa2, 
  0xa7, 0x5b, 0xb6, 0x24, 0x17, 0x0e, 0x04, 0x9b, 0xce, 0xc5, 0xf3, 0x48, 
  0xfb, 0xbf, 0x52, 0x04, 0x11, 0x51, 0x45, 0xc4, 0xe7, 0x51, 0xa2, 0xf5, 
  0x35, 0x52, 0x7b, 0x06, 0xab, 0xc6, 0xe4, 0x92, 0xae, 0xbf, 0x5e, 0xaa, 
  0xe7, 0xd0, 0xf9, 0x54, 0xf8, 0x38, 0x03, 0xf6, 0x12, 0x26, 0x34, 0x7f, 
  0xc8, 0x15, 0x53, 0x37, 0x39, 0x25, 0xc5, 0x4e, 0xd6, 0x5a, 0x37, 0xbc, 
  0x02, 0x71, 0x48, 0x68, 0x4a, 0xdb, 0x1f, 0x1f, 0x17, 0x67, 0x01, 0x6b, 
  0xca, 0xab, 0x50, 0xc2, 0x36, 0x63, 0x45, 0xfb, 0xfc, 0x4e, 0x30, 0xc2, 
  0xa9, 0x41, 0x07, 0x0b, 0x44, 0xbb, 0x20, 0xad, 0x11, 0xc6, 0x63, 0x3c, 
  0x1a, 0x46, 0xec, 0xa8, 0xbf, 0x48, 0x25, 0x38, 0x47, 0xa5, 0xe8, 0x00, 
  0xb5, 0x3c, 0x68, 0x16, 0xfa, 0x29, 0xc2, 0xd0, 0xef, 0xcc, 0xef, 0x7d, 
  0xbc, 0x10, 0x28, 0xe0, 0x4a, 0x2c, 0x01, 0x36, 0x03, 0x10, 0x06, 0xb8, 
  0xfb, 0x60, 0xd7, 0xd9, 0x2a, 0xd1, 0x11, 0x00, 0x3f, 0x68, 0xe1, 0x42, 
  0xf0, 0x0d, 0x18, 0xbc, 0x33, 0x43, 0xc5, 0x7f, 0x5c, 0x3e, 0x52, 0xbb, 
  0x05, 0x4f, 0xef, 0x0c, 0x58, 0xd1, 0x09, 0xfc, 0x02, 0x21, 0x4b, 0x65, 
  0x48, 0x33, 0x08, 0xf8, 0x13, 0x05, 0x6f, 0xe2, 0xf1, 0x12, 0xa5, 0xda, 
  0x0e, 0x17, 0xc7, 0x64, 0x27, 0x9e, 0x97, 0x68, 0x55, 0x27, 0x5a, 0x36, 
  0x5b, 0x77, 0x9b, 0xf0, 0xeb, 0xc9, 0x19, 0xac, 0xfe, 0x94, 0x55, 0x9e, 
  0x30, 0x60, 0xa3, 0x07, 0xc4, 0x35, 0x8a, 0x6e, 0x86, 0xcf, 0x42, 0x0c, 
  0x94, 0x1d, 0xec, 0xf9, 0x09, 0x97, 0x84, 0x62, 0x96, 0x8d, 0xcc, 0x78, 
  0x19, 0x57, 0x5e, 0xa7, 0x49, 0xff, 0x8e, 0x42, 0x30, 0x01, 0x01, 0x8b, 
  0x81, 0xd2, 0xf9, 0xba, 0xd4, 0x83, 0x43, 0x2c, 0x26, 0xae, 0x69, 0xd7, 
  0xa3, 0x05, 0x22, 0x85, 0x21, 0x31, 0x52, 0xe6, 0xa5, 0x27, 0xb7, 0x02, 
  0xec, 0xf7, 0x68, 0xd4, 0xd2, 0x88, 0xe2, 0x27, 0x2c, 0xe3, 0xcc, 0x51, 
  0x31, 0xff, 0xc7, 0xee, 0xee, 0x07, 0x26, 0x39, 0x63, 0x91, 0x38, 0xea, 
  0x01, 0xe5, 0x5d, 0xb9, 0x4f, 0x10, 0x81, 0xfe, 0x03, 0xf3, 0x34, 0x13, 
  0x43, 0x2d, 0xe2, 0xe2, 0xea, 0x18, 0x4b, 0x6e, 0xa5, 0xb2, 0x2d, 0xb9, 
  0xbe, 0x1f, 0x2d, 0xed, 0xf5, 0xa7, 0xf7, 0x1f, 0x1a, 0xf5, 0x3d, 0xfd, 
  0xd4, 0x45, 0x0b, 0xf4, 0x3a, 0xf5, 0xc7, 0xfd, 0x39, 0xe4, 0x4a, 0x6d, 
  0x52, 0xd7, 0x2c, 0x24, 0xc7, 0x2f, 0x29, 0x7f, 0xe9, 0x34, 0x2f, 0xe4, 
  0xe9, 0x15, 0x4e, 0x1d, 0x38, 0x22, 0xed, 0x2e, 0xb9, 0x01, 0x12, 0xff, 
  0x0b, 0x46, 0xee, 0xe9, 0x0b, 0xd5, 0x5b, 0xe0, 0x0b, 0xee, 0xda, 0xda, 
  0x40, 0x15, 0x3c, 0xf9, 0x2d, 0xf0, 0xae, 0x3b, 0x31, 0xd5, 0x02, 0x15, 
  0x10, 0xf9, 0xdf, 0xf3, 0xf9, 0x46, 0x53, 0x09, 0x5b, 0xce, 0xdb, 0x0e, 
  0xf6, 0xd1, 0xef, 0x7f, 0x3a, 0xcd, 0xaf, 0x16, 0x07, 0x75, 0xab, 0x38, 
  0x53, 0xf4, 0x06, 0x4b, 0x2c, 0x0e, 0x43, 0x3f, 0x16, 0xae, 0xfe, 0x0f, 
  0x19, 0xd6, 0x65, 0x5a, 0x59, 0x1f, 0x3a, 0x44, 0x01, 0x0e, 0x03, 0x5b, 
  0x50, 0xc6, 0x5a, 0x19, 0x2f, 0x3d, 0x0e, 0xf5, 0x14, 0x21, 0x0a, 0xf6, 
  0xb4, 0x69, 0x51, 0xf5, 0xdd, 0xd2, 0x18, 0xd6, 0x18, 0xd8, 0xdb, 0x40, 
  0xc8, 0x35, 0xcb, 0x34, 0x0a, 0x03, 0x67, 0x03, 0xf7, 0xbb, 0xee, 0xe4, 
  0x21, 0x39, 0x03, 0xf2, 0xe2, 0xb1, 0xc3, 0x38, 0xe4, 0x7f, 0x3d, 0x56, 
  0x1e, 0xd4, 0xd0, 0xf7, 0xb3, 0xcf, 0xfb, 0x7a, 0x0b, 0x5a, 0x54, 0xfc, 
  0x2c, 0xfe, 0x1a, 0xef, 0x4d, 0x34, 0x24, 0xd6, 0xdc, 0x03, 0x16, 0x0e, 
  0xe7, 0xb1, 0x1d, 0x26, 0xce, 0x39, 0x4d, 0xda, 0x0e, 0xb0, 0xc6, 0x0a, 
  0xaf, 0x27, 0x3f, 0xd7, 0xf2, 0xc6, 0xf6, 0x30, 0xe5, 0xfd, 0x5d, 0x44, 
  0x5d, 0x07, 0xfc, 0x09, 0x24, 0x23, 0x27, 0x6a, 0x5f, 0x03, 0x27, 0x2a, 
  0xbb, 0xe0, 0xb5, 0xe9, 0x27, 0xb5, 0x38, 0x11, 0xfd, 0x5e, 0xd0, 0x32, 
  0x46, 0xef, 0xe4, 0xbc, 0x0f, 0xf9, 0x57, 0x02, 0x34, 0xb6, 0x07, 0x21, 
  0xd1, 0x2b, 0xf8, 0x7f, 0x3b, 0xb3, 0xf3, 0xe9, 0x1c, 0x43, 0x00, 0x77, 
  0x13, 0x40, 0xbd, 0xd1, 0x1e, 0x42, 0x48, 0xe6, 0x28, 0xee, 0x11, 0xf7, 
  0x26, 0x10, 0x61, 0x6c, 0x04, 0x1d, 0x3a, 0x06, 0x27, 0x55, 0xf7, 0x5c, 
  0x47, 0x00, 0x06, 0x34, 0xf3, 0x2e, 0xdb, 0xf8, 0x68, 0x1a, 0x34, 0x3b, 
  0x33, 0x52, 0xa9, 0x31, 0xf0, 0xb4, 0x3e, 0xb5, 0xcf, 0xc3, 0xb5, 0xd4, 
  0x29, 0xba, 0xb5, 0x51, 0xb7, 0xab, 0xed, 0xb8, 0xde, 0x16, 0x75, 0x2b, 
  0xab, 0x52, 0xdd, 0x22, 0x22, 0x14, 0x2e, 0x7d, 0x0c, 0xf1, 0xc0, 0x8e, 
  0x48, 0x49, 0xbe, 0x1d, 0x08, 0x3f, 0x5a, 0xda, 0x27, 0x36, 0x42, 0xe7, 
  0x0c, 0xcf, 0xcc, 0xe0, 0x90, 0xab, 0x44, 0x04, 0x49, 0xdb, 0x26, 0x95, 
  0x55, 0x4a, 0x2c, 0x7f, 0xe9, 0xdc, 0xf2, 0x0f, 0xba, 0xb1, 0x59, 0xfc, 
  0x06, 0x58, 0x4a, 0x4d, 0xf3, 0xdf, 0x48, 0x1b, 0x1f, 0x5d, 0x6c, 0xea, 
  0xd2, 0x1e, 0x03, 0xaa, 0x21, 0xe2, 0x32, 0xd2, 0xfc, 0x5e, 0x22, 0xc3, 
  0x23, 0x6c, 0xce, 0xf2, 0x0c, 0x34, 0x04, 0x51, 0xc1, 0xe3, 0x03, 0x10, 
  0x70, 0xaa, 0xfd, 0xb8, 0xd8, 0x7d, 0xb4, 0xf1, 0x15, 0xf3, 0xc0, 0x8f, 
  0xa0, 0x4e, 0x75, 0x07, 0x42, 0xab, 0x20, 0xee, 0xac, 0x2e, 0x1f, 0x3f, 
  0x37, 0x23, 0xe9, 0xf5, 0x25, 0x16, 0x2e, 0x7f, 0x07, 0x0d, 0x1b, 0x11, 
  0x69, 0xb1, 0xe3, 0xcb, 0x2a, 0xf0, 0x08, 0x6f, 0x0d, 0xb9, 0x1d, 0x39, 
  0xba, 0x52, 0x3c, 0xaf, 0x57, 0x9e, 0x99, 0xfc, 0x46, 0x4c, 0xe6, 0xf4, 
  0xbf, 0xe6, 0xb8, 0x9c, 0x9a, 0xb4, 0x5a, 0xdf, 0x17, 0x35, 0x42, 0x4d, 
  0xb6, 0x6b, 0x60, 0xf9, 0xec, 0x86, 0xf2, 0xbb, 0xbb, 0x4e, 0x71, 0x25, 
  0x32, 0xd7, 0xa8, 0xdb, 0xf1, 0xbf, 0x13, 0x0d, 0x19, 0x28, 0xfe, 0xed, 
  0xd7, 0x08, 0x0f, 0x48, 0x33, 0x42, 0x81, 0x86, 0xf2, 0xd8, 0xa9, 0xca, 
  0x1f, 0xb4, 0x02, 0xd7, 0xc3, 0x56, 0xc4, 0x5c, 0xfd, 0xa8, 0x56, 0xe8, 
  0x1f, 0x7f, 0x4c, 0x15, 0x5e, 0x3c, 0x11, 0xd5, 0x4d, 0x02, 0xdf, 0x03, 
  0x5f, 0xc6, 0x72, 0xe3, 0xd5, 0xec, 0x72, 0x62, 0xa2, 0x03, 0xd8, 0x68, 
  0x58, 0xe5, 0x3d, 0xfb, 0xa6, 0xdc, 0xd2, 0x28, 0x5f, 0x04, 0xf3, 0x24, 
  0x22, 0x63, 0x20, 0x58, 0xfb, 0x2e, 0x56, 0x72, 0x2d, 0x33, 0x26, 0xd4, 
  0x24, 0xc8, 0xf0, 0xdf, 0x49, 0x22, 0xf3, 0xc7, 0x1f, 0x55, 0x6d, 0xb6, 
  0x49, 0xf7, 0x31, 0x43, 0xf7, 0x50, 0x34, 0x0e, 0x1e, 0x7f, 0x12, 0x5c, 
  0x4a, 0x0b, 0xc6, 0xf3, 0x4d, 0x3f, 0x26, 0xc9, 0x1c, 0x49, 0xc2, 0xe2, 
  0x38, 0xcd, 0xd8, 0x66, 0x43, 0x18, 0xb8, 0xde, 0x4d, 0x18, 0xb0, 0x28, 
  0x14, 0x0c, 0xc3, 0x21, 0x43, 0x41, 0xd8, 0x5e, 0x41, 0xd2, 0xd3, 0xeb, 
  0xe0, 0x0e, 0x10, 0xdc, 0xc3, 0xe3, 0x03, 0xc0, 0x0e, 0x46, 0xd6, 0xf3, 
  0x0b, 0x51, 0x1e, 0x20, 0xe1, 0x34, 0xc3, 0x57, 0x6a, 0x1d, 0x05, 0xe6, 
  0xe2, 0xeb, 0xff, 0xff, 0x04, 0x00, 0x00, 0x00, 0x40, 0x00, 0x00, 0x00, 
  0x88, 0x2a, 0x01, 0x00, 0xf5, 0xfd, 0xfe, 0xff, 0x08, 0x14, 0xff, 0xff, 
  0xb3, 0xd9, 0x00, 0x00, 0xb5, 0x24, 0x01, 0x00, 0xa9, 0x88, 0xff, 0xff, 
  0x0d, 0xe4, 0xfe, 0xff, 0x10, 0xe3, 0x00, 0x00, 0xfb, 0x74, 0x01, 0x00, 
  0x69, 0x57, 0x01, 0x00, 0x7e, 0xb8, 0xff, 0xff, 0xdb, 0x42, 0xff, 0xff, 
  0x45, 0x91, 0x01, 0x00, 0x0b, 0x30, 0xff, 0xff, 0x13, 0xc7, 0x00, 0x00, 
  0x6f, 0x3e, 0x01, 0x00, 0x2e, 0xec, 0xff, 0xff, 0x04, 0x00, 0x00, 0x00, 
  0x00, 0x12, 0x00, 0x00, 0xc5, 0xca, 0xce, 0xbf, 0xb7, 0xa6, 0x64, 0x13, 
  0xf6, 0xe6, 0xf5, 0xcf, 0xaf, 0x6c, 0xc8, 0xeb, 0xf1, 0x33, 0xec, 0x48, 
  0x0b, 0xf4, 0xfe, 0xe5, 0xa2, 0x8d, 0x0a, 0xf5, 0xa9, 0xfc, 0x24, 0xb4, 
  0x41, 0x1f, 0x43, 0x40, 0xbd, 0xd4, 0x5a, 0x2c, 0x81, 0x9b, 0xf9, 0xdd, 
  0xda, 0x00, 0x43, 0xc3, 0xa5, 0xbc, 0x1c, 0x17, 0x99, 0xf3, 0xe3, 0x0c, 
  0xf3, 0xf0, 0x26, 0x44, 0x22, 0x48, 0x19, 0xca, 0x3a, 0x5b, 0x20, 0x06, 
  0x1f, 0xf9, 0x45, 0xc0, 0x87, 0x81, 0x17, 0x51, 0xb0, 0x1d, 0x2f, 0x9b, 
  0xe8, 0x3a, 0x36, 0x2c, 0x05, 0x4a, 0x1c, 0xb3, 0xad, 0x8b, 0xc7, 0xc0, 
  0x15, 0x28, 0xcd, 0x1a, 0xe0, 0x40, 0x50, 0x49, 0xea, 0x4d, 0x0f, 0x0d, 
  0x81, 0xe6, 0xd0, 0xdc, 0xe1, 0x39, 0xe1, 0xeb, 0x24, 0xc5, 0xd9, 0x1e, 
  0x92, 0x39, 0xd9, 0xb9, 0x01, 0xfb, 0xee, 0x03, 0xe0, 0x2e, 0x47, 0xca, 
  0x0c, 0xfe, 0x6c, 0x22, 0xbb, 0x21, 0x61, 0xd3, 0x97, 0xf3, 0x8b, 0x51, 
  0xe5, 0x05, 0x4d, 0xcb, 0x2b, 0x1f, 0xfc, 0x02, 0xf2, 0x2b, 0x38, 0x41, 
  0xf1, 0xf5, 0x38, 0x3c, 0x4d, 0xb7, 0xd8, 0x52, 0x2e, 0x39, 0xdb, 0x0c, 
  0x24, 0x03, 0xfc, 0x39, 0x5b, 0x05, 0x16, 0x2e, 0x07, 0x04, 0x1b, 0x5d, 
  0xe0, 0x1b, 0xab, 0xf3, 0x36, 0x17, 0xde, 0xf1, 0x71, 0x7f, 0x0f, 0x2e, 
  0x4c, 0x06, 0xfa, 0xfd, 0x3d, 0xcb, 0x10, 0xdf, 0x6e, 0xc3, 0xea, 0x5f, 
  0x4a, 0x0b, 0xe9, 0x10, 0x58, 0x25, 0x09, 0x2d, 0xdd, 0xbe, 0x16, 0x1f, 
  0x39, 0x11, 0x11, 0x51, 0x33, 0x17, 0x1e, 0xde, 0x12, 0xb7, 0xeb, 0x41, 
  0xe0, 0xc3, 0x16, 0x2d, 0x60, 0xe0, 0xca, 0xe5, 0x53, 0x71, 0x25, 0xdd, 
  0x49, 0xc0, 0xdb, 0x7a, 0x06, 0x3f, 0xb7, 0x3f, 0x42, 0xc8, 0x23, 0xf5, 
  0xf6, 0x4a, 0x51, 0xd3, 0xdd, 0x08, 0x3f, 0x1a, 0x1a, 0xc2, 0x03, 0xf2, 
  0x42, 0x36, 0x31, 0x2c, 0x24, 0x38, 0x23, 0xc1, 0x62, 0x2c, 0x49, 0x13, 
  0xc7, 0xce, 0x01, 0xde, 0x51, 0x31, 0xe6, 0x32, 0x0d, 0x0b, 0x61, 0x2a, 
  0x68, 0x19, 0x3e, 0x28, 0x24, 0xf1, 0x30, 0xe0, 0x17, 0xd2, 0xd6, 0x41, 
  0x21, 0x4e, 0x5b, 0xc7, 0xfe, 0x25, 0x10, 0x14, 0xfb, 0xe3, 0xe2, 0x18, 
  0x0a, 0x2a, 0xdd, 0x3a, 0xef, 0x5f, 0x35, 0xd2, 0xf3, 0xde, 0xd3, 0x2d, 
  0x22, 0x2b, 0x0c, 0xd3, 0x4f, 0xcf, 0x10, 0xfe, 0xf6, 0x44, 0x03, 0xd2, 
  0x24, 0xdb, 0x37, 0x02, 0x0e, 0x17, 0x19, 0x00, 0x10, 0x1f, 0xe2, 0x35, 
  0x09, 0x44, 0x75, 0x12, 0x56, 0xd9, 0x2c, 0x3f, 0xf2, 0xf2, 0x21, 0xe7, 
  0x08, 0x1f, 0x08, 0xed, 0x5c, 0x5a, 0x50, 0xd4, 0x4d, 0x25, 0x14, 0x5e, 
  0xef, 0x24, 0xce, 0xde, 0x1c, 0xe1, 0xde, 0x31, 0x1d, 0x32, 0x03, 0x3a, 
  0x1c, 0xc6, 0xfa, 0x01, 0x0b, 0xd0, 0xee, 0x33, 0xf9, 0xf3, 0x16, 0x3f, 
  0x0d, 0x47, 0x63, 0xe4, 0x10, 0x0d, 0x0a, 0x38, 0x13, 0x23, 0x1d, 0x20, 
  0x1a, 0xeb, 0xf0, 0xed, 0x32, 0xfe, 0x37, 0xf1, 0xff, 0x15, 0xea, 0x49, 
  0xec, 0xfe, 0x2d, 0x43, 0x15, 0x1d, 0x12, 0xed, 0x1c, 0x09, 0x7f, 0x2e, 
  0x5f, 0x15, 0xf8, 0x15, 0x07, 0x0d, 0x3d, 0x10, 0xf9, 0xbd, 0x3b, 0xcd, 
  0xa3, 0x1d, 0x16, 0x21, 0xb4, 0x4a, 0xd1, 0xee, 0x16, 0xed, 0x32, 0xee, 
  0xbb, 0x3b, 0x0d, 0xb0, 0xa6, 0xbf, 0x0e, 0x2f, 0xa4, 0xf6, 0x47, 0xda, 
  0x1f, 0x34, 0x4c, 0xda, 0xb5, 0xc0, 0xfc, 0x2e, 0xa5, 0xc4, 0xec, 0xf6, 
  0xfa, 0xd6, 0x1c, 0xf3, 0x12, 0x38, 0xd8, 0x06, 0xaa, 0x03, 0xf4, 0xd7, 
  0xfd, 0x9d, 0x31, 0xd1, 0xb1, 0x2f, 0x10, 0x00, 0x1a, 0x3c, 0x5b, 0x41, 
  0xc2, 0x29, 0x27, 0xd9, 0x14, 0xaf, 0xd0, 0x32, 0x1d, 0xe0, 0xd3, 0xdf, 
  0xb9, 0xe7, 0x5c, 0x06, 0xc9, 0xe7, 0xf6, 0xcc, 0xd5, 0x05, 0xcc, 0x33, 
  0x03, 0xe3, 0x1b, 0xca, 0x0e, 0x3f, 0xe0, 0xb8, 0xe7, 0xb8, 0x16, 0x16, 
  0xb0, 0xfd, 0x03, 0x22, 0x11, 0x48, 0x43, 0xab, 0x38, 0x03, 0x33, 0xcd, 
  0xfc, 0xf9, 0x33, 0x13, 0xc2, 0xa5, 0x18, 0xf4, 0xe6, 0x54, 0x4d, 0xc8, 
  0x1c, 0xde, 0x4c, 0xd1, 0x0d, 0x47, 0x0c, 0x0d, 0xc5, 0x81, 0x08, 0x02, 
  0xe2, 0x05, 0xf9, 0xa9, 0x10, 0x58, 0x49, 0xbe, 0xe6, 0xe3, 0x5e, 0xcb, 
  0x14, 0xd2, 0xcc, 0x52, 0xf8, 0x28, 0xe3, 0x0c, 0x08, 0x5a, 0x68, 0xca, 
  0xc1, 0x25, 0x42, 0xa7, 0x81, 0xf7, 0xf3, 0x42, 0x17, 0x01, 0x44, 0x06, 
  0x0d, 0x5f, 0x13, 0xee, 0xb6, 0xb9, 0xc4, 0xf4, 0x13, 0xcc, 0x9b, 0x5f, 
  0xfe, 0x40, 0xd2, 0xd9, 0xe2, 0x10, 0x11, 0xd6, 0x85, 0x17, 0x4d, 0x01, 
  0xe5, 0x11, 0x08, 0x39, 0x2d, 0x56, 0x5e, 0xc6, 0x3b, 0x02, 0xf4, 0x2c, 
  0xef, 0xac, 0x64, 0x14, 0xa9, 0xac, 0xbc, 0xf7, 0xf0, 0x35, 0x30, 0xf0, 
  0xe4, 0x52, 0x07, 0xac, 0xec, 0xf3, 0xe0, 0x33, 0xb8, 0xde, 0xad, 0x01, 
  0x09, 0x39, 0x0c, 0xc6, 0xf9, 0x4a, 0xfe, 0xf1, 0xd8, 0x33, 0xfc, 0x8f, 
  0x91, 0x03, 0x25, 0x10, 0xc6, 0x21, 0xd3, 0x04, 0xa8, 0x50, 0x3b, 0x43, 
  0x9e, 0x4a, 0x2b, 0xd2, 0x90, 0x00, 0xc1, 0xf6, 0xd6, 0x0a, 0x4d, 0x13, 
  0xb8, 0x0d, 0xee, 0xf0, 0xe4, 0x44, 0x51, 0xc8, 0xbe, 0x0d, 0xe0, 0x3a, 
  0x8e, 0x3f, 0x29, 0xd5, 0x38, 0x02, 0xb2, 0x3e, 0xfa, 0xbd, 0xf4, 0xd9, 
  0x0c, 0x18, 0x57, 0x45, 0xec, 0xce, 0xe9, 0x21, 0xe2, 0xcc, 0x15, 0x2a, 
  0x65, 0x31, 0xcd, 0x2a, 0x39, 0x32, 0x56, 0x2c, 0x5a, 0xc0, 0x14, 0x31, 
  0x45, 0xc9, 0x3d, 0x3c, 0xf8, 0xc1, 0xd6, 0x51, 0x10, 0x3b, 0x2b, 0xd5, 
  0x0c, 0xae, 0x04, 0x56, 0x1b, 0xe3, 0x07, 0xdf, 0x70, 0xd1, 0x29, 0xde, 
  0x57, 0x08, 0x22, 0x42, 0x51, 0x0d, 0x1a, 0x7b, 0x2b, 0xc5, 0x24, 0x50, 
  0x50, 0x36, 0x16, 0x04, 0x78, 0x2e, 0x5e, 0xcc, 0xfe, 0x35, 0xee, 0x6c, 
  0xf9, 0xe2, 0xcf, 0x04, 0x55, 0x14, 0x10, 0x69, 0x2d, 0x43, 0x2e, 0xb9, 
  0xe0, 0x00, 0xce, 0x24, 0x38, 0x0e, 0x38, 0xf7, 0x44, 0x1f, 0x04, 0x50, 
  0xf8, 0x19, 0x50, 0x29, 0x4d, 0xfa, 0x3e, 0x7f, 0x2d, 0xdd, 0x27, 0x50, 
  0xf1, 0xc9, 0x45, 0xf9, 0x64, 0xf6, 0x1f, 0xc9, 0x01, 0x2f, 0xf9, 0x2f, 
  0x0c, 0xcc, 0xec, 0xd6, 0x41, 0xe4, 0xc4, 0xdb, 0x2b, 0x05, 0x0a, 0x06, 
  0xe0, 0xaf, 0xe1, 0x49, 0x29, 0x60, 0xab, 0x90, 0xee, 0x53, 0xdd, 0xce, 
  0x9a, 0x1f, 0xec, 0x3c, 0xee, 0x4b, 0xac, 0xd6, 0x06, 0xed, 0xf6, 0xa0, 
  0x01, 0x1e, 0xbb, 0xa7, 0x66, 0x62, 0xa2, 0xc1, 0x31, 0x0d, 0x30, 0x2b, 
  0x30, 0x94, 0x21, 0x5c, 0x3e, 0x48, 0x0a, 0x32, 0x72, 0xa2, 0x4a, 0x81, 
  0x10, 0x30, 0x95, 0x5b, 0xda, 0x26, 0xc5, 0xff, 0x95, 0xf3, 0x99, 0x29, 
  0xb0, 0x3a, 0xa7, 0x03, 0x48, 0x1e, 0x04, 0x4c, 0xde, 0xf9, 0xf0, 0xb3, 
  0xb2, 0x06, 0xd1, 0xe5, 0xa6, 0x05, 0x0b, 0x4b, 0x06, 0xe5, 0x9c, 0x12, 
  0x1c, 0x43, 0xd3, 0x23, 0x12, 0x5c, 0xc4, 0xdd, 0x57, 0x02, 0xa8, 0x3d, 
  0xbd, 0x09, 0xd5, 0xd5, 0xda, 0x85, 0x5c, 0x61, 0x85, 0x21, 0x3b, 0x8b, 
  0xa7, 0xb0, 0x98, 0x0a, 0xc6, 0xa4, 0xde, 0x91, 0xe9, 0xef, 0xde, 0x43, 
  0xda, 0x2c, 0xd7, 0x54, 0x00, 0x01, 0xec, 0x0b, 0x11, 0xca, 0xb4, 0xd7, 
  0xea, 0x90, 0xcc, 0x44, 0x34, 0xa0, 0xf9, 0x23, 0x41, 0xa3, 0xac, 0x30, 
  0xbe, 0xf8, 0xa3, 0x1a, 0xd1, 0x36, 0x36, 0x29, 0x69, 0xe7, 0x22, 0x59, 
  0xfc, 0x32, 0x69, 0xf3, 0x37, 0xfa, 0xee, 0x55, 0xd6, 0xcd, 0xf4, 0xde, 
  0x0f, 0x23, 0x0c, 0xe5, 0x3d, 0x32, 0x2e, 0xd2, 0x4e, 0xc7, 0xd4, 0x05, 
  0xef, 0xbe, 0x32, 0x4f, 0x59, 0x30, 0x39, 0x64, 0x39, 0x09, 0x0c, 0x03, 
  0x13, 0x40, 0x42, 0xf8, 0x03, 0x12, 0x15, 0x40, 0x0a, 0xc2, 0xca, 0x66, 
  0x7a, 0x39, 0x6d, 0xf2, 0x2d, 0x3c, 0x43, 0x57, 0x13, 0xed, 0xb8, 0x32, 
  0x5d, 0xdf, 0x03, 0xea, 0xeb, 0x32, 0x73, 0x00, 0x6c, 0x31, 0x0b, 0x2d, 
  0xec, 0xe7, 0xf4, 0x13, 0x52, 0xd5, 0xe8, 0xfd, 0xf0, 0x4d, 0x10, 0x37, 
  0x62, 0xb2, 0x28, 0x2f, 0x35, 0x3b, 0x14, 0x1f, 0x18, 0xba, 0xc3, 0x10, 
  0x32, 0x04, 0x5c, 0xcb, 0x2f, 0xe8, 0xcf, 0x18, 0xdc, 0x29, 0x09, 0xf9, 
  0xf8, 0x40, 0xce, 0x32, 0x42, 0x24, 0x62, 0x32, 0x37, 0x39, 0xf8, 0x10, 
  0xe3, 0x47, 0xc3, 0xf4, 0x6b, 0x26, 0xe3, 0xf2, 0x35, 0x7f, 0x40, 0x1e, 
  0x53, 0x02, 0xe0, 0x6d, 0x4e, 0xc6, 0x3f, 0xd4, 0x35, 0xe1, 0x11, 0x0c, 
  0x69, 0x14, 0x1a, 0xcd, 0x48, 0x09, 0x02, 0x2a, 0x4b, 0xfc, 0x34, 0xeb, 
  0x21, 0x33, 0xc0, 0x09, 0x3a, 0x7b, 0xe4, 0x32, 0xee, 0xc3, 0xc1, 0x48, 
  0xf7, 0xc0, 0xe7, 0x14, 0x2d, 0x43, 0x39, 0xf7, 0x16, 0x7f, 0xe3, 0xbb, 
  0x5b, 0x00, 0xf2, 0x27, 0xf6, 0x2e, 0xd8, 0xe4, 0xf4, 0x05, 0x3a, 0x54, 
  0xed, 0x04, 0xf5, 0x31, 0x31, 0xe1, 0xfe, 0x43, 0x1a, 0xdd, 0x07, 0xf2, 
  0x27, 0x00, 0xf1, 0x3d, 0x43, 0xfa, 0x26, 0x05, 0x51, 0xc3, 0xcc, 0x07, 
  0x1c, 0x45, 0x27, 0x33, 0x22, 0xd8, 0xf6, 0x4d, 0x15, 0x57, 0x5b, 0xe8, 
  0x14, 0xc8, 0x19, 0x34, 0x30, 0x26, 0x00, 0x34, 0x01, 0xe7, 0xef, 0x02, 
  0x01, 0x02, 0x31, 0x2d, 0x5a, 0x05, 0x0e, 0x6c, 0x41, 0x2b, 0x06, 0xd7, 
  0xf8, 0x36, 0x16, 0x54, 0x3d, 0x24, 0x47, 0xf6, 0x5b, 0x0b, 0xd4, 0x1f, 
  0x50, 0xd1, 0xdc, 0xe3, 0x11, 0x01, 0x15, 0x67, 0x52, 0x45, 0x1f, 0xef, 
  0x36, 0x02, 0xf8, 0x02, 0xd0, 0x8c, 0x74, 0xfd, 0xb9, 0x72, 0x94, 0xe2, 
  0xf1, 0x2b, 0x2f, 0x92, 0xda, 0x85, 0xfa, 0x82, 0x9c, 0x26, 0x64, 0xd3, 
  0xba, 0xac, 0x96, 0x90, 0x32, 0xa1, 0xa5, 0x6b, 0xb9, 0xa9, 0x0d, 0xc7, 
  0x0e, 0xdb, 0xeb, 0x2e, 0x1c, 0xcb, 0xa9, 0xb2, 0xde, 0xb5, 0x1b, 0x78, 
  0xc5, 0xa6, 0xe6, 0x8b, 0xe4, 0x4d, 0x1e, 0xf2, 0x1a, 0x79, 0xdc, 0x9c, 
  0xbe, 0x64, 0xc7, 0x53, 0xb7, 0xb8, 0x26, 0x6d, 0x95, 0xc8, 0xd2, 0x79, 
  0x00, 0xfc, 0xbf, 0x2f, 0x02, 0x21, 0xf8, 0xc1, 0x20, 0x0d, 0x0e, 0x4c, 
  0x3f, 0x1f, 0xbc, 0xf9, 0xb8, 0x2e, 0xa8, 0x22, 0x84, 0xba, 0xc6, 0x40, 
  0x9a, 0x4e, 0x10, 0x7f, 0x18, 0x64, 0xea, 0xb9, 0x3b, 0x4a, 0x77, 0x9c, 
  0x7a, 0x81, 0xf8, 0xb0, 0x21, 0x1d, 0x6b, 0x6f, 0x6b, 0x8f, 0x77, 0xd5, 
  0x54, 0xb0, 0xdf, 0x94, 0x66, 0xb3, 0x69, 0x4b, 0x3a, 0x17, 0x95, 0xb3, 
  0x93, 0xc1, 0x4c, 0x92, 0x07, 0xe6, 0xaf, 0x30, 0x21, 0xc7, 0x35, 0x96, 
  0xe0, 0x14, 0x9c, 0xe1, 0x50, 0x17, 0x08, 0xf6, 0x4e, 0xfa, 0x36, 0x12, 
  0x35, 0x35, 0x26, 0x1e, 0x1f, 0xc4, 0xf2, 0x6f, 0xc9, 0xd5, 0x19, 0xd3, 
  0x0b, 0xbe, 0xeb, 0xe5, 0x5c, 0xeb, 0x41, 0xbf, 0x27, 0xce, 0x0c, 0x69, 
  0x29, 0xd0, 0xf7, 0x22, 0x18, 0xf9, 0xc0, 0xf3, 0x59, 0x4c, 0x1f, 0x21, 
  0x59, 0x1a, 0xc2, 0x73, 0xfd, 0x03, 0x27, 0xed, 0xf1, 0xfb, 0x0e, 0x3f, 
  0x69, 0xf9, 0x5f, 0xc1, 0xfc, 0x0d, 0xd1, 0xf3, 0x2d, 0xd4, 0xee, 0x29, 
  0x39, 0xcc, 0xd5, 0x3e, 0x4c, 0xf1, 0x0d, 0x2a, 0x66, 0xdc, 0xca, 0x54, 
  0xd4, 0x37, 0x2d, 0x06, 0xf1, 0x2d, 0xc2, 0xe8, 0x3d, 0x46, 0x7f, 0xce, 
  0x28, 0x08, 0x4b, 0x43, 0x4e, 0xff, 0xf3, 0xfc, 0x5a, 0x1d, 0xdd, 0xed, 
  0x17, 0xfc, 0x6f, 0x39, 0x31, 0xb9, 0x4a, 0x14, 0x23, 0x1b, 0x18, 0xe6, 
  0x28, 0x0b, 0xda, 0x19, 0x5f, 0x4e, 0x25, 0xc3, 0xfd, 0x30, 0x48, 0xfd, 
  0x19, 0xcb, 0x34, 0xd7, 0x69, 0xe6, 0x0e, 0x64, 0x1a, 0xf8, 0x44, 0x40, 
  0x39, 0x18, 0x23, 0x02, 0x4f, 0xd4, 0x1d, 0xdf, 0x23, 0x13, 0x32, 0x0a, 
  0x1a, 0x21, 0x58, 0x13, 0x5e, 0x38, 0x2b, 0x5d, 0x13, 0x07, 0xc2, 0x0b, 
  0xf5, 0x0a, 0xb6, 0x5c, 0x13, 0xff, 0x2b, 0xf3, 0x20, 0x2e, 0xf6, 0x02, 
  0x48, 0xf9, 0xc5, 0xde, 0x41, 0x23, 0x04, 0x5d, 0x17, 0x36, 0x0d, 0xea, 
  0x38, 0xf2, 0x05, 0x11, 0x1b, 0xf8, 0x15, 0x11, 0x05, 0xe2, 0xc3, 0x05, 
  0x4a, 0x64, 0x72, 0xcc, 0x0f, 0xf7, 0x13, 0x60, 0xe1, 0x44, 0xdc, 0xce, 
  0x44, 0xd6, 0x2a, 0x21, 0x55, 0xf6, 0x5b, 0xf3, 0x0a, 0xbb, 0x2a, 0x68, 
  0x08, 0x0e, 0xff, 0x41, 0x0d, 0x15, 0xd0, 0x0f, 0x42, 0x7f, 0x4d, 0x11, 
  0x35, 0xfd, 0x36, 0x07, 0x0f, 0xbc, 0x0e, 0xd3, 0x4a, 0xe5, 0xf8, 0xfe, 
  0x15, 0x43, 0x29, 0xbc, 0x38, 0x1a, 0x08, 0x5f, 0x35, 0xd8, 0x0d, 0xf9, 
  0x2c, 0xe1, 0x23, 0xef, 0x2d, 0x62, 0xf5, 0x2d, 0x62, 0xc8, 0x34, 0x2e, 
  0xee, 0xe7, 0xb6, 0x49, 0x3c, 0xd9, 0x00, 0x3d, 0x22, 0xf5, 0x19, 0x1a, 
  0x4a, 0xd5, 0xd5, 0x39, 0x49, 0x51, 0xc4, 0x96, 0xd5, 0xfe, 0xa2, 0xc7, 
  0xa8, 0x47, 0xa0, 0xf8, 0x89, 0x8e, 0xe9, 0x10, 0xbb, 0xf8, 0x42, 0xc3, 
  0xfd, 0x98, 0xf8, 0x32, 0x95, 0xc2, 0x1f, 0x1b, 0x21, 0x0d, 0xca, 0xe6, 
  0x6c, 0xa2, 0xb3, 0x82, 0x29, 0x22, 0xb3, 0x58, 0x51, 0xdb, 0x3b, 0x4a, 
  0x16, 0x05, 0xe1, 0xe1, 0x5c, 0x1c, 0x25, 0xc0, 0x13, 0x53, 0xbe, 0x17, 
  0x46, 0x2e, 0xeb, 0xfb, 0x8e, 0x12, 0xc2, 0x5a, 0x09, 0xfc, 0x1c, 0x1b, 
  0xb0, 0x42, 0x8b, 0x37, 0x44, 0x61, 0x07, 0xe0, 0xef, 0xe4, 0x54, 0xcc, 
  0xed, 0x70, 0x14, 0xe6, 0x0d, 0x33, 0xdf, 0xd8, 0xa3, 0x65, 0x2c, 0x19, 
  0xbb, 0xfb, 0xed, 0x47, 0x9f, 0x50, 0xbe, 0xae, 0x13, 0x07, 0x63, 0x99, 
  0xfa, 0xe4, 0x39, 0x20, 0x95, 0x0c, 0xb4, 0x2f, 0x00, 0x9f, 0xce, 0xde, 
  0xce, 0xf4, 0xde, 0x81, 0x68, 0x07, 0xc3, 0x6c, 0x07, 0xa7, 0xf6, 0x49, 
  0x10, 0x37, 0xdc, 0xbe, 0x6c, 0x4d, 0xa2, 0x61, 0x97, 0x53, 0xfb, 0x70, 
  0xbc, 0x29, 0xf9, 0x40, 0x3f, 0x50, 0x4a, 0xec, 0xa1, 0x44, 0x3b, 0xa3, 
  0xa3, 0x15, 0x10, 0x07, 0xc1, 0x56, 0x58, 0xaf, 0xd9, 0xc0, 0x1d, 0x4f, 
  0x2c, 0xc2, 0x07, 0xba, 0x0b, 0x16, 0xe3, 0x30, 0xd6, 0xf5, 0xed, 0xf1, 
  0x08, 0x15, 0x4f, 0x3a, 0xb3, 0x1f, 0xea, 0x00, 0x23, 0xc4, 0xf2, 0xfa, 
  0xe3, 0xe7, 0xec, 0xfb, 0x2d, 0x46, 0xf3, 0xe6, 0xed, 0xdf, 0x2e, 0x2b, 
  0x99, 0x16, 0x07, 0x32, 0x02, 0xce, 0x59, 0xe8, 0x24, 0x49, 0x5c, 0xde, 
  0xae, 0x4d, 0x0c, 0xd3, 0xa9, 0xdc, 0x2d, 0x0a, 0xe2, 0x2d, 0x5a, 0xcf, 
  0xd7, 0xc3, 0xce, 0x28, 0x0a, 0x2e, 0xf1, 0xbd, 0xd1, 0xaf, 0x10, 0x57, 
  0x12, 0x20, 0xe2, 0xb1, 0xbe, 0x54, 0xdf, 0x38, 0xac, 0xd8, 0x50, 0xf2, 
  0xa5, 0x82, 0xb1, 0xcb, 0x2f, 0x5c, 0xd4, 0x81, 0xfc, 0x33, 0x1a, 0xb0, 
  0xb1, 0xad, 0xd5, 0xf1, 0xd1, 0x86, 0xfd, 0x0c, 0xda, 0xf1, 0x32, 0xf2, 
  0x2e, 0xc6, 0x35, 0xbd, 0xa6, 0xba, 0xde, 0x0f, 0x96, 0x9d, 0xba, 0xde, 
  0x09, 0x67, 0xcd, 0x15, 0x26, 0xde, 0xed, 0x0c, 0xdb, 0x26, 0xbd, 0x22, 
  0x51, 0x7f, 0x2a, 0x02, 0x65, 0x44, 0xdc, 0xf7, 0x5a, 0xc1, 0x3f, 0x2c, 
  0x0b, 0xf4, 0xea, 0x4e, 0x6f, 0x4c, 0xf8, 0xe4, 0xfa, 0xb4, 0x03, 0x60, 
  0xc6, 0x26, 0xd0, 0x06, 0xe8, 0xfc, 0x1f, 0x57, 0x12, 0x74, 0xf1, 0x01, 
  0x6b, 0xba, 0x39, 0x75, 0xd9, 0xc3, 0xf4, 0x18, 0x12, 0xe8, 0xba, 0x5a, 
  0x08, 0x60, 0xf8, 0x17, 0x3c, 0xc2, 0x51, 0x03, 0x44, 0x16, 0xb3, 0x4a, 
  0x53, 0xe8, 0xcb, 0xfa, 0x21, 0x14, 0x73, 0x1e, 0x3c, 0xb9, 0xe8, 0x27, 
  0xf0, 0x39, 0xe8, 0x33, 0x20, 0xc3, 0xb8, 0x11, 0x58, 0x30, 0x10, 0xd3, 
  0x38, 0x1c, 0x49, 0x60, 0x39, 0x2c, 0xf2, 0x4c, 0x3a, 0xf1, 0xdf, 0x44, 
  0x75, 0x0c, 0x4c, 0x21, 0x46, 0xe5, 0x22, 0x0e, 0xc6, 0x3b, 0xf1, 0x26, 
  0x78, 0xfd, 0xbc, 0xed, 0x3b, 0x6a, 0x7c, 0x46, 0xdb, 0x31, 0x0a, 0x75, 
  0x17, 0x25, 0xf0, 0x17, 0x29, 0x00, 0xee, 0x1f, 0x10, 0x2e, 0x28, 0x08, 
  0x0a, 0xc7, 0x33, 0x15, 0xbf, 0x4e, 0x1c, 0x3e, 0x0d, 0x00, 0x4b, 0xac, 
  0xf5, 0xb3, 0x46, 0x07, 0xdc, 0x13, 0xe6, 0xb6, 0x1b, 0x01, 0xf6, 0xf7, 
  0xbc, 0xfd, 0xc7, 0x2e, 0xa8, 0x87, 0xc8, 0xc7, 0x16, 0x43, 0x2d, 0xf9, 
  0x3f, 0xc9, 0x0d, 0x13, 0xba, 0x27, 0x3c, 0x10, 0x2a, 0x81, 0xdc, 0xe5, 
  0xbb, 0x68, 0xe3, 0xa7, 0x29, 0xc6, 0x3d, 0xeb, 0x30, 0x3b, 0x0d, 0x2c, 
  0x00, 0x9a, 0xa6, 0xeb, 0xc6, 0xfc, 0xee, 0xd4, 0xc1, 0xee, 0x63, 0x39, 
  0xa2, 0x1c, 0x33, 0x07, 0xf3, 0xac, 0x3d, 0xc6, 0xa6, 0x10, 0x46, 0xdc, 
  0x04, 0x4e, 0x5d, 0x26, 0x00, 0x33, 0x0c, 0xe6, 0xfb, 0x01, 0x24, 0x0f, 
  0x29, 0x33, 0x0a, 0xc4, 0x29, 0xc9, 0x15, 0x37, 0x0e, 0x40, 0xdb, 0x21, 
  0x8a, 0xdf, 0xbc, 0x57, 0xa0, 0x4f, 0xed, 0xf3, 0xe8, 0xbc, 0xdb, 0xfd, 
  0xf8, 0x16, 0x5a, 0x90, 0x8d, 0x96, 0x03, 0xca, 0xc4, 0x42, 0x32, 0xdd, 
  0x43, 0xec, 0x5e, 0xb5, 0xcc, 0x2f, 0x53, 0xb2, 0xec, 0x83, 0x06, 0x42, 
  0xb4, 0x3d, 0x36, 0xb5, 0x3c, 0x12, 0x2e, 0xb1, 0xf5, 0xbd, 0x8c, 0xd8, 
  0x97, 0xb3, 0x85, 0xc6, 0x4e, 0xdd, 0x15, 0x92, 0xe9, 0xc8, 0xac, 0x9d, 
  0x5c, 0x6d, 0x39, 0x64, 0x95, 0x94, 0x6b, 0xe8, 0xa3, 0xc5, 0x57, 0x87, 
  0xf8, 0xbe, 0xad, 0xdd, 0x39, 0xba, 0xc1, 0xa4, 0x9c, 0xd2, 0x87, 0x0d, 
  0x03, 0x87, 0xe5, 0x00, 0x6b, 0x0a, 0x48, 0x50, 0xa2, 0x00, 0xf6, 0xf3, 
  0x2a, 0x46, 0x37, 0xd4, 0xf4, 0xf8, 0x04, 0x55, 0x18, 0x2d, 0xa9, 0xf3, 
  0x42, 0xf2, 0xa7, 0x3b, 0x6e, 0xb7, 0x3e, 0x29, 0x5b, 0x17, 0x4f, 0xa5, 
  0x4c, 0x51, 0xcc, 0xe8, 0xef, 0xf8, 0x29, 0x16, 0xd0, 0x8f, 0x00, 0x66, 
  0xc4, 0x2d, 0x9b, 0x0a, 0x93, 0x9a, 0x6e, 0x81, 0xc7, 0xd5, 0x5c, 0x61, 
  0x29, 0xd0, 0x05, 0xd1, 0x39, 0xaf, 0x5f, 0xd9, 0x3e, 0x06, 0x93, 0x9c, 
  0xb9, 0xc2, 0xa5, 0xff, 0xfb, 0x65, 0x3f, 0x0b, 0xdf, 0x42, 0xb2, 0xa6, 
  0x06, 0x16, 0xa9, 0xac, 0x5b, 0x3a, 0xa1, 0x07, 0x04, 0x65, 0x8f, 0xda, 
  0xf9, 0x89, 0xc9, 0xca, 0xbe, 0xde, 0x63, 0xb8, 0x15, 0x42, 0xfc, 0xa2, 
  0xf0, 0xa8, 0x2e, 0x15, 0xfe, 0x37, 0xd3, 0x9c, 0x11, 0xc7, 0xfb, 0x11, 
  0xf3, 0xb5, 0x23, 0xfe, 0xc2, 0xb1, 0xa7, 0x5c, 0x9e, 0x0a, 0x3c, 0x9f, 
  0xba, 0xd8, 0x50, 0x29, 0x24, 0x00, 0x04, 0x1a, 0x14, 0x81, 0x27, 0x16, 
  0xe6, 0x1d, 0x1a, 0xc9, 0x39, 0x3e, 0x54, 0xbf, 0x08, 0xfd, 0x5d, 0xa7, 
  0x0b, 0x09, 0xca, 0xf2, 0x16, 0x03, 0x00, 0xdb, 0x1b, 0x2f, 0x37, 0xdf, 
  0xee, 0x3e, 0xd0, 0xf1, 0x1e, 0xb0, 0xba, 0xe3, 0x20, 0x35, 0x01, 0x05, 
  0x37, 0xf1, 0x43, 0xb7, 0x11, 0xf3, 0x47, 0x1d, 0xdf, 0xbe, 0xe9, 0xd8, 
  0x90, 0xdf, 0x59, 0x17, 0xbf, 0xe3, 0x57, 0xbc, 0x14, 0xc6, 0x5c, 0xc4, 
  0xdd, 0xee, 0xe3, 0x21, 0xa0, 0x5c, 0xd7, 0xf5, 0x1a, 0xca, 0xf5, 0x43, 
  0xac, 0x12, 0x33, 0xa9, 0x0d, 0x9e, 0xc4, 0x32, 0x2a, 0xf5, 0x46, 0x81, 
  0x05, 0xe0, 0x12, 0x41, 0xeb, 0x08, 0x37, 0x05, 0xac, 0x9c, 0xab, 0x2e, 
  0x13, 0x56, 0x14, 0x0d, 0xc9, 0xdc, 0x04, 0x3e, 0xa4, 0xd6, 0x34, 0xbe, 
  0xf5, 0x1a, 0x00, 0x2b, 0xff, 0x3b, 0x4b, 0x8e, 0xf5, 0x34, 0x04, 0x1b, 
  0xaf, 0xe8, 0xdc, 0xdc, 0xd8, 0xa0, 0xb0, 0x5c, 0xee, 0x2a, 0x53, 0x8e, 
  0xf4, 0xc6, 0x2e, 0xca, 0x1b, 0xb9, 0x1b, 0xab, 0xec, 0x91, 0x22, 0x04, 
  0xfc, 0xf7, 0xce, 0x83, 0x32, 0x49, 0x1a, 0xec, 0x02, 0xc4, 0x3c, 0xc7, 
  0xfe, 0xfc, 0xaa, 0x41, 0xf3, 0x27, 0xff, 0x91, 0xdc, 0x48, 0x12, 0x26, 
  0xe6, 0x1e, 0x21, 0xa2, 0xe0, 0x08, 0xd5, 0xcf, 0xe7, 0xee, 0x21, 0x0f, 
  0x13, 0xc3, 0x62, 0xbb, 0xff, 0x46, 0xde, 0xc0, 0xa5, 0xaf, 0x96, 0x10, 
  0xf0, 0xe4, 0xeb, 0x1e, 0xfa, 0x41, 0xdb, 0x3b, 0xc9, 0xae, 0x58, 0xdb, 
  0x05, 0x19, 0xd3, 0xf1, 0x93, 0x5d, 0x44, 0xa9, 0x3e, 0x1c, 0x21, 0xea, 
  0xee, 0x00, 0xc6, 0x10, 0xd2, 0xee, 0xf9, 0x02, 0xb3, 0x5b, 0x09, 0xcd, 
  0x19, 0xe6, 0xdf, 0x2c, 0x14, 0x4a, 0xd2, 0x9a, 0x81, 0xe1, 0xbd, 0xe7, 
  0x16, 0xdc, 0x47, 0x8b, 0x35, 0xae, 0xfb, 0x4e, 0x5b, 0x24, 0x36, 0x3e, 
  0xf8, 0x4a, 0x0a, 0xc8, 0xd9, 0x04, 0xb9, 0x5c, 0xea, 0x41, 0x1b, 0xf0, 
  0xe1, 0x0d, 0xbd, 0x2a, 0x67, 0x6f, 0x4c, 0xf3, 0x68, 0x10, 0x27, 0x56, 
  0x38, 0xda, 0x32, 0xca, 0x75, 0x53, 0x0b, 0x0e, 0x29, 0x20, 0xef, 0xbd, 
  0x46, 0x17, 0x32, 0x48, 0x3b, 0xc4, 0xf0, 0x4a, 0x45, 0x1c, 0xb0, 0x33, 
  0x3a, 0x1f, 0xf5, 0x29, 0xdb, 0x09, 0x37, 0xec, 0xf2, 0x49, 0xe6, 0x2c, 
  0x20, 0xc6, 0xc6, 0x2c, 0x64, 0x58, 0x58, 0xb9, 0xf2, 0xfd, 0x00, 0x7f, 
  0xeb, 0xcb, 0xf8, 0xd7, 0x4f, 0xc6, 0x32, 0x50, 0x6f, 0x34, 0xda, 0x28, 
  0x03, 0xb0, 0xcc, 0x57, 0x3f, 0x42, 0x3a, 0xe5, 0xf2, 0x37, 0x0f, 0x6b, 
  0x46, 0x55, 0x0a, 0xb0, 0xfa, 0xe7, 0x0d, 0xf4, 0x3c, 0x28, 0xdc, 0xdc, 
  0x00, 0x20, 0x17, 0x26, 0x25, 0xfc, 0x4d, 0xb9, 0x49, 0x0e, 0x07, 0x38, 
  0x50, 0xc5, 0xba, 0xe8, 0x63, 0xe1, 0x15, 0xed, 0x3f, 0x44, 0x55, 0x0f, 
  0x74, 0x18, 0x2e, 0x29, 0x6e, 0xd8, 0x09, 0x32, 0x4d, 0x73, 0x0a, 0x56, 
  0x54, 0xee, 0x6a, 0x4b, 0xc8, 0xc4, 0x87, 0x2f, 0x03, 0x0e, 0xb1, 0x52, 
  0x38, 0x6a, 0xcf, 0x15, 0x02, 0x6d, 0x27, 0x9b, 0x29, 0x09, 0xe5, 0x98, 
  0xa9, 0x98, 0x1d, 0xe4, 0x6f, 0x37, 0x55, 0x8a, 0xe0, 0xed, 0x78, 0x09, 
  0xfd, 0xa4, 0x98, 0x62, 0xf2, 0x4d, 0xe6, 0x9a, 0x15, 0xec, 0x65, 0xa1, 
  0x55, 0x0d, 0x8e, 0x97, 0xdc, 0xc9, 0xe1, 0x94, 0xb6, 0x33, 0xc7, 0x4f, 
  0x03, 0x45, 0x19, 0x55, 0x0f, 0xfa, 0xd4, 0xb5, 0x60, 0x13, 0x24, 0xc7, 
  0x3a, 0x09, 0xfa, 0xc5, 0xae, 0x34, 0xaf, 0xf0, 0x64, 0xfe, 0xe9, 0x6f, 
  0x0f, 0xc9, 0xd3, 0xf3, 0xa7, 0xcd, 0x42, 0x8f, 0x81, 0xf0, 0xd3, 0xa1, 
  0x2b, 0xee, 0xa3, 0x08, 0x26, 0x15, 0x86, 0x79, 0x69, 0xd5, 0x50, 0xdd, 
  0x16, 0x5e, 0xb5, 0x71, 0xa1, 0xe3, 0x39, 0x49, 0x9c, 0xd5, 0x02, 0xd8, 
  0x00, 0xaa, 0xff, 0x85, 0xda, 0xd7, 0xe0, 0x71, 0x29, 0x64, 0xb3, 0xf6, 
  0xac, 0xba, 0x4c, 0x68, 0x1c, 0x46, 0x13, 0xeb, 0x18, 0x12, 0xf6, 0x23, 
  0xef, 0x9c, 0x0f, 0x21, 0x22, 0x05, 0x4d, 0xd4, 0xdd, 0xda, 0x14, 0xc3, 
  0xe0, 0x07, 0x43, 0x2a, 0xd5, 0xc9, 0x29, 0x23, 0xe6, 0x2c, 0x09, 0xc3, 
  0xd1, 0x13, 0xe0, 0x09, 0xae, 0xf5, 0x1c, 0x13, 0x00, 0x03, 0xd6, 0x27, 
  0x23, 0x22, 0x3b, 0xb5, 0xf4, 0xd4, 0x18, 0x12, 0x09, 0xf1, 0x07, 0xac, 
  0x91, 0xf0, 0xb8, 0x25, 0xe8, 0xd1, 0x09, 0x1b, 0xda, 0x50, 0xda, 0x04, 
  0x06, 0xc2, 0x3c, 0x22, 0x16, 0xeb, 0xc8, 0xc8, 0x13, 0x61, 0xc8, 0xbe, 
  0xcf, 0x2d, 0xea, 0xfd, 0x99, 0xce, 0xef, 0xc1, 0x9a, 0xc7, 0x2c, 0x49, 
  0xcf, 0x2e, 0xe2, 0xf2, 0xd1, 0x4b, 0x00, 0xe7, 0xc3, 0x36, 0x56, 0xfb, 
  0x15, 0xcd, 0xc3, 0x1f, 0xe8, 0xd4, 0x31, 0xf0, 0xfc, 0x0e, 0x4e, 0x00, 
  0x1a, 0x33, 0xe5, 0xce, 0x91, 0x0d, 0xc1, 0x20, 0xa1, 0x31, 0x32, 0xbd, 
  0x21, 0x16, 0x3c, 0x15, 0x13, 0x1b, 0x05, 0xd5, 0x87, 0x81, 0xef, 0x2d, 
  0x03, 0x5b, 0x3f, 0xc5, 0x24, 0xe0, 0x3a, 0x3d, 0xae, 0x19, 0xdd, 0xe1, 
  0xc0, 0xd1, 0xc9, 0xeb, 0x9a, 0x29, 0x3c, 0xbd, 0x24, 0x10, 0x2c, 0x28, 
  0xca, 0xd4, 0x55, 0xfa, 0xe3, 0x14, 0x27, 0xcd, 0x99, 0xf9, 0x22, 0xec, 
  0x2a, 0xea, 0x35, 0xdb, 0xac, 0x42, 0x22, 0x25, 0x09, 0xe4, 0x2b, 0x55, 
  0xd3, 0x00, 0x21, 0xfe, 0x10, 0x40, 0x2f, 0x35, 0xf9, 0xbb, 0xda, 0xab, 
  0xb7, 0xee, 0xb0, 0x1b, 0xe5, 0x4f, 0xf2, 0x00, 0xc2, 0x1a, 0x19, 0x2e, 
  0x0b, 0x05, 0x49, 0x01, 0xe3, 0xe3, 0x1e, 0x14, 0xe0, 0x33, 0xbe, 0x07, 
  0x2e, 0x19, 0x59, 0x23, 0xb7, 0x13, 0x52, 0xf1, 0xca, 0xcd, 0xfd, 0x4e, 
  0xb3, 0x47, 0x13, 0xee, 0x01, 0x14, 0x4b, 0x0a, 0x92, 0xe8, 0x42, 0xc8, 
  0xc2, 0xef, 0xc0, 0xcf, 0xe3, 0x40, 0x1b, 0x9c, 0xf4, 0x4e, 0x0e, 0xb8, 
  0xb9, 0x1a, 0xca, 0xc1, 0xa4, 0x81, 0xc9, 0x46, 0xc5, 0xdb, 0xcf, 0xb1, 
  0x0b, 0x1b, 0x21, 0xd6, 0xb0, 0xf9, 0x17, 0xa8, 0x88, 0xdd, 0xc3, 0xfc, 
  0xef, 0x22, 0x3f, 0x92, 0xfd, 0x16, 0x38, 0x3e, 0x68, 0x19, 0xf3, 0xe6, 
  0xef, 0x58, 0x4f, 0x38, 0xf8, 0xaf, 0xd2, 0x23, 0x44, 0xbd, 0xd3, 0x0f, 
  0x67, 0xbc, 0xc1, 0xf5, 0x68, 0xf2, 0x4a, 0x1f, 0x62, 0xde, 0x0c, 0xf0, 
  0x24, 0x22, 0x41, 0xf6, 0x2a, 0x1d, 0xfe, 0x03, 0x00, 0x58, 0x29, 0x07, 
  0x15, 0xb6, 0xda, 0x4d, 0xe5, 0x19, 0xfa, 0x42, 0x25, 0x04, 0xde, 0x27, 
  0x42, 0x36, 0x46, 0x3b, 0x01, 0x2a, 0x4e, 0x6b, 0xe9, 0xd7, 0x31, 0xc6, 
  0x55, 0x14, 0xce, 0x03, 0xf3, 0x5d, 0x17, 0xbc, 0x0e, 0xe1, 0x3a, 0x28, 
  0xde, 0x06, 0xf0, 0x12, 0x64, 0xf1, 0xd5, 0x37, 0xf2, 0x2a, 0x49, 0x0d, 
  0x64, 0xf1, 0xfc, 0x08, 0x20, 0x02, 0x44, 0x56, 0x78, 0x29, 0xd6, 0xed, 
  0x24, 0x3e, 0x10, 0x18, 0x21, 0xb6, 0xf0, 0xef, 0xcb, 0x2e, 0x41, 0x15, 
  0x26, 0x37, 0x03, 0x08, 0x42, 0x45, 0x7f, 0xe2, 0x28, 0x0d, 0x53, 0x63, 
  0x13, 0x49, 0xe6, 0x2d, 0x11, 0x39, 0xc4, 0x0c, 0x07, 0x0d, 0x21, 0xf8, 
  0x40, 0xd5, 0xd8, 0x58, 0x83, 0xe5, 0x85, 0xe6, 0x6a, 0xc7, 0xf7, 0xdf, 
  0x40, 0x2c, 0x1c, 0xca, 0xa8, 0xd8, 0xc2, 0x67, 0x67, 0xad, 0x69, 0x60, 
  0x91, 0x9a, 0xc7, 0xb3, 0xb7, 0x9c, 0xab, 0x0b, 0xb4, 0xdf, 0x9b, 0xde, 
  0x8e, 0xce, 0x2e, 0xb0, 0x46, 0x9d, 0x30, 0x85, 0x6b, 0x35, 0x02, 0xe5, 
  0x05, 0x15, 0x1d, 0x49, 0x25, 0x83, 0x5e, 0x29, 0x09, 0xa9, 0x63, 0xae, 
  0x3a, 0x46, 0xf5, 0x84, 0xe9, 0xe5, 0x7c, 0xa6, 0xa3, 0x8f, 0xd7, 0x0b, 
  0x46, 0xd9, 0x93, 0xda, 0xe8, 0x41, 0xf4, 0x1f, 0x55, 0x26, 0xa6, 0x68, 
  0xbb, 0x04, 0x4b, 0xcc, 0xd6, 0xa2, 0xca, 0x3d, 0x90, 0xd2, 0xf7, 0x01, 
  0x95, 0xb9, 0x28, 0x61, 0x5d, 0xc0, 0x44, 0x12, 0xf6, 0x51, 0xb0, 0xd6, 
  0xbf, 0x81, 0xac, 0x6b, 0xe4, 0x6a, 0xd0, 0x4a, 0xf8, 0xf9, 0xdb, 0x1d, 
  0x0b, 0x93, 0x8b, 0xc2, 0xe5, 0xc5, 0xce, 0x2a, 0xf6, 0x6e, 0x16, 0x02, 
  0xaf, 0xcd, 0xc9, 0x72, 0xdf, 0x40, 0x50, 0x3a, 0x7f, 0x9d, 0x48, 0xff, 
  0x20, 0xf6, 0x93, 0x16, 0x4a, 0xc3, 0x06, 0x1c, 0x37, 0x40, 0xf8, 0x05, 
  0x65, 0x4c, 0xfe, 0x3b, 0x6a, 0x2f, 0xfa, 0x4a, 0x0b, 0x03, 0x37, 0x4b, 
  0xfb, 0x3f, 0x3b, 0x15, 0x18, 0x46, 0xfe, 0xd3, 0x54, 0x22, 0xde, 0x36, 
  0xcb, 0x10, 0xc6, 0x2d, 0x38, 0x0e, 0x08, 0x56, 0x58, 0x6f, 0x6e, 0xf5, 
  0x20, 0x21, 0xef, 0xfc, 0x10, 0xfc, 0x07, 0x32, 0xeb, 0xfe, 0xe9, 0x07, 
  0x6c, 0x74, 0xee, 0xe6, 0x3f, 0x02, 0x38, 0x14, 0x34, 0xd3, 0x0f, 0x3b, 
  0x22, 0x33, 0xf8, 0x51, 0x4f, 0x19, 0x1f, 0xfa, 0x6c, 0xea, 0x21, 0x1f, 
  0xf2, 0xeb, 0x08, 0xd4, 0x61, 0x34, 0xe3, 0x4c, 0x38, 0x5f, 0x71, 0xcd, 
  0xf2, 0xed, 0xc1, 0x6f, 0xd6, 0x41, 0x13, 0x39, 0x6f, 0xeb, 0x1c, 0x32, 
  0x09, 0xfe, 0xf6, 0xc1, 0x1f, 0xcc, 0x19, 0x59, 0x0b, 0x25, 0xc9, 0xf7, 
  0x1f, 0xcc, 0x25, 0xfa, 0x26, 0x1e, 0x7a, 0x07, 0x3d, 0xbe, 0x05, 0x33, 
  0x47, 0xe9, 0xfc, 0x03, 0x45, 0x2a, 0xb5, 0xf4, 0x4d, 0x7f, 0x5a, 0xf1, 
  0x4e, 0x0a, 0xec, 0x30, 0xe2, 0xf6, 0xc8, 0x2c, 0x45, 0x02, 0xd0, 0xeb, 
  0xf6, 0x63, 0x3f, 0xef, 0x1e, 0xcf, 0x19, 0x1a, 0x12, 0x39, 0xe9, 0xe6, 
  0x5d, 0xc3, 0x16, 0x21, 0x40, 0x5e, 0x3d, 0xe1, 0xf2, 0xff, 0xe1, 0x77, 
  0xd9, 0xef, 0xb7, 0x10, 0xf0, 0xf4, 0x2b, 0xec, 0x68, 0x43, 0x05, 0x1d, 
  0xfc, 0x15, 0x13, 0xf9, 0x16, 0x0a, 0xde, 0xf9, 0x18, 0xd2, 0xc8, 0x13, 
  0x74, 0x6f, 0x2a, 0xf4, 0xff, 0xc1, 0x4d, 0x11, 0x40, 0xc7, 0xd6, 0x5a, 
  0x71, 0xd7, 0xc2, 0x22, 0x0e, 0x23, 0x69, 0x1c, 0x01, 0x2f, 0xdd, 0x02, 
  0x2b, 0xd6, 0xbe, 0x29, 0x27, 0x1a, 0xe0, 0x2c, 0x58, 0x26, 0x01, 0x2e, 
  0x54, 0xea, 0x36, 0x55, 0x3d, 0x3d, 0xe2, 0xe9, 0x4d, 0x24, 0x28, 0x52, 
  0x31, 0x54, 0x7f, 0x41, 0xfd, 0xfb, 0x50, 0x6b, 0x14, 0xcc, 0xc3, 0xd0, 
  0xea, 0x29, 0x3f, 0x22, 0x2d, 0x39, 0x4a, 0xcf, 0x46, 0xda, 0xf1, 0x5f, 
  0x07, 0x16, 0x0d, 0xe7, 0x09, 0x3a, 0xed, 0x56, 0x27, 0x7d, 0x41, 0x0c, 
  0x22, 0xf3, 0x27, 0x0c, 0xf0, 0xc3, 0xe3, 0xd5, 0xca, 0xcd, 0x4e, 0xfe, 
  0xcc, 0x8f, 0x28, 0x3e, 0x0b, 0x5e, 0xdb, 0xab, 0x02, 0x32, 0x1d, 0x39, 
  0xbf, 0xc2, 0xc9, 0xef, 0x1e, 0xb9, 0x34, 0xc6, 0x03, 0xe1, 0x43, 0x9b, 
  0xd0, 0xf2, 0x65, 0x2b, 0x19, 0x17, 0x0c, 0x0e, 0xd7, 0xaf, 0x23, 0x0d, 
  0x07, 0x08, 0x4a, 0x0d, 0xc3, 0xf4, 0x26, 0x31, 0xff, 0xda, 0xd0, 0xe2, 
  0xaf, 0xd7, 0x9a, 0x03, 0x02, 0xe7, 0x29, 0xfa, 0xbc, 0x15, 0x33, 0x47, 
  0xcd, 0xc2, 0x0e, 0xa5, 0x09, 0x8d, 0x14, 0x22, 0xb4, 0xef, 0x46, 0x9a, 
  0xd8, 0xea, 0x14, 0x11, 0xa5, 0xc2, 0x20, 0x32, 0xfe, 0x86, 0x1b, 0xdc, 
  0x16, 0x40, 0xf3, 0xa9, 0x3a, 0xf6, 0xf5, 0x0e, 0x13, 0xcc, 0x3c, 0xbf, 
  0x81, 0xad, 0xc9, 0x58, 0x01, 0x30, 0x35, 0xdc, 0xee, 0xed, 0x44, 0x23, 
  0xbc, 0x44, 0x24, 0x09, 0xee, 0xd0, 0xd3, 0x02, 0x18, 0x4d, 0xc5, 0xcc, 
  0xe0, 0xd1, 0x3c, 0x01, 0xe7, 0xfd, 0x58, 0xfe, 0xbd, 0xfc, 0x86, 0xd8, 
  0xa6, 0x12, 0x4e, 0x8e, 0xcf, 0xc5, 0x1e, 0x22, 0x5b, 0x08, 0x2a, 0xf3, 
  0x6d, 0x2d, 0x59, 0xcb, 0x2d, 0x2b, 0xe1, 0x57, 0xdb, 0xcb, 0x0e, 0x30, 
  0xe2, 0xd0, 0xf1, 0xe7, 0xef, 0x06, 0xea, 0x46, 0xfd, 0x0d, 0xee, 0x03, 
  0x27, 0xf7, 0x3f, 0x20, 0xed, 0x1a, 0xfb, 0xdb, 0x68, 0x1e, 0x34, 0xf8, 
  0xf7, 0xe8, 0x2e, 0x0a, 0xf4, 0xd5, 0x09, 0x24, 0x21, 0x04, 0x1f, 0xdd, 
  0x67, 0x69, 0x6c, 0x47, 0xf5, 0x49, 0xc9, 0x3c, 0xe1, 0x33, 0x3b, 0xcd, 
  0x20, 0x16, 0xe4, 0x21, 0x7c, 0x7f, 0x56, 0xcc, 0x37, 0x2c, 0xe0, 0x3b, 
  0xdd, 0x35, 0x3a, 0xd9, 0x5c, 0xfc, 0xdf, 0x4a, 0x57, 0x4d, 0x39, 0xe3, 
  0x49, 0xef, 0x27, 0x28, 0x0b, 0xfe, 0xc5, 0x4f, 0x03, 0x17, 0xcc, 0xe7, 
  0x25, 0xfc, 0xfd, 0x1f, 0x4f, 0xef, 0x29, 0x45, 0xeb, 0x1f, 0x31, 0xe2, 
  0xea, 0xf4, 0xfa, 0x60, 0x0c, 0x2b, 0x27, 0x1b, 0x1f, 0xff, 0x05, 0x41, 
  0x26, 0x11, 0xe8, 0xe0, 0x2d, 0xfb, 0x1c, 0x2d, 0x70, 0x4f, 0x55, 0x44, 
  0x42, 0x47, 0x1a, 0x32, 0x26, 0x12, 0x4c, 0x0f, 0x8c, 0xd7, 0x2e, 0xf6, 
  0xa0, 0x91, 0xf5, 0x26, 0x1b, 0x69, 0x32, 0xef, 0x20, 0xe2, 0xdd, 0xd5, 
  0xbd, 0x3c, 0xd0, 0xd7, 0xa9, 0x0e, 0xc9, 0x2f, 0x0f, 0x20, 0x55, 0xde, 
  0xde, 0x1c, 0x45, 0x58, 0xdd, 0x0f, 0x05, 0xc1, 0x8b, 0xfd, 0x35, 0x5e, 
  0x10, 0x6a, 0xe0, 0x0c, 0xd6, 0x36, 0x0c, 0x19, 0x08, 0x52, 0x49, 0x37, 
  0xab, 0xf7, 0x2a, 0xd2, 0xe1, 0xdf, 0xd6, 0xb7, 0xd0, 0xfc, 0x3f, 0xb8, 
  0xe1, 0x1f, 0x43, 0x9a, 0x0f, 0xbc, 0xa9, 0x06, 0xb6, 0x21, 0x3c, 0x87, 
  0x1f, 0xd7, 0x31, 0x00, 0x11, 0xd5, 0x4f, 0xa7, 0xbc, 0xa0, 0xa1, 0xf3, 
  0xfb, 0x40, 0x17, 0x81, 0x0c, 0xdc, 0x60, 0xbf, 0x16, 0x2a, 0x67, 0x8f, 
  0xf1, 0xfc, 0x8f, 0xcd, 0xf3, 0xdd, 0x20, 0x1c, 0x1d, 0x5d, 0x60, 0xc0, 
  0xbe, 0x14, 0x53, 0xd7, 0xb5, 0xaf, 0x29, 0x44, 0x2b, 0x26, 0xf6, 0xcd, 
  0xf6, 0x55, 0x41, 0xec, 0xe8, 0xe4, 0x46, 0x91, 0xe2, 0xe3, 0xde, 0x3a, 
  0xa9, 0xe3, 0x3e, 0x04, 0xaa, 0x99, 0xd8, 0x39, 0x4d, 0xdd, 0xb2, 0x16, 
  0xbc, 0xcd, 0x19, 0x88, 0x81, 0xe6, 0x44, 0x60, 0xdb, 0x8a, 0x92, 0x41, 
  0x97, 0x9f, 0x60, 0x16, 0x0a, 0xfd, 0xa4, 0xbc, 0xcd, 0xac, 0x47, 0xe3, 
  0xb1, 0x90, 0x3f, 0x30, 0xfd, 0x2d, 0x20, 0x5e, 0x42, 0x8b, 0x3a, 0x27, 
  0x17, 0x88, 0x1c, 0xd5, 0x2f, 0xa2, 0xaf, 0x4b, 0x12, 0x4e, 0x40, 0xc7, 
  0x92, 0x4f, 0xf2, 0xf2, 0x0d, 0xfc, 0x99, 0x0f, 0x20, 0x34, 0xf7, 0xb7, 
  0xed, 0x13, 0xb8, 0xb6, 0x28, 0x58, 0xf1, 0x37, 0x58, 0x90, 0xc7, 0xb0, 
  0x03, 0x2e, 0xac, 0x15, 0x33, 0xd4, 0xf2, 0x8b, 0x9f, 0x32, 0x42, 0x06, 
  0x8c, 0x4e, 0xb2, 0x40, 0xc2, 0xdf, 0xac, 0xff, 0xf6, 0x4f, 0xd1, 0xaf, 
  0xa8, 0xc3, 0xaa, 0xc9, 0xb5, 0xa1, 0xd5, 0xe4, 0x19, 0xa4, 0x00, 0x3b, 
  0xe6, 0x5b, 0x02, 0xbe, 0x57, 0xde, 0x43, 0x32, 0xde, 0xed, 0x0d, 0xb7, 
  0x57, 0xa8, 0x38, 0x4a, 0xf3, 0xaf, 0xa8, 0x38, 0x41, 0xaf, 0xe9, 0x58, 
  0xb2, 0x39, 0x16, 0xb4, 0x50, 0xf8, 0x36, 0x45, 0x30, 0xf5, 0x02, 0xdb, 
  0x24, 0x31, 0xff, 0xfa, 0xe2, 0xc7, 0x09, 0x7f, 0xdc, 0xe3, 0xd9, 0xc5, 
  0xe4, 0x0e, 0x02, 0xdb, 0x3d, 0x79, 0x03, 0x1e, 0x21, 0x2b, 0x32, 0x78, 
  0x07, 0xd8, 0xbd, 0x4c, 0x48, 0xcb, 0xf7, 0x2d, 0x3a, 0x70, 0x09, 0xdf, 
  0x60, 0xd4, 0x16, 0x69, 0x1f, 0x45, 0xfd, 0xfc, 0x66, 0x48, 0xf3, 0xeb, 
  0x48, 0x37, 0x56, 0xf8, 0x22, 0xff, 0x3b, 0x17, 0xe0, 0xee, 0xe6, 0x52, 
  0x52, 0xf7, 0x0b, 0xfd, 0x79, 0x7f, 0x2f, 0x3a, 0x13, 0x08, 0x06, 0x34, 
  0x01, 0x05, 0xbf, 0x02, 0x6b, 0x0f, 0x1e, 0x66, 0x4d, 0x70, 0xd0, 0xae, 
  0x09, 0xee, 0xe1, 0xfc, 0x43, 0x41, 0xf0, 0x44, 0xec, 0x3e, 0x3b, 0xea, 
  0x7d, 0x1b, 0x03, 0x11, 0x56, 0xa5, 0xd5, 0x31, 0xd5, 0xd3, 0xdf, 0x2b, 
  0x10, 0xd8, 0xe3, 0x26, 0x75, 0x7b, 0x41, 0x1b, 0x1b, 0x0b, 0xef, 0x28, 
  0xf4, 0xb7, 0x2a, 0x51, 0xf7, 0xcd, 0x08, 0x1b, 0x70, 0x5d, 0x4e, 0xc7, 
  0x70, 0x17, 0x1c, 0x32, 0x3a, 0xfe, 0xff, 0xff, 0x04, 0x00, 0x00, 0x00, 
  0x80, 0x00, 0x00, 0x00, 0xf6, 0xb3, 0xff, 0xff, 0x29, 0x60, 0x00, 0x00, 
  0x4c, 0x94, 0x00, 0x00, 0x74, 0xe4, 0xff, 0xff, 0x66, 0xc4, 0xff, 0xff, 
  0xd6, 0x8b, 0x00, 0x00, 0x1f, 0xad, 0xff, 0xff, 0xeb, 0x9f, 0x00, 0x00, 
  0x92, 0x8d, 0x00, 0x00, 0xa7, 0xc6, 0xff, 0xff, 0x53, 0xa3, 0x00, 0x00, 
  0x0e, 0x7e, 0x00, 0x00, 0xf7, 0xb7, 0xff, 0xff, 0xc9, 0xe9, 0xff, 0xff, 
  0x70, 0x86, 0x00, 0x00, 0x29, 0xeb, 0xff, 0xff, 0x9e, 0xc7, 0xff, 0xff, 
  0x2e, 0xe1, 0xff, 0xff, 0x46, 0xdf, 0xff, 0xff, 0xe3, 0x60, 0x00, 0x00, 
  0x5f, 0xb2, 0xff, 0xff, 0xbb, 0xdc, 0xff, 0xff, 0xd3, 0xbd, 0xff, 0xff, 
  0xea, 0x9e, 0x00, 0x00, 0x00, 0x00, 0x00, 0x00, 0x3e, 0x99, 0x00, 0x00, 
  0xd4, 0xb4, 0x00, 0x00, 0x2b, 0xda, 0xff, 0xff, 0xba, 0x5e, 0x00, 0x00, 
  0x51, 0xdf, 0xff, 0xff, 0xcd, 0xa7, 0xff, 0xff, 0xd2, 0x5c, 0x00, 0x00, 
  0xc6, 0xfe, 0xff, 0xff, 0x04, 0x00, 0x00, 0x00, 0x40, 0x00, 0x00, 0x00, 
  0x18, 0x8c, 0x45, 0x75, 0x77, 0x9a, 0x4d, 0xa8, 0x89, 0x41, 0xb0, 0x8d, 
  0x02, 0x0b, 0x9f, 0x30, 0x18, 0xc7, 0x3b, 0x93, 0x4c, 0x04, 0xe9, 0x86, 
  0xf5, 0xbe, 0x81, 0x51, 0xee, 0x7d, 0x3c, 0xa2, 0x8e, 0x39, 0x68, 0x98, 
  0xc9, 0x7b, 0x9d, 0xff, 0xd7, 0x35, 0x2a, 0x24, 0xde, 0xc1, 0x65, 0xa2, 
  0x13, 0xab, 0x96, 0x64, 0x43, 0x8f, 0xc0, 0xdf, 0x2f, 0xe8, 0x61, 0x21, 
  0x7f, 0x0a, 0x99, 0x68, 0x12, 0xff, 0xff, 0xff, 0x04, 0x00, 0x00, 0x00, 
  0x08, 0x00, 0x00, 0x00, 0x8b, 0xf8, 0xff, 0xff, 0xed, 0x06, 0x00, 0x00, 
  0x26, 0xff, 0xff, 0xff, 0x04, 0x00, 0x00, 0x00, 0x08, 0x00, 0x00, 0x00, 
  0x01, 0x00, 0x00, 0x00, 0x02, 0x00, 0x00, 0x00, 0xc4, 0xee, 0xff, 0xff, 
  0xc8, 0xee, 0xff, 0xff, 0x0f, 0x00, 0x00, 0x00, 0x4d, 0x4c, 0x49, 0x52, 
  0x20, 0x43, 0x6f, 0x6e, 0x76, 0x65, 0x72, 0x74, 0x65, 0x64, 0x2e, 0x00, 
  0x01, 0x00, 0x00, 0x00, 0x14, 0x00, 0x00, 0x00, 0x00, 0x00, 0x0e, 0x00, 
  0x18, 0x00, 0x14, 0x00, 0x10, 0x00, 0x0c, 0x00, 0x08, 0x00, 0x04, 0x00, 
  0x0e, 0x00, 0x00, 0x00, 0x14, 0x00, 0x00, 0x00, 0x1c, 0x00, 0x00, 0x00, 
  0x84, 0x02, 0x00, 0x00, 0x88, 0x02, 0x00, 0x00, 0x8c, 0x02, 0x00, 0x00, 
  0x04, 0x00, 0x00, 0x00, 0x6d, 0x61, 0x69, 0x6e, 0x00, 0x00, 0x00, 0x00, 
  0x09, 0x00, 0x00, 0x00, 0x1c, 0x02, 0x00, 0x00, 0xb8, 0x01, 0x00, 0x00, 
  0x64, 0x01, 0x00, 0x00, 0x20, 0x01, 0x00, 0x00, 0xdc, 0x00, 0x00, 0x00, 
  0xa8, 0x00, 0x00, 0x00, 0x70, 0x00, 0x00, 0x00, 0x34, 0x00, 0x00, 0x00, 
  0x10, 0x00, 0x00, 0x00, 0x00, 0x00, 0x0a, 0x00, 0x10, 0x00, 0x0c, 0x00, 
  0x08, 0x00, 0x04, 0x00, 0x0a, 0x00, 0x00, 0x00, 0x0c, 0x00, 0x00, 0x00, 
  0x10, 0x00, 0x00, 0x00, 0x05, 0x00, 0x00, 0x00, 0x01, 0x00, 0x00, 0x00, 
  0x12, 0x00, 0x00, 0x00, 0x01, 0x00, 0x00, 0x00, 0x11, 0x00, 0x00, 0x00, 
  0xa2, 0xfe, 0xff, 0xff, 0x1c, 0x00, 0x00, 0x00, 0x00, 0x00, 0x00, 0x09, 
  0x1c, 0x00, 0x00, 0x00, 0x20, 0x00, 0x00, 0x00, 0x04, 0x00, 0x00, 0x00, 
  0x00, 0x00, 0x06, 0x00, 0x08, 0x00, 0x04, 0x00, 0x06, 0x00, 0x00, 0x00, 
  0x00, 0x00, 0x80, 0x3f, 0x01, 0x00, 0x00, 0x00, 0x11, 0x00, 0x00, 0x00, 
  0x01, 0x00, 0x00, 0x00, 0x10, 0x00, 0x00, 0x00, 0xda, 0xfe, 0xff, 0xff, 
  0x14, 0x00, 0x00, 0x00, 0x00, 0x00, 0x00, 0x08, 0x10, 0x00, 0x00, 0x00, 
  0x14, 0x00, 0x00, 0x00, 0x03, 0x00, 0x00, 0x00, 0xc0, 0xef, 0xff, 0xff, 
  0x01, 0x00, 0x00, 0x00, 0x10, 0x00, 0x00, 0x00, 0x03, 0x00, 0x00, 0x00, 
  0x0f, 0x00, 0x00, 0x00, 0x03, 0x00, 0x00, 0x00, 0x02, 0x00, 0x00, 0x00, 
  0x0e, 0xff, 0xff, 0xff, 0x14, 0x00, 0x00, 0x00, 0x00, 0x00, 0x00, 0x1b, 
  0x10, 0x00, 0x00, 0x00, 0x14, 0x00, 0x00, 0x00, 0x02, 0x00, 0x00, 0x00, 
  0xf4, 0xef, 0xff, 0xff, 0x01, 0x00, 0x00, 0x00, 0x0f, 0x00, 0x00, 0x00, 
  0x02, 0x00, 0x00, 0x00, 0x0e, 0x00, 0x00, 0x00, 0x01, 0x00, 0x00, 0x00, 
  0xde, 0xfe, 0xff, 0xff, 0x10, 0x00, 0x00, 0x00, 0x00, 0x00, 0x00, 0x01, 
  0x1c, 0x00, 0x00, 0x00, 0x20, 0x00, 0x00, 0x00, 0xd0, 0xfe, 0xff, 0xff, 
  0x00, 0x00, 0x00, 0x01, 0x01, 0x00, 0x00, 0x00, 0x01, 0x00, 0x00, 0x00, 
  0x00, 0x00, 0x00, 0x01, 0x01, 0x00, 0x00, 0x00, 0x0e, 0x00, 0x00, 0x00, 
  0x03, 0x00, 0x00, 0x00, 0x0d, 0x00, 0x00, 0x00, 0x05, 0x00, 0x00, 0x00, 
  0x04, 0x00, 0x00, 0x00, 0x7e, 0xff, 0xff, 0xff, 0x14, 0x00, 0x00, 0x00, 
  0x00, 0x00, 0x00, 0x05, 0x24, 0x00, 0x00, 0x00, 0x28, 0x00, 0x00, 0x00, 
  0x01, 0x00, 0x00, 0x00, 0x6e, 0xff, 0xff, 0xff, 0x02, 0x00, 0x00, 0x00, 
  0x02, 0x00, 0x00, 0x00, 0x02, 0x00, 0x00, 0x00, 0x02, 0x00, 0x00, 0x00, 
  0x00, 0x00, 0x00, 0x01, 0x01, 0x00, 0x00, 0x00, 0x0d, 0x00, 0x00, 0x00, 
  0x01, 0x00, 0x00, 0x00, 0x0c, 0x00, 0x00, 0x00, 0x5e, 0xff, 0xff, 0xff, 
  0x10, 0x00, 0x00, 0x00, 0x00, 0x00, 0x00, 0x01, 0x1c, 0x00, 0x00, 0x00, 
  0x20, 0x00, 0x00, 0x00, 0x50, 0xff, 0xff, 0xff, 0x00, 0x00, 0x00, 0x01, 
  0x01, 0x00, 0x00, 0x00, 0x01, 0x00, 0x00, 0x00, 0x00, 0x00, 0x00, 0x01, 
  0x01, 0x00, 0x00, 0x00, 0x0c, 0x00, 0x00, 0x00, 0x03, 0x00, 0x00, 0x00, 
  0x0b, 0x00, 0x00, 0x00, 0x07, 0x00, 0x00, 0x00, 0x06, 0x00, 0x00, 0x00, 
  0x00, 0x00, 0x0e, 0x00, 0x1a, 0x00, 0x14, 0x00, 0x10, 0x00, 0x0c, 0x00, 
  0x0b, 0x00, 0x04, 0x00, 0x0e, 0x00, 0x00, 0x00, 0x24, 0x00, 0x00, 0x00, 
  0x00, 0x00, 0x00, 0x05, 0x34, 0x00, 0x00, 0x00, 0x38, 0x00, 0x00, 0x00, 
  0x01, 0x00, 0x00, 0x00, 0x00, 0x00, 0x0e, 0x00, 0x18, 0x00, 0x17, 0x00, 
  0x10, 0x00, 0x0c, 0x00, 0x08, 0x00, 0x04, 0x00, 0x0e, 0x00, 0x00, 0x00, 
  0x02, 0x00, 0x00, 0x00, 0x02, 0x00, 0x00, 0x00, 0x02, 0x00, 0x00, 0x00, 
  0x02, 0x00, 0x00, 0x00, 0x00, 0x00, 0x00, 0x01, 0x01, 0x00, 0x00, 0x00, 
  0x0b, 0x00, 0x00, 0x00, 0x01, 0x00, 0x00, 0x00, 0x0a, 0x00, 0x00, 0x00, 
  0x00, 0x00, 0x0e, 0x00, 0x14, 0x00, 0x00, 0x00, 0x10, 0x00, 0x0c, 0x00, 
  0x0b, 0x00, 0x04, 0x00, 0x0e, 0x00, 0x00, 0x00, 0x1c, 0x00, 0x00, 0x00, 
  0x00, 0x00, 0x00, 0x01, 0x28, 0x00, 0x00, 0x00, 0x2c, 0x00, 0x00, 0x00, 
  0x0c, 0x00, 0x14, 0x00, 0x13, 0x00, 0x0c, 0x00, 0x08, 0x00, 0x07, 0x00, 
  0x0c, 0x00, 0x00, 0x00, 0x00, 0x00, 0x00, 0x01, 0x01, 0x00, 0x00, 0x00, 
  0x01, 0x00, 0x00, 0x00, 0x00, 0x00, 0x00, 0x01, 0x01, 0x00, 0x00, 0x00, 
  0x0a, 0x00, 0x00, 0x00, 0x03, 0x00, 0x00, 0x00, 0x00, 0x00, 0x00, 0x00, 
  0x09, 0x00, 0x00, 0x00, 0x08, 0x00, 0x00, 0x00, 0x01, 0x00, 0x00, 0x00, 
  0x12, 0x00, 0x00, 0x00, 0x01, 0x00, 0x00, 0x00, 0x00, 0x00, 0x00, 0x00, 
  0x13, 0x00, 0x00, 0x00, 0xa0, 0x0e, 0x00, 0x00, 0x44, 0x0e, 0x00, 0x00, 
  0xbc, 0x0d, 0x00, 0x00, 0x48, 0x0d, 0x00, 0x00, 0x74, 0x0b, 0x00, 0x00, 
  0x90, 0x09, 0x00, 0x00, 0x7c, 0x08, 0x00, 0x00, 0x58, 0x07, 0x00, 0x00, 
  0xa4, 0x06, 0x00, 0x00, 0xe0, 0x05, 0x00, 0x00, 0x0c, 0x05, 0x00, 0x00, 
  0x70, 0x04, 0x00, 0x00, 0x9c, 0x03, 0x00, 0x00, 0x00, 0x03, 0x00, 0x00, 
  0x2c, 0x02, 0x00, 0x00, 0x98, 0x01, 0x00, 0x00, 0xfc, 0x00, 0x00, 0x00, 
  0x78, 0x00, 0x00, 0x00, 0x1c, 0x00, 0x00, 0x00, 0x00, 0x00, 0x16, 0x00, 
  0x1c, 0x00, 0x18, 0x00, 0x00, 0x00, 0x14, 0x00, 0x10, 0x00, 0x0c, 0x00, 
  0x00, 0x00, 0x00, 0x00, 0x08, 0x00, 0x07, 0x00, 0x16, 0x00, 0x00, 0x00, 
  0x00, 0x00, 0x00, 0x01, 0x14, 0x00, 0x00, 0x00, 0x1c, 0x00, 0x00, 0x00, 
  0x1c, 0x00, 0x00, 0x00, 0x13, 0x00, 0x00, 0x00, 0x34, 0x00, 0x00, 0x00, 
  0x02, 0x00, 0x00, 0x00, 0xff, 0xff, 0xff, 0xff, 0x02, 0x00, 0x00, 0x00, 
  0x28, 0xf2, 0xff, 0xff, 0x1b, 0x00, 0x00, 0x00, 0x53, 0x74, 0x61, 0x74, 
  0x65, 0x66, 0x75, 0x6c, 0x50, 0x61, 0x72, 0x74, 0x69, 0x74, 0x69, 0x6f, 
  0x6e, 0x65, 0x64, 0x43, 0x61, 0x6c, 0x6c, 0x5f, 0x31, 0x3a, 0x30, 0x00, 
  0x02, 0x00, 0x00, 0x00, 0x01, 0x00, 0x00, 0x00, 0x02, 0x00, 0x00, 0x00, 
  0x32, 0xf2, 0xff, 0xff, 0x00, 0x00, 0x00, 0x01, 0x18, 0x00, 0x00, 0x00, 
  0x20, 0x00, 0x00, 0x00, 0x40, 0x00, 0x00, 0x00, 0x12, 0x00, 0x00, 0x00, 
  0x00, 0x00, 0x00, 0x09, 0x58, 0x00, 0x00, 0x00, 0x02, 0x00, 0x00, 0x00, 
  0xff, 0xff, 0xff, 0xff, 0x02, 0x00, 0x00, 0x00, 0x14, 0xf2, 0xff, 0xff, 
  0x08, 0x00, 0x00, 0x00, 0x14, 0x00, 0x00, 0x00, 0x01, 0x00, 0x00, 0x00, 
  0x80, 0xff, 0xff, 0xff, 0xff, 0xff, 0xff, 0xff, 0x00, 0x00, 0x00, 0x00, 
  0x01, 0x00, 0x00, 0x00, 0x00, 0x00, 0x80, 0x3b, 0x1c, 0x00, 0x00, 0x00, 
  0x53, 0x74, 0x61, 0x74, 0x65, 0x66, 0x75, 0x6c, 0x50, 0x61, 0x72, 0x74, 
  0x69, 0x74, 0x69, 0x6f, 0x6e, 0x65, 0x64, 0x43, 0x61, 0x6c, 0x6c, 0x5f, 
  0x31, 0x3a, 0x30, 0x31, 0x00, 0x00, 0x00, 0x00, 0x02, 0x00, 0x00, 0x00, 
  0x01, 0x00, 0x00, 0x00, 0x02, 0x00, 0x00, 0x00, 0xb2, 0xf2, 0xff, 0xff, 
  0x00, 0x00, 0x00, 0x01, 0x18, 0x00, 0x00, 0x00, 0x20, 0x00, 0x00, 0x00, 
  0x3c, 0x00, 0x00, 0x00, 0x11, 0x00, 0x00, 0x00, 0x00, 0x00, 0x00, 0x09, 
  0x70, 0x00, 0x00, 0x00, 0x02, 0x00, 0x00, 0x00, 0xff, 0xff, 0xff, 0xff, 
  0x02, 0x00, 0x00, 0x00, 0x94, 0xf2, 0xff, 0xff, 0x08, 0x00, 0x00, 0x00, 
  0x10, 0x00, 0x00, 0x00, 0x01, 0x00, 0x00, 0x00, 0x15, 0x00, 0x00, 0x00, 
  0x00, 0x00, 0x00, 0x00, 0x01, 0x00, 0x00, 0x00, 0x85, 0x25, 0x98, 0x3c, 
  0x38, 0x00, 0x00, 0x00, 0x73, 0x65, 0x71, 0x75, 0x65, 0x6e, 0x74, 0x69, 
  0x61, 0x6c, 0x5f, 0x31, 0x2f, 0x64, 0x65, 0x6e, 0x73, 0x65, 0x5f, 0x31, 
  0x2f, 0x4d, 0x61, 0x74, 0x4d, 0x75, 0x6c, 0x3b, 0x73, 0x65, 0x71, 0x75, 
  0x65, 0x6e, 0x74, 0x69, 0x61, 0x6c, 0x5f, 0x31, 0x2f, 0x64, 0x65, 0x6e, 
  0x73, 0x65, 0x5f, 0x31, 0x2f, 0x42, 0x69, 0x61, 0x73, 0x41, 0x64, 0x64, 
  0x00, 0x00, 0x00, 0x00, 0x02, 0x00, 0x00, 0x00, 0x01, 0x00, 0x00, 0x00, 
  0x02, 0x00, 0x00, 0x00, 0x4a, 0xf3, 0xff, 0xff, 0x00, 0x00, 0x00, 0x01, 
  0x18, 0x00, 0x00, 0x00, 0x20, 0x00, 0x00, 0x00, 0x40, 0x00, 0x00, 0x00, 
  0x10, 0x00, 0x00, 0x00, 0x00, 0x00, 0x00, 0x09, 0x68, 0x00, 0x00, 0x00, 
  0x02, 0x00, 0x00, 0x00, 0xff, 0xff, 0xff, 0xff, 0x20, 0x00, 0x00, 0x00, 
  0x2c, 0xf3, 0xff, 0xff, 0x08, 0x00, 0x00, 0x00, 0x14, 0x00, 0x00, 0x00, 
  0x01, 0x00, 0x00, 0x00, 0x80, 0xff, 0xff, 0xff, 0xff, 0xff, 0xff, 0xff, 
  0x00, 0x00, 0x00, 0x00, 0x01, 0x00, 0x00, 0x00, 0x63, 0xfd, 0x57, 0x3b, 
  0x2c, 0x00, 0x00, 0x00, 0x73, 0x65, 0x71, 0x75, 0x65, 0x6e, 0x74, 0x69, 
  0x61, 0x6c, 0x5f, 0x31, 0x2f, 0x67, 0x6c, 0x6f, 0x62, 0x61, 0x6c, 0x5f, 
  0x61, 0x76, 0x65, 0x72, 0x61, 0x67, 0x65, 0x5f, 0x70, 0x6f, 0x6f, 0x6c, 
  0x69, 0x6e, 0x67, 0x32, 0x64, 0x5f, 0x31, 0x2f, 0x4d, 0x65, 0x61, 0x6e, 
  0x00, 0x00, 0x00, 0x00, 0x02, 0x00, 0x00, 0x00, 0x01, 0x00, 0x00, 0x00, 
  0x20, 0x00, 0x00, 0x00, 0xda, 0xf3, 0xff, 0xff, 0x00, 0x00, 0x00, 0x01, 
  0x18, 0x00, 0x00, 0x00, 0x28, 0x00, 0x00, 0x00, 0x44, 0x00, 0x00, 0x00, 
  0x0f, 0x00, 0x00, 0x00, 0x00, 0x00, 0x00, 0x09, 0xa0, 0x00, 0x00, 0x00, 
  0x04, 0x00, 0x00, 0x00, 0xff, 0xff, 0xff, 0xff, 0x08, 0x00, 0x00, 0x00, 
  0x08, 0x00, 0x00, 0x00, 0x20, 0x00, 0x00, 0x00, 0xc4, 0xf3, 0xff, 0xff, 
  0x08, 0x00, 0x00, 0x00, 0x10, 0x00, 0x00, 0x00, 0x01, 0x00, 0x00, 0x00, 
  0x80, 0xff, 0xff, 0xff, 0xff, 0xff, 0xff, 0xff, 0x01, 0x00, 0x00, 0x00, 
  0xd2, 0xf9, 0x58, 0x3b, 0x61, 0x00, 0x00, 0x00, 0x73, 0x65, 0x71, 0x75, 
  0x65, 0x6e, 0x74, 0x69, 0x61, 0x6c, 0x5f, 0x31, 0x2f, 0x63, 0x6f, 0x6e, 
  0x76, 0x32, 0x64, 0x5f, 0x32, 0x5f, 0x31, 0x2f, 0x52, 0x65, 0x6c, 0x75, 
  0x3b, 0x73, 0x65, 0x71, 0x75, 0x65, 0x6e, 0x74, 0x69, 0x61, 0x6c, 0x5f, 
  0x31, 0x2f, 0x63, 0x6f, 0x6e, 0x76, 0x32, 0x64, 0x5f, 0x32, 0x5f, 0x31, 
  0x2f, 0x42, 0x69, 0x61, 0x73, 0x41, 0x64, 0x64, 0x3b, 0x73, 0x65, 0x71, 
  0x75, 0x65, 0x6e, 0x74, 0x69, 0x61, 0x6c, 0x5f, 0x31, 0x2f, 0x63, 0x6f, 
  0x6e, 0x76, 0x32, 0x64, 0x5f, 0x32, 0x5f, 0x31, 0x2f, 0x63, 0x6f, 0x6e, 
  0x76, 0x6f, 0x6c, 0x75, 0x74, 0x69, 0x6f, 0x6e, 0x3b, 0x00, 0x00, 0x00, 
  0x04, 0x00, 0x00, 0x00, 0x01, 0x00, 0x00, 0x00, 0x08, 0x00, 0x00, 0x00, 
  0x08, 0x00, 0x00, 0x00, 0x20, 0x00, 0x00, 0x00, 0xaa, 0xf4, 0xff, 0xff, 
  0x00, 0x00, 0x00, 0x01, 0x18, 0x00, 0x00, 0x00, 0x28, 0x00, 0x00, 0x00, 
  0x44, 0x00, 0x00, 0x00, 0x0e, 0x00, 0x00, 0x00, 0x00, 0x00, 0x00, 0x09, 
  0x68, 0x00, 0x00, 0x00, 0x04, 0x00, 0x00, 0x00, 0xff, 0xff, 0xff, 0xff, 
  0x0a, 0x00, 0x00, 0x00, 0x0a, 0x00, 0x00, 0x00, 0x10, 0x00, 0x00, 0x00, 
  0x94, 0xf4, 0xff, 0xff, 0x08, 0x00, 0x00, 0x00, 0x10, 0x00, 0x00, 0x00, 
  0x01, 0x00, 0x00, 0x00, 0x80, 0xff, 0xff, 0xff, 0xff, 0xff, 0xff, 0xff, 
  0x01, 0x00, 0x00, 0x00, 0x35, 0xe3, 0x17, 0x3a, 0x28, 0x00, 0x00, 0x00, 
  0x73, 0x65, 0x71, 0x75, 0x65, 0x6e, 0x74, 0x69, 0x61, 0x6c, 0x5f, 0x31, 
  0x2f, 0x6d, 0x61, 0x78, 0x5f, 0x70, 0x6f, 0x6f, 0x6c, 0x69, 0x6e, 0x67, 
  0x32, 0x64, 0x5f, 0x31, 0x5f, 0x32, 0x2f, 0x4d, 0x61, 0x78, 0x50, 0x6f, 
  0x6f, 0x6c, 0x32, 0x64, 0x00, 0x00, 0x00, 0x00, 0x04, 0x00, 0x00, 0x00, 
  0x01, 0x00, 0x00, 0x00, 0x0a, 0x00, 0x00, 0x00, 0x0a, 0x00, 0x00, 0x00, 
  0x10, 0x00, 0x00, 0x00, 0x42, 0xf5, 0xff, 0xff, 0x00, 0x00, 0x00, 0x01, 
  0x18, 0x00, 0x00, 0x00, 0x28, 0x00, 0x00, 0x00, 0x44, 0x00, 0x00, 0x00, 
  0x0d, 0x00, 0x00, 0x00, 0x00, 0x00, 0x00, 0x09, 0xa0, 0x00, 0x00, 0x00, 
  0x04, 0x00, 0x00, 0x00, 0xff, 0xff, 0xff, 0xff, 0x15, 0x00, 0x00, 0x00, 
  0x15, 0x00, 0x00, 0x00, 0x10, 0x00, 0x00, 0x00, 0x2c, 0xf5, 0xff, 0xff, 
  0x08, 0x00, 0x00, 0x00, 0x10, 0x00, 0x00, 0x00, 0x01, 0x00, 0x00, 0x00, 
  0x80, 0xff, 0xff, 0xff, 0xff, 0xff, 0xff, 0xff, 0x01, 0x00, 0x00, 0x00, 
  0x35, 0xe3, 0x17, 0x3a, 0x61, 0x00, 0x00, 0x00, 0x73, 0x65, 0x71, 0x75, 
  0x65, 0x6e, 0x74, 0x69, 0x61, 0x6c, 0x5f, 0x31, 0x2f, 0x63, 0x6f, 0x6e, 
  0x76, 0x32, 0x64, 0x5f, 0x31, 0x5f, 0x32, 0x2f, 0x52, 0x65, 0x6c, 0x75, 
  0x3b, 0x73, 0x65, 0x71, 0x75, 0x65, 0x6e, 0x74, 0x69, 0x61, 0x6c, 0x5f, 
  0x31, 0x2f, 0x63, 0x6f, 0x6e, 0x76, 0x32, 0x64, 0x5f, 0x31, 0x5f, 0x32, 
  0x2f, 0x42, 0x69, 0x61, 0x73, 0x41, 0x64, 0x64, 0x3b, 0x73, 0x65, 0x71, 
  0x75, 0x65, 0x6e, 0x74, 0x69, 0x61, 0x6c, 0x5f, 0x31, 0x2f, 0x63, 0x6f, 
  0x6e, 0x76, 0x32, 0x64, 0x5f, 0x31, 0x5f, 0x32, 0x2f, 0x63, 0x6f, 0x6e, 
  0x76, 0x6f, 0x6c, 0x75, 0x74, 0x69, 0x6f, 0x6e, 0x3b, 0x00, 0x00, 0x00, 
  0x04, 0x00, 0x00, 0x00, 0x01, 0x00, 0x00, 0x00, 0x15, 0x00, 0x00, 0x00, 
  0x15, 0x00, 0x00, 0x00, 0x10, 0x00, 0x00, 0x00, 0x12, 0xf6, 0xff, 0xff, 
  0x00, 0x00, 0x00, 0x01, 0x18, 0x00, 0x00, 0x00, 0x28, 0x00, 0x00, 0x00, 
  0x48, 0x00, 0x00, 0x00, 0x0c, 0x00, 0x00, 0x00, 0x00, 0x00, 0x00, 0x09, 
  0x68, 0x00, 0x00, 0x00, 0x04, 0x00, 0x00, 0x00, 0xff, 0xff, 0xff, 0xff, 
  0x17, 0x00, 0x00, 0x00, 0x17, 0x00, 0x00, 0x00, 0x08, 0x00, 0x00, 0x00, 
  0xfc, 0xf5, 0xff, 0xff, 0x08, 0x00, 0x00, 0x00, 0x14, 0x00, 0x00, 0x00, 
  0x01, 0x00, 0x00, 0x00, 0x80, 0xff, 0xff, 0xff, 0xff, 0xff, 0xff, 0xff, 
  0x00, 0x00, 0x00, 0x00, 0x01, 0x00, 0x00, 0x00, 0xd6, 0xd1, 0x81, 0x39, 
  0x26, 0x00, 0x00, 0x00, 0x73, 0x65, 0x71, 0x75, 0x65, 0x6e, 0x74, 0x69, 
  0x61, 0x6c, 0x5f, 0x31, 0x2f, 0x6d, 0x61, 0x78, 0x5f, 0x70, 0x6f, 0x6f, 
  0x6c, 0x69, 0x6e, 0x67, 0x32, 0x64, 0x5f, 0x31, 0x2f, 0x4d, 0x61, 0x78, 
  0x50, 0x6f, 0x6f, 0x6c, 0x32, 0x64, 0x00, 0x00, 0x04, 0x00, 0x00, 0x00, 
  0x01, 0x00, 0x00, 0x00, 0x17, 0x00, 0x00, 0x00, 0x17, 0x00, 0x00, 0x00, 
  0x08, 0x00, 0x00, 0x00, 0xaa, 0xf6, 0xff, 0xff, 0x00, 0x00, 0x00, 0x01, 
  0x18, 0x00, 0x00, 0x00, 0x28, 0x00, 0x00, 0x00, 0x48, 0x00, 0x00, 0x00, 
  0x0b, 0x00, 0x00, 0x00, 0x00, 0x00, 0x00, 0x09, 0xa0, 0x00, 0x00, 0x00, 
  0x04, 0x00, 0x00, 0x00, 0xff, 0xff, 0xff, 0xff, 0x2e, 0x00, 0x00, 0x00, 
  0x2e, 0x00, 0x00, 0x00, 0x08, 0x00, 0x00, 0x00, 0x94, 0xf6, 0xff, 0xff, 
  0x08, 0x00, 0x00, 0x00, 0x14, 0x00, 0x00, 0x00, 0x01, 0x00, 0x00, 0x00, 
  0x80, 0xff, 0xff, 0xff, 0xff, 0xff, 0xff, 0xff, 0x00, 0x00, 0x00, 0x00, 
  0x01, 0x00, 0x00, 0x00, 0xd6, 0xd1, 0x81, 0x39, 0x5c, 0x00, 0x00, 0x00, 
  0x73, 0x65, 0x71, 0x75, 0x65, 0x6e, 0x74, 0x69, 0x61, 0x6c, 0x5f, 0x31, 
  0x2f, 0x63, 0x6f, 0x6e, 0x76, 0x32, 0x64, 0x5f, 0x31, 0x2f, 0x52, 0x65, 
  0x6c, 0x75, 0x3b, 0x73, 0x65, 0x71, 0x75, 0x65, 0x6e, 0x74, 0x69, 0x61, 
  0x6c, 0x5f, 0x31, 0x2f, 0x63, 0x6f, 0x6e, 0x76, 0x32, 0x64, 0x5f, 0x31, 
  0x2f, 0x42, 0x69, 0x61, 0x73, 0x41, 0x64, 0x64, 0x3b, 0x73, 0x65, 0x71, 
  0x75, 0x65, 0x6e, 0x74, 0x69, 0x61, 0x6c, 0x5f, 0x31, 0x2f, 0x63, 0x6f, 
  0x6e, 0x76, 0x32, 0x64, 0x5f, 0x31, 0x2f, 0x63, 0x6f, 0x6e, 0x76, 0x6f, 
  0x6c, 0x75, 0x74, 0x69, 0x6f, 0x6e, 0x3b, 0x31, 0x00, 0x00, 0x00, 0x00, 
  0x04, 0x00, 0x00, 0x00, 0x01, 0x00, 0x00, 0x00, 0x2e, 0x00, 0x00, 0x00, 
  0x2e, 0x00, 0x00, 0x00, 0x08, 0x00, 0x00, 0x00, 0xd2, 0xf7, 0xff, 0xff, 
  0x00, 0x00, 0x00, 0x01, 0x14, 0x00, 0x00, 0x00, 0x88, 0x00, 0x00, 0x00, 
  0x0a, 0x00, 0x00, 0x00, 0x00, 0x00, 0x00, 0x09, 0x94, 0x00, 0x00, 0x00, 
  0x4c, 0xf7, 0xff, 0xff, 0x08, 0x00, 0x00, 0x00, 0x4c, 0x00, 0x00, 0x00, 
  0x08, 0x00, 0x00, 0x00, 0x00, 0x00, 0x00, 0x00, 0x00, 0x00, 0x00, 0x00, 
  0x00, 0x00, 0x00, 0x00, 0x00, 0x00, 0x00, 0x00, 0x00, 0x00, 0x00, 0x00, 
  0x00, 0x00, 0x00, 0x00, 0x00, 0x00, 0x00, 0x00, 0x00, 0x00, 0x00, 0x00, 
  0x00, 0x00, 0x00, 0x00, 0x00, 0x00, 0x00, 0x00, 0x00, 0x00, 0x00, 0x00, 
  0x00, 0x00, 0x00, 0x00, 0x00, 0x00, 0x00, 0x00, 0x00, 0x00, 0x00, 0x00, 
  0x00, 0x00, 0x00, 0x00, 0x00, 0x00, 0x00, 0x00, 0x00, 0x00, 0x00, 0x00, 
  0x08, 0x00, 0x00, 0x00, 0xc9, 0xf3, 0xff, 0x36, 0xd8, 0x26, 0x06, 0x37, 
  0x83, 0x74, 0x0d, 0x37, 0xc1, 0x60, 0x16, 0x37, 0x2b, 0xf0, 0xd8, 0x36, 
  0xcc, 0x6d, 0xfa, 0x36, 0x74, 0xe5, 0xfd, 0x36, 0x39, 0xb3, 0x08, 0x37, 
  0x12, 0x00, 0x00, 0x00, 0x74, 0x66, 0x6c, 0x2e, 0x70, 0x73, 0x65, 0x75, 
  0x64, 0x6f, 0x5f, 0x71, 0x63, 0x6f, 0x6e, 0x73, 0x74, 0x37, 0x00, 0x00, 
  0x04, 0x00, 0x00, 0x00, 0x08, 0x00, 0x00, 0x00, 0x03, 0x00, 0x00, 0x00, 
  0x03, 0x00, 0x00, 0x00, 0x03, 0x00, 0x00, 0x00, 0x92, 0xf8, 0xff, 0xff, 
  0x00, 0x00, 0x00, 0x01, 0x14, 0x00, 0x00, 0x00, 0x84, 0x00, 0x00, 0x00, 
  0x09, 0x00, 0x00, 0x00, 0x00, 0x00, 0x00, 0x02, 0x90, 0x00, 0x00, 0x00, 
  0x0c, 0xf8, 0xff, 0xff, 0x08, 0x00, 0x00, 0x00, 0x48, 0x00, 0x00, 0x00, 
  0x08, 0x00, 0x00, 0x00, 0x00, 0x00, 0x00, 0x00, 0x00, 0x00, 0x00, 0x00, 
  0x00, 0x00, 0x00, 0x00, 0x00, 0x00, 0x00, 0x00, 0x00, 0x00, 0x00, 0x00, 
  0x00, 0x00, 0x00, 0x00, 0x00, 0x00, 0x00, 0x00, 0x00, 0x00, 0x00, 0x00, 
  0x00, 0x00, 0x00, 0x00, 0x00, 0x00, 0x00, 0x00, 0x00, 0x00, 0x00, 0x00, 
  0x00, 0x00, 0x00, 0x00, 0x00, 0x00, 0x00, 0x00, 0x00, 0x00, 0x00, 0x00, 
  0x00, 0x00, 0x00, 0x00, 0x00, 0x00, 0x00, 0x00, 0x08, 0x00, 0x00, 0x00, 
  0x5f, 0x7a, 0x00, 0x33, 0x86, 0xad, 0x06, 0x33, 0x86, 0x02, 0x0e, 0x33, 
  0xb9, 0xf7, 0x16, 0x33, 0xf6, 0xc9, 0xd9, 0x32, 0x36, 0x69, 0xfb, 0x32, 
  0x59, 0xe4, 0xfe, 0x32, 0x76, 0x3c, 0x09, 0x33, 0x12, 0x00, 0x00, 0x00, 
  0x74, 0x66, 0x6c, 0x2e, 0x70, 0x73, 0x65, 0x75, 0x64, 0x6f, 0x5f, 0x71, 
  0x63, 0x6f, 0x6e, 0x73, 0x74, 0x36, 0x00, 0x00, 0x01, 0x00, 0x00, 0x00, 
  0x08, 0x00, 0x00, 0x00, 0x42, 0xf9, 0xff, 0xff, 0x00, 0x00, 0x00, 0x01, 
  0x14, 0x00, 0x00, 0x00, 0xe8, 0x00, 0x00, 0x00, 0x08, 0x00, 0x00, 0x00, 
  0x00, 0x00, 0x00, 0x09, 0xf4, 0x00, 0x00, 0x00, 0xbc, 0xf8, 0xff, 0xff, 
  0x08, 0x00, 0x00, 0x00, 0x8c, 0x00, 0x00, 0x00, 0x10, 0x00, 0x00, 0x00, 
  0x00, 0x00, 0x00, 0x00, 0x00, 0x00, 0x00, 0x00, 0x00, 0x00, 0x00, 0x00, 
  0x00, 0x00, 0x00, 0x00, 0x00, 0x00, 0x00, 0x00, 0x00, 0x00, 0x00, 0x00, 
  0x00, 0x00, 0x00, 0x00, 0x00, 0x00, 0x00, 0x00, 0x00, 0x00, 0x00, 0x00, 
  0x00, 0x00, 0x00, 0x00, 0x00, 0x00, 0x00, 0x00, 0x00, 0x00, 0x00, 0x00, 
  0x00, 0x00, 0x00, 0x00, 0x00, 0x00, 0x00, 0x00, 0x00, 0x00, 0x00, 0x00, 
  0x00, 0x00, 0x00, 0x00, 0x00, 0x00, 0x00, 0x00, 0x00, 0x00, 0x00, 0x00, 
  0x00, 0x00, 0x00, 0x00, 0x00, 0x00, 0x00, 0x00, 0x00, 0x00, 0x00, 0x00, 
  0x00, 0x00, 0x00, 0x00, 0x00, 0x00, 0x00, 0x00, 0x00, 0x00, 0x00, 0x00, 
  0x00, 0x00, 0x00, 0x00, 0x00, 0x00, 0x00, 0x00, 0x00, 0x00, 0x00, 0x00, 
  0x00, 0x00, 0x00, 0x00, 0x00, 0x00, 0x00, 0x00, 0x00, 0x00, 0x00, 0x00, 
  0x00, 0x00, 0x00, 0x00, 0x00, 0x00, 0x00, 0x00, 0x00, 0x00, 0x00, 0x00, 
  0x10, 0x00, 0x00, 0x00, 0x7a, 0xae, 0xe6, 0x3a, 0x1e, 0xe7, 0xc6, 0x3a, 
  0xa4, 0x34, 0xc7, 0x3a, 0xb1, 0x0f, 0xeb, 0x3a, 0xa9, 0xbf, 0xf7, 0x3a, 
  0x9a, 0x55, 0xa9, 0x3a, 0x9b, 0xe2, 0xc7, 0x3a, 0x84, 0x41, 0x07, 0x3b, 
  0xfd, 0xda, 0xef, 0x3a, 0x1f, 0x06, 0xf6, 0x3a, 0xbb, 0x9f, 0x12, 0x3b, 
  0xdf, 0xf7, 0xc1, 0x3a, 0x13, 0x18, 0xce, 0x3a, 0x7a, 0xb5, 0xcb, 0x3a, 
  0x66, 0x61, 0xcb, 0x3a, 0x56, 0xef, 0xfb, 0x3a, 0x12, 0x00, 0x00, 0x00, 
  0x74, 0x66, 0x6c, 0x2e, 0x70, 0x73, 0x65, 0x75, 0x64, 0x6f, 0x5f, 0x71, 
  0x63, 0x6f, 0x6e, 0x73, 0x74, 0x35, 0x00, 0x00, 0x04, 0x00, 0x00, 0x00, 
  0x10, 0x00, 0x00, 0x00, 0x03, 0x00, 0x00, 0x00, 0x03, 0x00, 0x00, 0x00, 
  0x08, 0x00, 0x00, 0x00, 0x62, 0xfa, 0xff, 0xff, 0x00, 0x00, 0x00, 0x01, 
  0x14, 0x00, 0x00, 0x00, 0xe4, 0x00, 0x00, 0x00, 0x07, 0x00, 0x00, 0x00, 
  0x00, 0x00, 0x00, 0x02, 0xf0, 0x00, 0x00, 0x00, 0xdc, 0xf9, 0xff, 0xff, 
  0x08, 0x00, 0x00, 0x00, 0x88, 0x00, 0x00, 0x00, 0x10, 0x00, 0x00, 0x00, 
  0x00, 0x00, 0x00, 0x00, 0x00, 0x00, 0x00, 0x00, 0x00, 0x00, 0x00, 0x00, 
  0x00, 0x00, 0x00, 0x00, 0x00, 0x00, 0x00, 0x00, 0x00, 0x00, 0x00, 0x00, 
  0x00, 0x00, 0x00, 0x00, 0x00, 0x00, 0x00, 0x00, 0x00, 0x00, 0x00, 0x00, 
  0x00, 0x00, 0x00, 0x00, 0x00, 0x00, 0x00, 0x00, 0x00, 0x00, 0x00, 0x00, 
  0x00, 0x00, 0x00, 0x00, 0x00, 0x00, 0x00, 0x00, 0x00, 0x00, 0x00, 0x00, 
  0x00, 0x00, 0x00, 0x00, 0x00, 0x00, 0x00, 0x00, 0x00, 0x00, 0x00, 0x00, 
  0x00, 0x00, 0x00, 0x00, 0x00, 0x00, 0x00, 0x00, 0x00, 0x00, 0x00, 0x00, 
  0x00, 0x00, 0x00, 0x00, 0x00, 0x00, 0x00, 0x00, 0x00, 0x00, 0x00, 0x00, 
  0x00, 0x00, 0x00, 0x00, 0x00, 0x00, 0x00, 0x00, 0x00, 0x00, 0x00, 0x00, 
  0x00, 0x00, 0x00, 0x00, 0x00, 0x00, 0x00, 0x00, 0x00, 0x00, 0x00, 0x00, 
  0x00, 0x00, 0x00, 0x00, 0x00, 0x00, 0x00, 0x00, 0x10, 0x00, 0x00, 0x00, 
  0x02, 0xf6, 0xe9, 0x34, 0xfe, 0xba, 0xc9, 0x34, 0x9e, 0x09, 0xca, 0x34, 
  0x29, 0x67, 0xee, 0x34, 0x4d, 0x45, 0xfb, 0x34, 0xde, 0xbd, 0xab, 0x34, 
  0x0e, 0xba, 0xca, 0x34, 0xc2, 0x2d, 0x09, 0x35, 0xe8, 0x43, 0xf3, 0x34, 
  0x7d, 0x85, 0xf9, 0x34, 0x58, 0xb5, 0x14, 0x35, 0xca, 0xb9, 0xc4, 0x34, 
  0x1f, 0x06, 0xd1, 0x34, 0xd8, 0x9a, 0xce, 0x34, 0x92, 0x45, 0xce, 0x34, 
  0x37, 0x84, 0xff, 0x34, 0x12, 0x00, 0x00, 0x00, 0x74, 0x66, 0x6c, 0x2e, 
  0x70, 0x73, 0x65, 0x75, 0x64, 0x6f, 0x5f, 0x71, 0x63, 0x6f, 0x6e, 0x73, 
  0x74, 0x34, 0x00, 0x00, 0x01, 0x00, 0x00, 0x00, 0x10, 0x00, 0x00, 0x00, 
  0x72, 0xfb, 0xff, 0xff, 0x00, 0x00, 0x00, 0x01, 0x14, 0x00, 0x00, 0x00, 
  0xa8, 0x01, 0x00, 0x00, 0x06, 0x00, 0x00, 0x00, 0x00, 0x00, 0x00, 0x09, 
  0xb4, 0x01, 0x00, 0x00, 0xec, 0xfa, 0xff, 0xff, 0x08, 0x00, 0x00, 0x00, 
  0x0c, 0x01, 0x00, 0x00, 0x20, 0x00, 0x00, 0x00, 0x00, 0x00, 0x00, 0x00, 
  0x00, 0x00, 0x00, 0x00, 0x00, 0x00, 0x00, 0x00, 0x00, 0x00, 0x00, 0x00, 
  0x00, 0x00, 0x00, 0x00, 0x00, 0x00, 0x00, 0x00, 0x00, 0x00, 0x00, 0x00, 
  0x00, 0x00, 0x00, 0x00, 0x00, 0x00, 0x00, 0x00, 0x00, 0x00, 0x00, 0x00, 
  0x00, 0x00, 0x00, 0x00, 0x00, 0x00, 0x00, 0x00, 0x00, 0x00, 0x00, 0x00, 
  0x00, 0x00, 0x00, 0x00, 0x00, 0x00, 0x00, 0x00, 0x00, 0x00, 0x00, 0x00, 
  0x00, 0x00, 0x00, 0x00, 0x00, 0x00, 0x00, 0x00, 0x00, 0x00, 0x00, 0x00, 
  0x00, 0x00, 0x00, 0x00, 0x00, 0x00, 0x00, 0x00, 0x00, 0x00, 0x00, 0x00, 
  0x00, 0x00, 0x00, 0x00, 0x00, 0x00, 0x00, 0x00, 0x00, 0x00, 0x00, 0x00, 
  0x00, 0x00, 0x00, 0x00, 0x00, 0x00, 0x00, 0x00, 0x00, 0x00, 0x00, 0x00, 
  0x00, 0x00, 0x00, 0x00, 0x00, 0x00, 0x00, 0x00, 0x00, 0x00, 0x00, 0x00, 
  0x00, 0x00, 0x00, 0x00, 0x00, 0x00, 0x00, 0x00, 0x00, 0x00, 0x00, 0x00, 
  0x00, 0x00, 0x00, 0x00, 0x00, 0x00, 0x00, 0x00, 0x00, 0x00, 0x00, 0x00, 
  0x00, 0x00, 0x00, 0x00, 0x00, 0x00, 0x00, 0x00, 0x00, 0x00, 0x00, 0x00, 
  0x00, 0x00, 0x00, 0x00, 0x00, 0x00, 0x00, 0x00, 0x00, 0x00, 0x00, 0x00, 
  0x00, 0x00, 0x00, 0x00, 0x00, 0x00, 0x00, 0x00, 0x00, 0x00, 0x00, 0x00, 
  0x00, 0x00, 0x00, 0x00, 0x00, 0x00, 0x00, 0x00, 0x00, 0x00, 0x00, 0x00, 
  0x00, 0x00, 0x00, 0x00, 0x00, 0x00, 0x00, 0x00, 0x00, 0x00, 0x00, 0x00, 
  0x00, 0x00, 0x00, 0x00, 0x00, 0x00, 0x00, 0x00, 0x00, 0x00, 0x00, 0x00, 
  0x00, 0x00, 0x00, 0x00, 0x00, 0x00, 0x00, 0x00, 0x00, 0x00, 0x00, 0x00, 
  0x00, 0x00, 0x00, 0x00, 0x00, 0x00, 0x00, 0x00, 0x00, 0x00, 0x00, 0x00, 
  0x00, 0x00, 0x00, 0x00, 0x00, 0x00, 0x00, 0x00, 0x00, 0x00, 0x00, 0x00, 
  0x00, 0x00, 0x00, 0x00, 0x20, 0x00, 0x00, 0x00, 0xe4, 0x82, 0xb1, 0x3a, 
  0x99, 0xbf, 0xd8, 0x3a, 0x62, 0xa6, 0x03, 0x3b, 0xe8, 0x8b, 0xc9, 0x3a, 
  0x18, 0xbe, 0xb1, 0x3a, 0xf9, 0xc5, 0xcc, 0x3a, 0x92, 0x4a, 0x84, 0x3a, 
  0x1b, 0x62, 0xce, 0x3a, 0x00, 0x1c, 0xdd, 0x3a, 0xb8, 0xd4, 0x71, 0x3a, 
  0x78, 0x2c, 0xe2, 0x3a, 0x32, 0x63, 0xd3, 0x3a, 0x54, 0xc6, 0x78, 0x3a, 
  0xb4, 0x22, 0xc0, 0x3a, 0x04, 0xed, 0xc3, 0x3a, 0x38, 0xbe, 0xb5, 0x3a, 
  0xc5, 0x15, 0x82, 0x3a, 0x28, 0x66, 0xc3, 0x3a, 0x8f, 0x89, 0xbf, 0x3a, 
  0x88, 0xe0, 0xc1, 0x3a, 0x7e, 0x46, 0x76, 0x3a, 0xa6, 0x72, 0xcf, 0x3a, 
  0xdd, 0x4a, 0xd0, 0x3a, 0xf3, 0xbf, 0xcb, 0x3a, 0x64, 0x0d, 0x73, 0x3a, 
  0x3b, 0x63, 0xe0, 0x3a, 0x3f, 0x86, 0xd7, 0x3a, 0x3e, 0x3d, 0xc8, 0x3a, 
  0xe0, 0x37, 0xdd, 0x3a, 0xbe, 0x0c, 0xb2, 0x3a, 0x28, 0xb7, 0x8b, 0x3a, 
  0x97, 0x3f, 0xd3, 0x3a, 0x12, 0x00, 0x00, 0x00, 0x74, 0x66, 0x6c, 0x2e, 
  0x70, 0x73, 0x65, 0x75, 0x64, 0x6f, 0x5f, 0x71, 0x63, 0x6f, 0x6e, 0x73, 
  0x74, 0x33, 0x00, 0x00, 0x04, 0x00, 0x00, 0x00, 0x20, 0x00, 0x00, 0x00, 
  0x03, 0x00, 0x00, 0x00, 0x03, 0x00, 0x00, 0x00, 0x10, 0x00, 0x00, 0x00, 
  0x52, 0xfd, 0xff, 0xff, 0x00, 0x00, 0x00, 0x01, 0x14, 0x00, 0x00, 0x00, 
  0xa4, 0x01, 0x00, 0x00, 0x05, 0x00, 0x00, 0x00, 0x00, 0x00, 0x00, 0x02, 
  0xb0, 0x01, 0x00, 0x00, 0xcc, 0xfc, 0xff, 0xff, 0x08, 0x00, 0x00, 0x00, 
  0x08, 0x01, 0x00, 0x00, 0x20, 0x00, 0x00, 0x00, 0x00, 0x00, 0x00, 0x00, 
  0x00, 0x00, 0x00, 0x00, 0x00, 0x00, 0x00, 0x00, 0x00, 0x00, 0x00, 0x00, 
  0x00, 0x00, 0x00, 0x00, 0x00, 0x00, 0x00, 0x00, 0x00, 0x00, 0x00, 0x00, 
  0x00, 0x00, 0x00, 0x00, 0x00, 0x00, 0x00, 0x00, 0x00, 0x00, 0x00, 0x00, 
  0x00, 0x00, 0x00, 0x00, 0x00, 0x00, 0x00, 0x00, 0x00, 0x00, 0x00, 0x00, 
  0x00, 0x00, 0x00, 0x00, 0x00, 0x00, 0x00, 0x00, 0x00, 0x00, 0x00, 0x00, 
  0x00, 0x00, 0x00, 0x00, 0x00, 0x00, 0x00, 0x00, 0x00, 0x00, 0x00, 0x00, 
  0x00, 0x00, 0x00, 0x00, 0x00, 0x00, 0x00, 0x00, 0x00, 0x00, 0x00, 0x00, 
  0x00, 0x00, 0x00, 0x00, 0x00, 0x00, 0x00, 0x00, 0x00, 0x00, 0x00, 0x00, 
  0x00, 0x00, 0x00, 0x00, 0x00, 0x00, 0x00, 0x00, 0x00, 0x00, 0x00, 0x00, 
  0x00, 0x00, 0x00, 0x00, 0x00, 0x00, 0x00, 0x00, 0x00, 0x00, 0x00, 0x00, 
  0x00, 0x00, 0x00, 0x00, 0x00, 0x00, 0x00, 0x00, 0x00, 0x00, 0x00, 0x00, 
  0x00, 0x00, 0x00, 0x00, 0x00, 0x00, 0x00, 0x00, 0x00, 0x00, 0x00, 0x00, 
  0x00, 0x00, 0x00, 0x00, 0x00, 0x00, 0x00, 0x00, 0x00, 0x00, 0x00, 0x00, 
  0x00, 0x00, 0x00, 0x00, 0x00, 0x00, 0x00, 0x00, 0x00, 0x00, 0x00, 0x00, 
  0x00, 0x00, 0x00, 0x00, 0x00, 0x00, 0x00, 0x00, 0x00, 0x00, 0x00, 0x00, 
  0x00, 0x00, 0x00, 0x00, 0x00, 0x00, 0x00, 0x00, 0x00, 0x00, 0x00, 0x00, 
  0x00, 0x00, 0x00, 0x00, 0x00, 0x00, 0x00, 0x00, 0x00, 0x00, 0x00, 0x00, 
  0x00, 0x00, 0x00, 0x00, 0x00, 0x00, 0x00, 0x00, 0x00, 0x00, 0x00, 0x00, 
  0x00, 0x00, 0x00, 0x00, 0x00, 0x00, 0x00, 0x00, 0x00, 0x00, 0x00, 0x00, 
  0x00, 0x00, 0x00, 0x00, 0x00, 0x00, 0x00, 0x00, 0x00, 0x00, 0x00, 0x00, 
  0x00, 0x00, 0x00, 0x00, 0x00, 0x00, 0x00, 0x00, 0x00, 0x00, 0x00, 0x00, 
  0x20, 0x00, 0x00, 0x00, 0x81, 0xa3, 0x52, 0x35, 0x62, 0x99, 0x80, 0x35, 
  0xf7, 0x37, 0x9c, 0x35, 0xcd, 0x28, 0x6f, 0x35, 0xc1, 0xe9, 0x52, 0x35, 
  0x08, 0xfd, 0x72, 0x35, 0xcb, 0xfa, 0x1c, 0x35, 0x13, 0xe6, 0x74, 0x35, 
  0xc2, 0x2f, 0x83, 0x35, 0x1a, 0x7b, 0x0f, 0x35, 0xf7, 0x30, 0x86, 0x35, 
  0x3e, 0xd6, 0x7a, 0x35, 0xc7, 0x99, 0x13, 0x35, 0xfd, 0xfd, 0x63, 0x35, 
  0x62, 0x7d, 0x68, 0x35, 0x01, 0xa9, 0x57, 0x35, 0x97, 0x5c, 0x1a, 0x35, 
  0x5b, 0xdd, 0x67, 0x35, 0x44, 0x48, 0x63, 0x35, 0x05, 0x0f, 0x66, 0x35, 
  0x28, 0x1e, 0x12, 0x35, 0x7b, 0x29, 0x76, 0x35, 0x0c, 0x2a, 0x77, 0x35, 
  0x1b, 0xc6, 0x71, 0x35, 0x9d, 0x34, 0x10, 0x35, 0xae, 0x21, 0x85, 0x35, 
  0xf0, 0xbe, 0x7f, 0x35, 0xaf, 0x9b, 0x6d, 0x35, 0x4b, 0x40, 0x83, 0x35, 
  0x14, 0x47, 0x53, 0x35, 0x12, 0xca, 0x25, 0x35, 0xfe, 0xab, 0x7a, 0x35, 
  0x12, 0x00, 0x00, 0x00, 0x74, 0x66, 0x6c, 0x2e, 0x70, 0x73, 0x65, 0x75, 
  0x64, 0x6f, 0x5f, 0x71, 0x63, 0x6f, 0x6e, 0x73, 0x74, 0x32, 0x00, 0x00, 
  0x01, 0x00, 0x00, 0x00, 0x20, 0x00, 0x00, 0x00, 0x22, 0xff, 0xff, 0xff, 
  0x00, 0x00, 0x00, 0x01, 0x14, 0x00, 0x00, 0x00, 0x40, 0x00, 0x00, 0x00, 
  0x04, 0x00, 0x00, 0x00, 0x00, 0x00, 0x00, 0x09, 0x4c, 0x00, 0x00, 0x00, 
  0x9c, 0xfe, 0xff, 0xff, 0x08, 0x00, 0x00, 0x00, 0x1c, 0x00, 0x00, 0x00, 
  0x02, 0x00, 0x00, 0x00, 0x00, 0x00, 0x00, 0x00, 0x00, 0x00, 0x00, 0x00, 
  0x00, 0x00, 0x00, 0x00, 0x00, 0x00, 0x00, 0x00, 0x00, 0x00, 0x00, 0x00, 
  0x02, 0x00, 0x00, 0x00, 0x82, 0xeb, 0x5c, 0x3b, 0x64, 0xe8, 0x6d, 0x3b, 
  0x12, 0x00, 0x00, 0x00, 0x74, 0x66, 0x6c, 0x2e, 0x70, 0x73, 0x65, 0x75, 
  0x64, 0x6f, 0x5f, 0x71, 0x63, 0x6f, 0x6e, 0x73, 0x74, 0x31, 0x00, 0x00, 
  0x02, 0x00, 0x00, 0x00, 0x02, 0x00, 0x00, 0x00, 0x20, 0x00, 0x00, 0x00, 
  0x92, 0xff, 0xff, 0xff, 0x00, 0x00, 0x00, 0x01, 0x14, 0x00, 0x00, 0x00, 
  0x40, 0x00, 0x00, 0x00, 0x03, 0x00, 0x00, 0x00, 0x00, 0x00, 0x00, 0x02, 
  0x4c, 0x00, 0x00, 0x00, 0x0c, 0xff, 0xff, 0xff, 0x08, 0x00, 0x00, 0x00, 
  0x1c, 0x00, 0x00, 0x00, 0x02, 0x00, 0x00, 0x00, 0x00, 0x00, 0x00, 0x00, 
  0x00, 0x00, 0x00, 0x00, 0x00, 0x00, 0x00, 0x00, 0x00, 0x00, 0x00, 0x00, 
  0x00, 0x00, 0x00, 0x00, 0x02, 0x00, 0x00, 0x00, 0x74, 0x64, 0x3a, 0x37, 
  0xa7, 0xb9, 0x48, 0x37, 0x11, 0x00, 0x00, 0x00, 0x74, 0x66, 0x6c, 0x2e, 
  0x70, 0x73, 0x65, 0x75, 0x64, 0x6f, 0x5f, 0x71, 0x63, 0x6f, 0x6e, 0x73, 
  0x74, 0x00, 0x00, 0x00, 0x01, 0x00, 0x00, 0x00, 0x02, 0x00, 0x00, 0x00, 
  0x00, 0x00, 0x16, 0x00, 0x1c, 0x00, 0x18, 0x00, 0x17, 0x00, 0x10, 0x00, 
  0x0c, 0x00, 0x08, 0x00, 0x00, 0x00, 0x00, 0x00, 0x00, 0x00, 0x07, 0x00, 
  0x16, 0x00, 0x00, 0x00, 0x00, 0x00, 0x00, 0x01, 0x18, 0x00, 0x00, 0x00, 
  0x18, 0x00, 0x00, 0x00, 0x02, 0x00, 0x00, 0x00, 0x00, 0x00, 0x00, 0x02, 
  0x20, 0x00, 0x00, 0x00, 0x04, 0x00, 0x04, 0x00, 0x04, 0x00, 0x00, 0x00, 
  0x0e, 0x00, 0x00, 0x00, 0x61, 0x72, 0x69, 0x74, 0x68, 0x2e, 0x63, 0x6f, 
  0x6e, 0x73, 0x74, 0x61, 0x6e, 0x74, 0x00, 0x00, 0x01, 0x00, 0x00, 0x00, 
  0x02, 0x00, 0x00, 0x00, 0x00, 0x00, 0x16, 0x00, 0x20, 0x00, 0x1c, 0x00, 
  0x1b, 0x00, 0x14, 0x00, 0x10, 0x00, 0x0c, 0x00, 0x00, 0x00, 0x00, 0x00, 
  0x08, 0x00, 0x07, 0x00, 0x16, 0x00, 0x00, 0x00, 0x00, 0x00, 0x00, 0x01, 
  0x18, 0x00, 0x00, 0x00, 0x34, 0x00, 0x00, 0x00, 0x50, 0x00, 0x00, 0x00, 
  0x01, 0x00, 0x00, 0x00, 0x00, 0x00, 0x00, 0x09, 0x68, 0x00, 0x00, 0x00, 
  0x04, 0x00, 0x00, 0x00, 0xff, 0xff, 0xff, 0xff, 0x30, 0x00, 0x00, 0x00, 
  0x30, 0x00, 0x00, 0x00, 0x03, 0x00, 0x00, 0x00, 0x0c, 0x00, 0x0c, 0x00, 
  0x00, 0x00, 0x00, 0x00, 0x08, 0x00, 0x04, 0x00, 0x0c, 0x00, 0x00, 0x00, 
  0x08, 0x00, 0x00, 0x00, 0x10, 0x00, 0x00, 0x00, 0x01, 0x00, 0x00, 0x00, 
  0x80, 0xff, 0xff, 0xff, 0xff, 0xff, 0xff, 0xff, 0x01, 0x00, 0x00, 0x00, 
  0x81, 0x80, 0x80, 0x3b, 0x1e, 0x00, 0x00, 0x00, 0x73, 0x65, 0x72, 0x76, 
  0x69, 0x6e, 0x67, 0x5f, 0x64, 0x65, 0x66, 0x61, 0x75, 0x6c, 0x74, 0x5f, 
  0x6b, 0x65, 0x72, 0x61, 0x73, 0x5f, 0x74, 0x65, 0x6e, 0x73, 0x6f, 0x72, 
  0x3a, 0x30, 0x00, 0x00, 0x04, 0x00, 0x00, 0x00, 0x01, 0x00, 0x00, 0x00, 
  0x30, 0x00, 0x00, 0x00, 0x30, 0x00, 0x00, 0x00, 0x03, 0x00, 0x00, 0x00, 
  0x06, 0x00, 0x00, 0x00, 0x74, 0x00, 0x00, 0x00, 0x54, 0x00, 0x00, 0x00, 
  0x40, 0x00, 0x00, 0x00, 0x2c, 0x00, 0x00, 0x00, 0x18, 0x00, 0x00, 0x00, 
  0x04, 0x00, 0x00, 0x00, 0xb0, 0xff, 0xff, 0xff, 0x06, 0x00, 0x00, 0x00, 
  0x02, 0x00, 0x00, 0x00, 0x00, 0x00, 0x00, 0x06, 0xc0, 0xff, 0xff, 0xff, 
  0x19, 0x00, 0x00, 0x00, 0x02, 0x00, 0x00, 0x00, 0x00, 0x00, 0x00, 0x19, 
  0xd0, 0xff, 0xff, 0xff, 0x09, 0x00, 0x00, 0x00, 0x04, 0x00, 0x00, 0x00, 
  0x00, 0x00, 0x00, 0x09, 0xe0, 0xff, 0xff, 0xff, 0x28, 0x00, 0x00, 0x00, 
  0x02, 0x00, 0x00, 0x00, 0x00, 0x00, 0x00, 0x28, 0xf0, 0xff, 0xff, 0xff, 
  0x11, 0x00, 0x00, 0x00, 0x02, 0x00, 0x00, 0x00, 0x00, 0x00, 0x00, 0x11, 
  0x0c, 0x00, 0x10, 0x00, 0x0f, 0x00, 0x00, 0x00, 0x08, 0x00, 0x04, 0x00, 
  0x0c, 0x00, 0x00, 0x00, 0x03, 0x00, 0x00, 0x00, 0x03, 0x00, 0x00, 0x00, 
  0x00, 0x00, 0x00, 0x03, 
};