const unsigned char model[] = {
  0x1c, 0x00, 0x00, 0x00, 0x54, 0x46, 0x4c, 0x33, 0x14, 0x00, 0x20, 0x00, 
  0x1c, 0x00, 0x18, 0x00, 0x14, 0x00, 0x10, 0x00, 0x0c, 0x00, 0x00, 0x00, 
  0x08, 0x00, 0x04, 0x00, 0x14, 0x00, 0x00, 0x00, 0x1c, 0x00, 0x00, 0x00, 
  0x8c, 0x00, 0x00, 0x00, 0xe4, 0x00, 0x00, 0x00, 0x54, 0x1a, 0x00, 0x00, 
  0x64, 0x1a, 0x00, 0x00, 0x54, 0x2c, 0x00, 0x00, 0x03, 0x00, 0x00, 0x00, 
  0x01, 0x00, 0x00, 0x00, 0x04, 0x00, 0x00, 0x00, 0x4a, 0xe5, 0xff, 0xff, 
  0x0c, 0x00, 0x00, 0x00, 0x1c, 0x00, 0x00, 0x00, 0x3c, 0x00, 0x00, 0x00, 
  0x0f, 0x00, 0x00, 0x00, 0x73, 0x65, 0x72, 0x76, 0x69, 0x6e, 0x67, 0x5f, 
  0x64, 0x65, 0x66, 0x61, 0x75, 0x6c, 0x74, 0x00, 0x01, 0x00, 0x00, 0x00, 
  0x04, 0x00, 0x00, 0x00, 0x90, 0xff, 0xff, 0xff, 0x12, 0x00, 0x00, 0x00, 
  0x04, 0x00, 0x00, 0x00, 0x08, 0x00, 0x00, 0x00, 0x6f, 0x75, 0x74, 0x70, 
  0x75, 0x74, 0x5f, 0x30, 0x00, 0x00, 0x00, 0x00, 0x01, 0x00, 0x00, 0x00, 
  0x04, 0x00, 0x00, 0x00, 0x56, 0xe5, 0xff, 0xff, 0x04, 0x00, 0x00, 0x00, 
  0x0c, 0x00, 0x00, 0x00, 0x6b, 0x65, 0x72, 0x61, 0x73, 0x5f, 0x74, 0x65, 
  0x6e, 0x73, 0x6f, 0x72, 0x00, 0x00, 0x00, 0x00, 0x02, 0x00, 0x00, 0x00, 
  0x34, 0x00, 0x00, 0x00, 0x04, 0x00, 0x00, 0x00, 0xdc, 0xff, 0xff, 0xff, 
  0x15, 0x00, 0x00, 0x00, 0x04, 0x00, 0x00, 0x00, 0x13, 0x00, 0x00, 0x00, 
  0x43, 0x4f, 0x4e, 0x56, 0x45, 0x52, 0x53, 0x49, 0x4f, 0x4e, 0x5f, 0x4d, 
  0x45, 0x54, 0x41, 0x44, 0x41, 0x54, 0x41, 0x00, 0x08, 0x00, 0x0c, 0x00, 
  0x08, 0x00, 0x04, 0x00, 0x08, 0x00, 0x00, 0x00, 0x14, 0x00, 0x00, 0x00, 
  0x04, 0x00, 0x00, 0x00, 0x13, 0x00, 0x00, 0x00, 0x6d, 0x69, 0x6e, 0x5f, 
  0x72, 0x75, 0x6e, 0x74, 0x69, 0x6d, 0x65, 0x5f, 0x76, 0x65, 0x72, 0x73, 
  0x69, 0x6f, 0x6e, 0x00, 0x16, 0x00, 0x00, 0x00, 0x6c, 0x19, 0x00, 0x00, 
  0x64, 0x19, 0x00, 0x00, 0x4c, 0x19, 0x00, 0x00, 0x34, 0x19, 0x00, 0x00, 
  0xe4, 0x18, 0x00, 0x00, 0x54, 0x18, 0x00, 0x00, 0x44, 0x06, 0x00, 0x00, 
  0xf4, 0x05, 0x00, 0x00, 0x64, 0x01, 0x00, 0x00, 0x34, 0x01, 0x00, 0x00, 
  0xdc, 0x00, 0x00, 0x00, 0xd4, 0x00, 0x00, 0x00, 0xcc, 0x00, 0x00, 0x00, 
  0xc4, 0x00, 0x00, 0x00, 0xbc, 0x00, 0x00, 0x00, 0xb4, 0x00, 0x00, 0x00, 
  0xac, 0x00, 0x00, 0x00, 0xa4, 0x00, 0x00, 0x00, 0x9c, 0x00, 0x00, 0x00, 
  0x94, 0x00, 0x00, 0x00, 0x74, 0x00, 0x00, 0x00, 0x04, 0x00, 0x00, 0x00, 
  0x2a, 0xe6, 0xff, 0xff, 0x04, 0x00, 0x00, 0x00, 0x60, 0x00, 0x00, 0x00, 
  0x0c, 0x00, 0x00, 0x00, 0x08, 0x00, 0x0e, 0x00, 0x08, 0x00, 0x04, 0x00, 
  0x08, 0x00, 0x00, 0x00, 0x10, 0x00, 0x00, 0x00, 0x28, 0x00, 0x00, 0x00, 
  0x00, 0x00, 0x06, 0x00, 0x08, 0x00, 0x04, 0x00, 0x06, 0x00, 0x00, 0x00, 
  0x04, 0x00, 0x00, 0x00, 0x01, 0x00, 0x00, 0x00, 0xeb, 0x03, 0x00, 0x00, 
  0x0c, 0x00, 0x18, 0x00, 0x14, 0x00, 0x10, 0x00, 0x0c, 0x00, 0x04, 0x00, 
  0x0c, 0x00, 0x00, 0x00, 0x2e, 0x51, 0x9b, 0x68, 0x99, 0x51, 0xe1, 0x65, 
  0x02, 0x00, 0x00, 0x00, 0x02, 0x00, 0x00, 0x00, 0x04, 0x00, 0x00, 0x00, 
  0x06, 0x00, 0x00, 0x00, 0x32, 0x2e, 0x32, 0x30, 0x2e, 0x30, 0x00, 0x00, 
  0x96, 0xe6, 0xff, 0xff, 0x04, 0x00, 0x00, 0x00, 0x10, 0x00, 0x00, 0x00, 
  0x31, 0x2e, 0x31, 0x34, 0x2e, 0x30, 0x00, 0x00, 0x00, 0x00, 0x00, 0x00, 
  0x00, 0x00, 0x00, 0x00, 0x3c, 0xd6, 0xff, 0xff, 0x40, 0xd6, 0xff, 0xff, 
  0x44, 0xd6, 0xff, 0xff, 0x48, 0xd6, 0xff, 0xff, 0x4c, 0xd6, 0xff, 0xff, 
  0x50, 0xd6, 0xff, 0xff, 0x54, 0xd6, 0xff, 0xff, 0x58, 0xd6, 0xff, 0xff, 
  0x5c, 0xd6, 0xff, 0xff, 0xd6, 0xe6, 0xff, 0xff, 0x04, 0x00, 0x00, 0x00, 
  0x48, 0x00, 0x00, 0x00, 0x18, 0x9a, 0x82, 0x51, 0xf2, 0xff, 0x30, 0x7f, 
  0xa9, 0x4c, 0x81, 0xce, 0x8f, 0xa4, 0xda, 0x76, 0x3d, 0x6d, 0x8a, 0x98, 
  0x4d, 0x7b, 0x41, 0x7f, 0xd1, 0x71, 0xaf, 0x4e, 0xb5, 0x68, 0x7f, 0x54, 
  0x24, 0x25, 0x63, 0x4c, 0xe1, 0x93, 0x1b, 0x68, 0x85, 0xd9, 0x67, 0xad, 
  0x7f, 0x66, 0x49, 0x96, 0xe5, 0xab, 0x7f, 0x82, 0x0d, 0x44, 0xb3, 0xdd, 
  0x70, 0x43, 0x0c, 0x6d, 0xb0, 0x81, 0x37, 0xe9, 0x72, 0xec, 0x1b, 0x95, 
  0xd6, 0x7f, 0x5c, 0x0a, 0x2a, 0xe7, 0xff, 0xff, 0x04, 0x00, 0x00, 0x00, 
  0x20, 0x00, 0x00, 0x00, 0x18, 0x8f, 0x0d, 0x00, 0x46, 0x21, 0x0a, 0x00, 
  0x6a, 0x16, 0x08, 0x00, 0xbd, 0xa7, 0xed, 0xff, 0x52, 0x41, 0x13, 0x00, 
  0x5d, 0x25, 0xed, 0xff, 0x54, 0xc7, 0xee, 0xff, 0x39, 0x29, 0x07, 0x00, 
  0x56, 0xe7, 0xff, 0xff, 0x04, 0x00, 0x00, 0x00, 0x80, 0x04, 0x00, 0x00, 
  0xdf, 0x6d, 0x35, 0x32, 0x2c, 0xfd, 0x71, 0xd0, 0x13, 0x4c, 0xdf, 0x3c, 
  0xff, 0x50, 0x19, 0xb9, 0x71, 0x66, 0xc3, 0xd0, 0xde, 0xde, 0x71, 0x29, 
  0x44, 0x75, 0xe2, 0xfa, 0x24, 0x46, 0x2b, 0x2e, 0xd8, 0x7f, 0xe5, 0x31, 
  0xd7, 0x34, 0x25, 0xd0, 0x75, 0x63, 0xe2, 0xd9, 0xe2, 0x2e, 0x66, 0xff, 
  0x29, 0x38, 0xdd, 0xe9, 0x1c, 0x2e, 0x6f, 0xde, 0xdb, 0x73, 0xc3, 0x20, 
  0xe3, 0xdd, 0x6c, 0x08, 0xe5, 0x7b, 0x06, 0x40, 0xd4, 0x19, 0x4d, 0x20, 
  0xe0, 0xef, 0x16, 0x55, 0xcd, 0x0f, 0xae, 0x61, 0xcf, 0xa0, 0xe5, 0xf5, 
  0xd7, 0xad, 0xb7, 0x49, 0x37, 0x81, 0x55, 0x57, 0x3b, 0xa1, 0x3d, 0x54, 
  0x4b, 0xa2, 0x04, 0x2a, 0x21, 0x39, 0x84, 0xf2, 0xe1, 0x28, 0xc7, 0x6d, 
  0x5a, 0xd6, 0x41, 0x75, 0xac, 0xee, 0xb6, 0xe4, 0xd0, 0x18, 0xe9, 0xe7, 
  0xca, 0x06, 0xee, 0x23, 0x20, 0x46, 0xbd, 0x1f, 0xb2, 0x85, 0xc5, 0xbd, 
  0x26, 0xa4, 0x31, 0x63, 0xcd, 0x26, 0x51, 0x49, 0x29, 0x0c, 0x15, 0x41, 
  0xf7, 0x44, 0xde, 0xca, 0x36, 0x47, 0x0b, 0xdb, 0x0b, 0x40, 0x09, 0xe1, 
  0x22, 0xf8, 0xfe, 0xed, 0x5b, 0x38, 0xcf, 0xc3, 0xce, 0xe2, 0x7f, 0xd7, 
  0x5c, 0x4f, 0x08, 0x0e, 0xe3, 0xe9, 0x18, 0xf1, 0xec, 0x0b, 0x03, 0xd9, 
  0x4f, 0xe4, 0x5b, 0xfa, 0x44, 0x5f, 0x26, 0xdb, 0x3d, 0x08, 0x17, 0x15, 
  0x1c, 0x78, 0x41, 0x28, 0xeb, 0xf5, 0x08, 0x0f, 0x1f, 0xfe, 0x05, 0x2c, 
  0xf2, 0x1b, 0x32, 0x16, 0x47, 0x5b, 0x25, 0x11, 0xd5, 0xda, 0x5e, 0x2e, 
  0x3b, 0xff, 0xc6, 0xe1, 0xd2, 0x17, 0x0c, 0xc2, 0x21, 0x28, 0x1f, 0x46, 
  0xd9, 0xf1, 0xee, 0x19, 0x2b, 0x2d, 0xde, 0x22, 0xc3, 0x5d, 0x6c, 0xd8, 
  0x65, 0x7c, 0xe5, 0xd3, 0x36, 0x48, 0x51, 0x3d, 0x34, 0x30, 0x08, 0xe7, 
  0x45, 0x05, 0x3a, 0x0c, 0x59, 0x27, 0x21, 0xe7, 0x16, 0xe5, 0x53, 0x36, 
  0x15, 0x47, 0xc7, 0xf7, 0xf6, 0x2d, 0x52, 0xf3, 0x2e, 0x7f, 0xc8, 0x09, 
  0x04, 0x58, 0x45, 0x08, 0x55, 0x69, 0xf7, 0x0a, 0xf5, 0xe5, 0xfd, 0x3e, 
  0x44, 0x3c, 0x42, 0xdf, 0x13, 0x21, 0x65, 0x1b, 0x38, 0x77, 0xdb, 0x29, 
  0x2e, 0xf1, 0x15, 0xfe, 0x0c, 0x50, 0xf8, 0x0d, 0x40, 0x00, 0x41, 0x0e, 
  0x23, 0xf7, 0xf4, 0xd4, 0xfe, 0x4e, 0x58, 0x00, 0x50, 0x46, 0x1f, 0x12, 
  0xdc, 0xd5, 0x27, 0x2c, 0x2a, 0x65, 0x42, 0xf5, 0x1e, 0xde, 0x27, 0xec, 
  0x31, 0x6f, 0xe1, 0xf7, 0x09, 0x18, 0x47, 0x2b, 0xe3, 0x7f, 0xd5, 0x29, 
  0xbf, 0x51, 0x6d, 0x00, 0xe3, 0x45, 0x42, 0xce, 0x1f, 0xc9, 0x35, 0xe0, 
  0xe8, 0x34, 0xe9, 0x41, 0xfe, 0x06, 0x58, 0x1f, 0x31, 0x33, 0x26, 0xee, 
  0x10, 0xe3, 0xf1, 0x13, 0x2a, 0xf5, 0x24, 0x19, 0xe4, 0x2b, 0x1c, 0x40, 
  0xc9, 0x3d, 0xcd, 0x34, 0xbc, 0x22, 0xda, 0x3a, 0x41, 0x7f, 0xc1, 0xbb, 
  0xf7, 0x49, 0x00, 0x14, 0x06, 0x08, 0xd7, 0x02, 0x29, 0x03, 0x26, 0x28, 
  0xe2, 0x29, 0x0c, 0x16, 0x26, 0xcd, 0x0b, 0x1d, 0xef, 0x06, 0x3b, 0xc9, 
  0xc6, 0xfd, 0x1e, 0xf8, 0x21, 0x06, 0x33, 0xca, 0x13, 0xe3, 0xd4, 0xc2, 
  0xb8, 0xff, 0xd3, 0xf3, 0xfd, 0xfd, 0x9b, 0xf1, 0x4e, 0x4a, 0x81, 0x17, 
  0x10, 0xcc, 0xc2, 0xd5, 0x73, 0xc4, 0x6a, 0x2a, 0xbe, 0xbe, 0x20, 0xb6, 
  0x73, 0x75, 0x30, 0x89, 0xcc, 0x8d, 0x6d, 0x09, 0x2a, 0x54, 0x82, 0x41, 
  0xf2, 0xae, 0x88, 0x9c, 0x82, 0x57, 0x54, 0xa1, 0xfc, 0x8f, 0xfd, 0xfd, 
  0x07, 0xa0, 0xec, 0x11, 0x31, 0xad, 0x1a, 0xf3, 0x59, 0xbb, 0xda, 0x37, 
  0xd4, 0x13, 0x95, 0x32, 0xa8, 0xe8, 0x2c, 0xc7, 0xd3, 0xd0, 0x45, 0x9b, 
  0x9d, 0x13, 0xd8, 0x4f, 0xd4, 0xbe, 0x81, 0x13, 0x20, 0xef, 0x4d, 0x16, 
  0x38, 0x03, 0x9d, 0x47, 0xec, 0xd9, 0x36, 0x16, 0xb0, 0x00, 0x8a, 0x12, 
  0xfc, 0x04, 0xe5, 0x09, 0xd6, 0xc6, 0xab, 0x61, 0xe8, 0x91, 0x1c, 0xc6, 
  0x12, 0xa9, 0x1a, 0xeb, 0x08, 0xda, 0x58, 0x60, 0x5f, 0xa9, 0xb4, 0x65, 
  0xb7, 0xed, 0x59, 0x4e, 0x20, 0xbd, 0xcf, 0xd8, 0xfa, 0x8c, 0x01, 0x0d, 
  0xff, 0x9e, 0xad, 0x45, 0x1a, 0xd7, 0x2d, 0x5b, 0x5f, 0x1c, 0x20, 0x54, 
  0xe4, 0x1c, 0xc9, 0x19, 0x47, 0x27, 0x58, 0xf4, 0x3a, 0x7f, 0xc1, 0x30, 
  0x14, 0x60, 0x0a, 0xc2, 0x2a, 0x70, 0x56, 0x34, 0xc1, 0x14, 0x06, 0x29, 
  0x58, 0x4f, 0xf0, 0xca, 0x11, 0x4f, 0x3e, 0x3e, 0xe9, 0x4f, 0x06, 0x1b, 
  0x05, 0x1d, 0x0b, 0xdb, 0xd8, 0x71, 0x3c, 0x24, 0xec, 0x12, 0xed, 0x27, 
  0xdf, 0x29, 0xc5, 0xb7, 0xf0, 0x38, 0xf9, 0xc0, 0xf9, 0x16, 0x00, 0x3a, 
  0xe1, 0x50, 0x15, 0xc1, 0x5b, 0x65, 0xfa, 0xea, 0x2d, 0x49, 0x40, 0xde, 
  0xc5, 0xd7, 0xed, 0x05, 0xe8, 0xeb, 0xf7, 0x4c, 0xdc, 0x34, 0x0a, 0x17, 
  0xfb, 0x12, 0x03, 0x3b, 0x11, 0xe3, 0xc7, 0x42, 0x17, 0xce, 0xdc, 0xdb, 
  0x3c, 0xd2, 0xf5, 0x14, 0x25, 0x11, 0xcb, 0x5c, 0x55, 0x3a, 0xf6, 0xc1, 
  0x5c, 0xcf, 0x20, 0xf9, 0x6b, 0xf0, 0x27, 0xf4, 0xec, 0x13, 0xda, 0xf5, 
  0x36, 0x7f, 0xd6, 0x06, 0x21, 0xdc, 0x0c, 0x3c, 0x73, 0xeb, 0x6a, 0xf9, 
  0x1e, 0xdf, 0xbe, 0x05, 0xd7, 0x78, 0x6d, 0x50, 0x3b, 0x2f, 0x4c, 0x65, 
  0xa3, 0xc0, 0x57, 0xf9, 0x4c, 0xed, 0x22, 0xc2, 0x00, 0x21, 0xd7, 0x19, 
  0xad, 0x0e, 0xc7, 0x40, 0x2a, 0x0a, 0x5b, 0xc8, 0xd3, 0x3d, 0x47, 0xcb, 
  0x13, 0xbd, 0x33, 0x52, 0x25, 0x20, 0x06, 0xc3, 0xf9, 0x09, 0x58, 0x6d, 
  0x34, 0xf4, 0xee, 0x2b, 0x31, 0xcb, 0x65, 0xd9, 0x2c, 0x33, 0x03, 0xc4, 
  0x3f, 0xe4, 0x32, 0x5b, 0x42, 0x21, 0x31, 0xf1, 0xa5, 0x81, 0x3e, 0x7c, 
  0xc8, 0x11, 0xee, 0x55, 0xa2, 0xf0, 0xda, 0x65, 0x49, 0x20, 0x64, 0x56, 
  0x4d, 0x79, 0xe4, 0x3e, 0xc2, 0x1c, 0x64, 0x2f, 0x22, 0x7f, 0x06, 0xf3, 
  0x28, 0xe8, 0xff, 0xfb, 0xf7, 0x36, 0x0e, 0x3d, 0xcc, 0x07, 0x05, 0xf1, 
  0x2d, 0x78, 0xd7, 0x14, 0xd1, 0xf9, 0x71, 0xe7, 0xea, 0x76, 0xe8, 0xf2, 
  0xc1, 0x44, 0x54, 0xe3, 0x28, 0x7e, 0x41, 0xf8, 0xe3, 0xc9, 0xf6, 0xde, 
  0xdd, 0x05, 0x1f, 0x27, 0xdf, 0x44, 0x14, 0xfb, 0x50, 0x2e, 0x1a, 0xec, 
  0x43, 0x51, 0x4a, 0x35, 0x4c, 0x79, 0xc2, 0xbc, 0x35, 0x0b, 0x1a, 0xfa, 
  0x36, 0x7f, 0x08, 0x1f, 0xd3, 0x22, 0x1c, 0x2c, 0x3c, 0x4c, 0x10, 0x12, 
  0xcb, 0x26, 0x1e, 0x26, 0x0c, 0x59, 0x3c, 0xc3, 0x00, 0x2c, 0xff, 0x09, 
  0x04, 0x5e, 0xd5, 0x18, 0xef, 0x0c, 0xe5, 0x2a, 0x12, 0x50, 0xcb, 0xe5, 
  0x42, 0x1a, 0xeb, 0x2b, 0x41, 0x77, 0xd7, 0x27, 0x47, 0x39, 0x19, 0xde, 
  0x3e, 0x20, 0xf6, 0x2f, 0x15, 0x33, 0x40, 0xee, 0x57, 0x34, 0xe2, 0xfe, 
  0x01, 0x14, 0x08, 0xdb, 0xea, 0x15, 0xf4, 0xc0, 0x26, 0x27, 0x4c, 0x24, 
  0xf2, 0xf4, 0xbe, 0xab, 0xc5, 0x65, 0x58, 0xdf, 0x1f, 0x3d, 0xd0, 0x02, 
  0x03, 0x49, 0x05, 0x06, 0x0a, 0x61, 0x50, 0x1b, 0xe9, 0x3d, 0x45, 0x2d, 
  0x01, 0x0c, 0xbc, 0xd1, 0x30, 0x56, 0xec, 0x0f, 0x26, 0x7f, 0x45, 0xcd, 
  0xd6, 0xba, 0x59, 0x22, 0xf5, 0x2a, 0xf4, 0x32, 0xf0, 0xce, 0x40, 0x2c, 
  0x25, 0x7e, 0x02, 0x28, 0x50, 0xe1, 0x64, 0x09, 0x5a, 0x66, 0xec, 0x15, 
  0xd6, 0x41, 0x67, 0x35, 0x22, 0x6b, 0xc9, 0x08, 0xdb, 0xe5, 0x3f, 0xee, 
  0x4a, 0x2b, 0xc3, 0x1c, 0xc7, 0x1c, 0x26, 0xf3, 0x5d, 0x60, 0x02, 0x00, 
  0xd7, 0x4b, 0xe6, 0x32, 0x62, 0x29, 0xe5, 0xc4, 0xe1, 0x02, 0x46, 0xc1, 
  0x5f, 0x7f, 0x40, 0x16, 0x1e, 0xeb, 0x64, 0xe9, 0x4a, 0x73, 0x35, 0x0f, 
  0x41, 0xee, 0x43, 0x00, 0x40, 0x74, 0xe8, 0xc5, 0xe8, 0x41, 0x31, 0x28, 
  0x07, 0x33, 0x0e, 0x39, 0x3e, 0x3a, 0xe6, 0xf9, 0x74, 0x62, 0xfc, 0x03, 
  0x3b, 0x33, 0xe5, 0x32, 0x67, 0x0a, 0xcd, 0xc2, 0x32, 0x3e, 0xe0, 0x2f, 
  0xe1, 0xed, 0xe4, 0xcb, 0x00, 0xff, 0x3f, 0x08, 0x5f, 0x04, 0x2d, 0x4f, 
  0x0d, 0x71, 0xd6, 0xa9, 0x6c, 0xdd, 0x6b, 0x6a, 0x41, 0xc6, 0x4b, 0xc4, 
  0x52, 0x7f, 0x3f, 0xd4, 0xb7, 0x45, 0x6c, 0x30, 0xc2, 0x62, 0x67, 0x57, 
  0xa3, 0x24, 0x5f, 0xf6, 0xc5, 0x4c, 0xb8, 0x09, 0x46, 0x1e, 0xf3, 0x5b, 
  0x01, 0xd6, 0x25, 0x35, 0xf4, 0xd8, 0x79, 0x45, 0x66, 0x0f, 0x05, 0x1d, 
  0xc3, 0xd9, 0xe5, 0xbd, 0x4b, 0x53, 0xaf, 0xff, 0x63, 0x64, 0x12, 0x3b, 
  0xe2, 0xeb, 0xff, 0xff, 0x04, 0x00, 0x00, 0x00, 0x40, 0x00, 0x00, 0x00, 
  0x28, 0x27, 0xfe, 0xff, 0xad, 0xd4, 0x04, 0x00, 0x3b, 0x43, 0x01, 0x00, 
  0x6c, 0x45, 0x00, 0x00, 0xd3, 0xe1, 0xfd, 0xff, 0x0f, 0x20, 0xfe, 0xff, 
  0xc3, 0xc4, 0xfe, 0xff, 0xf5, 0x6a, 0x04, 0x00, 0x1d, 0x04, 0xff, 0xff, 
  0x9a, 0x92, 0x00, 0x00, 0x4e, 0x76, 0x01, 0x00, 0x32, 0x4e, 0xfe, 0xff, 
  0x38, 0x28, 0xff, 0xff, 0x44, 0x74, 0xfd, 0xff, 0x17, 0x48, 0x00, 0x00, 
  0xf7, 0x90, 0x00, 0x00, 0x2e, 0xec, 0xff, 0xff, 0x04, 0x00, 0x00, 0x00, 
  0x00, 0x12, 0x00, 0x00, 0x3e, 0xf6, 0x42, 0x36, 0x51, 0xf1, 0xee, 0x0f, 
  0x72, 0xcf, 0x32, 0x5f, 0x1e, 0x42, 0x50, 0x2a, 0x69, 0x36, 0x67, 0x3f, 
  0x15, 0x13, 0xc4, 0x1f, 0x41, 0x16, 0x14, 0x33, 0x0f, 0x3e, 0x3a, 0x3e, 
  0x42, 0xef, 0x7f, 0x19, 0x0b, 0x28, 0xdc, 0xd1, 0x37, 0x16, 0xf6, 0x24, 
  0x79, 0xec, 0x03, 0x42, 0x69, 0xcd, 0x14, 0x5a, 0xf6, 0x30, 0x15, 0x11, 
  0x65, 0x26, 0x0c, 0x0c, 0x71, 0x27, 0x6d, 0xec, 0x0c, 0x05, 0x6b, 0x2c, 
  0x41, 0xf5, 0xeb, 0xe5, 0x44, 0xf2, 0x17, 0x1b, 0x1c, 0xfa, 0x4a, 0x13, 
  0x66, 0x0f, 0x1c, 0x6d, 0x20, 0x4a, 0xe4, 0xe3, 0x3b, 0x1b, 0x33, 0x16, 
  0x06, 0x3c, 0x6e, 0xcb, 0x12, 0x15, 0x1c, 0x21, 0x12, 0xf4, 0x36, 0xec, 
  0x52, 0xf1, 0x20, 0x0a, 0x78, 0x11, 0x13, 0xf3, 0x0a, 0xe4, 0x7d, 0x6f, 
  0x15, 0x35, 0x2a, 0xf4, 0x3f, 0xf8, 0xfc, 0x65, 0x6e, 0xf9, 0x2e, 0x34, 
  0x44, 0xc0, 0x66, 0x32, 0x2c, 0xf5, 0x33, 0x03, 0x77, 0xd4, 0xde, 0x50, 
  0x05, 0x4c, 0x23, 0xf6, 0xed, 0x31, 0xed, 0xbb, 0xe0, 0x27, 0xc6, 0x4c, 
  0x81, 0x1d, 0x05, 0xaf, 0xbd, 0x1b, 0xb5, 0x00, 0xf1, 0x07, 0xbd, 0xba, 
  0xe6, 0x19, 0xc6, 0x52, 0xbd, 0x04, 0x15, 0xbe, 0xf2, 0xd4, 0xad, 0x44, 
  0xe9, 0x28, 0x8d, 0xd2, 0xdb, 0xd9, 0x24, 0x40, 0xb1, 0x0f, 0xfb, 0x91, 
  0xbc, 0xe6, 0x04, 0xfa, 0xd9, 0xe5, 0x94, 0xe7, 0xc1, 0xf3, 0xcf, 0x44, 
  0xa0, 0x25, 0x0a, 0xd7, 0xb6, 0x2c, 0xcb, 0x1b, 0xd0, 0x51, 0xac, 0xdf, 
  0xd9, 0xd3, 0x2b, 0x06, 0xdb, 0x08, 0x4e, 0xa9, 0xef, 0xc3, 0xda, 0x26, 
  0xcc, 0xf2, 0xd5, 0xf0, 0xe2, 0x07, 0x18, 0xf5, 0xdc, 0xe3, 0x29, 0x8f, 
  0x99, 0xd3, 0xe6, 0xfa, 0xbc, 0x3c, 0xb7, 0xa2, 0xf3, 0x10, 0xc6, 0x47, 
  0xfc, 0xf0, 0x2e, 0xd5, 0x95, 0xca, 0xcb, 0x3a, 0xae, 0x47, 0xf0, 0xcd, 
  0xf4, 0xd8, 0x04, 0x02, 0xa8, 0xf8, 0x4b, 0x98, 0xf6, 0xef, 0xe6, 0x45, 
  0xd8, 0x4c, 0xb1, 0xfb, 0xcd, 0xdd, 0x1f, 0x15, 0xfc, 0x18, 0x0b, 0xfa, 
  0xdd, 0x0e, 0xdf, 0x16, 0x2a, 0x15, 0xb0, 0xc3, 0xe6, 0xf0, 0xdb, 0x57, 
  0x32, 0xf1, 0xeb, 0xe5, 0x25, 0xd5, 0xdc, 0x9c, 0x0a, 0xd2, 0x96, 0xb4, 
  0x36, 0x92, 0x0a, 0x4e, 0x57, 0xd8, 0x37, 0xc0, 0xf6, 0xdd, 0xb0, 0xb8, 
  0x00, 0xd6, 0xd4, 0x30, 0xc2, 0x8f, 0x54, 0xad, 0x23, 0x0c, 0x1c, 0x20, 
  0xf0, 0x51, 0x47, 0xe8, 0x20, 0xf1, 0x81, 0x21, 0x17, 0x11, 0xed, 0x40, 
  0xab, 0x37, 0xc3, 0x40, 0x0d, 0x47, 0xf7, 0x10, 0x15, 0xf1, 0x2f, 0x03, 
  0x2c, 0x34, 0xdb, 0xa6, 0x2b, 0xa3, 0x8e, 0x94, 0x90, 0x04, 0xe1, 0x31, 
  0x0d, 0x07, 0xbd, 0x0d, 0x2d, 0x55, 0xb9, 0xb6, 0xd1, 0xc3, 0xf6, 0xdc, 
  0x48, 0xa5, 0xa5, 0x90, 0x05, 0x0b, 0x07, 0xef, 0x30, 0xae, 0xfe, 0xd1, 
  0xfa, 0x1b, 0x4e, 0x48, 0x35, 0x04, 0x27, 0xc1, 0x00, 0xd1, 0x4a, 0xa6, 
  0x37, 0xe5, 0xca, 0xa5, 0xe9, 0xf3, 0x02, 0xf5, 0x24, 0xa0, 0x42, 0x37, 
  0x4b, 0x2d, 0x15, 0x2a, 0x91, 0x14, 0x5e, 0xc8, 0xfd, 0xd7, 0xe4, 0xd6, 
  0x23, 0xb0, 0x34, 0xff, 0x1e, 0x10, 0x46, 0x77, 0x21, 0x48, 0xd7, 0xcd, 
  0x0a, 0x02, 0x29, 0x7f, 0x17, 0x33, 0x18, 0x41, 0x2c, 0x01, 0x39, 0x36, 
  0x05, 0xf1, 0xe6, 0xc6, 0x2e, 0x3b, 0xca, 0x65, 0x7c, 0xeb, 0x4e, 0x39, 
  0x4f, 0xf5, 0x39, 0x33, 0x1f, 0x0b, 0x05, 0xf7, 0x76, 0x02, 0x0c, 0x19, 
  0x1e, 0x20, 0x63, 0x21, 0x48, 0xc6, 0x4a, 0x38, 0x07, 0xd9, 0xed, 0xc0, 
  0x41, 0xcc, 0xfe, 0x46, 0x77, 0x19, 0x61, 0x11, 0x3f, 0x20, 0x3e, 0x53, 
  0x2a, 0xe3, 0x3d, 0x13, 0x0e, 0x26, 0x3a, 0x16, 0x43, 0x12, 0xed, 0xe5, 
  0x42, 0x30, 0x30, 0x52, 0x0c, 0x25, 0x3a, 0xee, 0x2f, 0x02, 0x37, 0x48, 
  0x31, 0xf8, 0x51, 0xda, 0x61, 0x0e, 0x24, 0x76, 0x43, 0x1c, 0xed, 0x14, 
  0x59, 0x05, 0x14, 0x4e, 0x3b, 0x05, 0x40, 0x0f, 0x06, 0x03, 0x38, 0x76, 
  0x0b, 0x1e, 0xcc, 0x1c, 0x4c, 0xca, 0x0e, 0x49, 0x3f, 0xe4, 0x51, 0xd3, 
  0xef, 0x1b, 0x1b, 0x29, 0xe8, 0x3d, 0xe4, 0xe1, 0x41, 0xc2, 0x06, 0x05, 
  0x0e, 0x1d, 0x0e, 0xee, 0x41, 0xe6, 0x3e, 0x44, 0x12, 0xf0, 0x2b, 0xe3, 
  0x79, 0x3f, 0x13, 0x4e, 0x1d, 0xe5, 0x07, 0x11, 0x12, 0xe1, 0x44, 0x0c, 
  0xe1, 0x21, 0xfc, 0xf8, 0x32, 0x28, 0xfd, 0x71, 0x60, 0xf5, 0x18, 0xce, 
  0x6a, 0x18, 0x56, 0x40, 0x2e, 0x23, 0x3a, 0x2b, 0x52, 0xf7, 0x1e, 0x1c, 
  0x59, 0x00, 0x42, 0x43, 0xff, 0x36, 0x23, 0x7f, 0xe8, 0x24, 0xe4, 0x04, 
  0x1d, 0xc9, 0xca, 0x3c, 0x7a, 0xec, 0x65, 0xf0, 0x4a, 0x24, 0x0a, 0x4c, 
  0x55, 0x14, 0x2c, 0x2a, 0x53, 0xd7, 0x15, 0x1c, 0x17, 0x05, 0x0e, 0xef, 
  0x34, 0x06, 0x56, 0x7e, 0xe2, 0x31, 0x0c, 0x23, 0x6e, 0x3a, 0xd2, 0x18, 
  0x2b, 0x00, 0x3b, 0x11, 0x33, 0xf1, 0x24, 0x64, 0x01, 0x31, 0xe3, 0x2b, 
  0x58, 0xe0, 0x17, 0x0c, 0x6b, 0xf6, 0x1b, 0xd9, 0x14, 0xc6, 0x64, 0x21, 
  0x32, 0x20, 0xf7, 0xdb, 0x0d, 0xd4, 0xc9, 0x1e, 0x48, 0x49, 0x1d, 0x2c, 
  0x55, 0xd2, 0x37, 0x68, 0x0e, 0xe9, 0x0c, 0x18, 0x48, 0x08, 0x00, 0x61, 
  0x68, 0x15, 0x43, 0xfa, 0x7a, 0xf7, 0x12, 0x0e, 0x58, 0x46, 0xc7, 0x11, 
  0x18, 0xe2, 0xfc, 0x6e, 0x59, 0x35, 0x64, 0xd2, 0x6d, 0x2e, 0x12, 0x03, 
  0x42, 0x1a, 0x05, 0x09, 0x29, 0x2e, 0x2b, 0x79, 0x13, 0x1f, 0x4d, 0xee, 
  0x46, 0xe7, 0x64, 0x3f, 0x13, 0xf9, 0xd5, 0xd1, 0x2f, 0x3a, 0x43, 0x1e, 
  0x6b, 0x1e, 0x02, 0x4a, 0x2a, 0xcf, 0x44, 0x70, 0x06, 0xfe, 0xd0, 0xdd, 
  0x14, 0x0e, 0xe5, 0x07, 0x50, 0x51, 0x4a, 0xfe, 0x6d, 0xe4, 0x57, 0x71, 
  0x56, 0x33, 0x1b, 0x36, 0x74, 0xd2, 0xe7, 0x64, 0x75, 0x55, 0x5f, 0x1c, 
  0x74, 0xdc, 0x65, 0x01, 0x4b, 0xe8, 0xe3, 0xe6, 0x7f, 0x46, 0x0b, 0x16, 
  0x2a, 0x2b, 0x37, 0xfd, 0xf6, 0xee, 0x26, 0x3f, 0x1c, 0xe1, 0x37, 0x0e, 
  0x33, 0xe7, 0xd7, 0x71, 0x2c, 0xf3, 0x0f, 0x41, 0x00, 0xfa, 0x78, 0x7a, 
  0x4d, 0xe5, 0xec, 0x31, 0x2b, 0x05, 0xd4, 0x58, 0x26, 0xff, 0xf9, 0x21, 
  0x4d, 0x35, 0x61, 0x7f, 0xf0, 0xeb, 0x35, 0xed, 0x1b, 0xfc, 0xe8, 0x54, 
  0x1c, 0xf6, 0x17, 0xef, 0xe6, 0x37, 0xcc, 0xe0, 0xe0, 0x25, 0x11, 0x2e, 
  0x88, 0xf2, 0xea, 0xd4, 0x93, 0x0a, 0xdc, 0xd8, 0xb2, 0x39, 0xc0, 0xa0, 
  0x20, 0x11, 0xd8, 0x2a, 0xed, 0x0a, 0xd8, 0xc0, 0xce, 0xc6, 0xb3, 0xf2, 
  0xff, 0x0e, 0x89, 0xd1, 0x0d, 0x09, 0xf8, 0x24, 0xc3, 0x24, 0x27, 0xe6, 
  0xd8, 0xc8, 0x02, 0x42, 0xe8, 0xfa, 0x81, 0x99, 0xbc, 0x02, 0xf1, 0x48, 
  0xbb, 0xf8, 0xf7, 0xbf, 0xb8, 0x14, 0xbf, 0x26, 0xa0, 0x3b, 0x8e, 0x93, 
  0x01, 0xe0, 0x36, 0x5c, 0x98, 0xe9, 0xda, 0xf9, 0xd5, 0xf9, 0x9c, 0x41, 
  0xa1, 0x39, 0xf4, 0xe9, 0x06, 0x2c, 0xed, 0x5c, 0xbb, 0x54, 0xe6, 0x8c, 
  0xa6, 0x10, 0xfa, 0x32, 0xfc, 0x40, 0x8d, 0xf7, 0xfb, 0xc3, 0x21, 0x34, 
  0xe1, 0x07, 0x33, 0x9f, 0xa2, 0xcd, 0xa4, 0xde, 0x0d, 0x51, 0xbd, 0x92, 
  0x06, 0xd3, 0x27, 0x37, 0xec, 0x54, 0xea, 0xa5, 0x8e, 0x34, 0xf3, 0x1f, 
  0xbe, 0x5b, 0xa9, 0x97, 0xef, 0xc4, 0x33, 0x4c, 0x8e, 0xf6, 0x28, 0xc1, 
  0xdf, 0xc9, 0x9c, 0x3a, 0x53, 0xf4, 0x24, 0x7f, 0xde, 0x27, 0x3f, 0xbf, 
  0x23, 0xff, 0x34, 0x33, 0x5d, 0x47, 0x17, 0xec, 0x44, 0x03, 0x7a, 0x5c, 
  0x4c, 0x4a, 0xea, 0x14, 0x6d, 0xea, 0x41, 0x1a, 0x3d, 0x29, 0x51, 0x30, 
  0x45, 0x33, 0x4b, 0x03, 0xe5, 0xf1, 0x0d, 0x35, 0x62, 0x3b, 0x15, 0x79, 
  0x27, 0x4a, 0x4c, 0x08, 0x4e, 0xf8, 0x7c, 0x48, 0xdf, 0x37, 0xc6, 0x0c, 
  0x2b, 0x12, 0x19, 0x0a, 0x14, 0xd0, 0x15, 0xc3, 0x53, 0x30, 0x03, 0x5a, 
  0xf3, 0x30, 0xef, 0x24, 0x06, 0xc9, 0xec, 0x2f, 0x28, 0x26, 0x5f, 0x10, 
  0x4a, 0x0c, 0x3f, 0x3c, 0x16, 0x07, 0x0d, 0x22, 0x1f, 0x0b, 0x1a, 0x0b, 
  0x48, 0xdc, 0xff, 0x02, 0x5f, 0xf3, 0x46, 0x72, 0xe8, 0x0f, 0xd3, 0x1f, 
  0x71, 0xe5, 0xd8, 0x74, 0x21, 0x3d, 0x69, 0xf3, 0x3d, 0xb9, 0x34, 0x41, 
  0xd4, 0x21, 0x38, 0xb4, 0x4b, 0xd9, 0xfd, 0x3b, 0x74, 0x1c, 0x55, 0xfa, 
  0x51, 0x00, 0x69, 0x40, 0x08, 0x15, 0x38, 0xb4, 0x05, 0xbc, 0x22, 0x48, 
  0x19, 0x46, 0xff, 0x1b, 0x28, 0x0f, 0x17, 0x1b, 0x4c, 0x22, 0xc7, 0xfc, 
  0x7f, 0xd8, 0xe4, 0x2f, 0x59, 0x0e, 0x07, 0x44, 0x69, 0x39, 0x63, 0x1e, 
  0x39, 0x4e, 0xef, 0x1d, 0x3e, 0x3b, 0x44, 0x7b, 0x17, 0x2d, 0xfd, 0x0c, 
  0x42, 0xe6, 0x03, 0x7b, 0x08, 0x2b, 0x11, 0x00, 0x5b, 0xdf, 0xe7, 0x17, 
  0x5d, 0x26, 0x0c, 0x00, 0x38, 0xe8, 0x11, 0x17, 0x4e, 0xfb, 0x0a, 0xd3, 
  0x69, 0xec, 0x0a, 0x4e, 0x71, 0x27, 0x29, 0x00, 0x2e, 0x24, 0x6a, 0x64, 
  0x3b, 0x23, 0x3f, 0x17, 0x5c, 0xc1, 0x21, 0x10, 0x65, 0xcf, 0x24, 0x25, 
  0x3e, 0xd9, 0x05, 0x5d, 0x07, 0xfd, 0xee, 0x04, 0x46, 0xd6, 0xd7, 0x42, 
  0x4f, 0x14, 0x13, 0x3e, 0x48, 0x0f, 0x2f, 0x2a, 0x0b, 0x35, 0xd5, 0x23, 
  0x19, 0xd4, 0xf1, 0x26, 0x6c, 0x05, 0x39, 0xd2, 0x30, 0xe7, 0x5d, 0x35, 
  0x0d, 0x1b, 0x0f, 0xe7, 0x0a, 0x07, 0x32, 0x65, 0x4e, 0x26, 0x16, 0xdc, 
  0x11, 0x12, 0x45, 0x4f, 0x4e, 0x2d, 0xed, 0x0a, 0x57, 0x0c, 0xea, 0x6b, 
  0x4f, 0x0f, 0x1c, 0xd7, 0x2d, 0xee, 0x32, 0x5b, 0x32, 0x30, 0x1b, 0xc9, 
  0x32, 0xf1, 0x3c, 0x3b, 0x64, 0x3e, 0x16, 0x19, 0x6f, 0x01, 0x03, 0x3a, 
  0x55, 0x39, 0xcb, 0x0b, 0x19, 0xec, 0x17, 0x43, 0x76, 0x18, 0x5d, 0x1e, 
  0x2c, 0x22, 0x7f, 0x75, 0x15, 0xf7, 0xc2, 0x0d, 0x7d, 0x1f, 0xff, 0x6a, 
  0x36, 0xe1, 0x58, 0x2d, 0x55, 0x15, 0x04, 0x20, 0x33, 0xdd, 0xe2, 0xfb, 
  0x6c, 0xe1, 0xd4, 0x2b, 0x42, 0xfd, 0x44, 0x42, 0x33, 0x2b, 0x43, 0x5e, 
  0x20, 0x32, 0x04, 0xf3, 0x3a, 0x1e, 0x07, 0x28, 0x62, 0x16, 0x5a, 0xcb, 
  0x0e, 0xee, 0x7c, 0x2a, 0x45, 0x3f, 0x33, 0xdb, 0x64, 0x24, 0xf9, 0x01, 
  0x0d, 0xf1, 0x52, 0x2c, 0x18, 0x0c, 0x54, 0x0f, 0xde, 0xd2, 0x35, 0xc7, 
  0x1c, 0xd7, 0xc4, 0x09, 0x14, 0x34, 0xf3, 0xff, 0x65, 0x29, 0x1e, 0x5a, 
  0x4f, 0xec, 0x12, 0x0f, 0x2e, 0x3d, 0xd4, 0x50, 0x36, 0xdb, 0x55, 0xed, 
  0x55, 0xe1, 0x43, 0x26, 0x46, 0xf6, 0xfc, 0x35, 0x5d, 0xc7, 0x01, 0x3a, 
  0xfc, 0x3e, 0x2e, 0x2c, 0x1d, 0xf8, 0x6d, 0x1a, 0x4f, 0x09, 0xc6, 0x29, 
  0x38, 0xfd, 0xfa, 0x7f, 0x38, 0xdf, 0x1b, 0x3a, 0x09, 0x1f, 0x48, 0x37, 
  0xf8, 0x34, 0x07, 0x2f, 0x28, 0x24, 0xf3, 0x16, 0x7c, 0x07, 0x1d, 0x11, 
  0x73, 0x31, 0x5b, 0x3b, 0x28, 0x33, 0x14, 0x1b, 0x2a, 0x36, 0xfd, 0x78, 
  0x18, 0x0e, 0x17, 0x15, 0xf3, 0xea, 0x51, 0x62, 0xfb, 0xed, 0xd6, 0x12, 
  0x6f, 0x23, 0xfd, 0x32, 0x74, 0xf0, 0x43, 0x0e, 0x6a, 0x3b, 0x09, 0x1e, 
  0x2b, 0x20, 0x1a, 0xe1, 0x7d, 0xc4, 0xea, 0x49, 0x43, 0x1e, 0x10, 0x2a, 
  0x54, 0xfb, 0x74, 0x5b, 0xd5, 0x4e, 0xd7, 0xc5, 0x6f, 0x34, 0xc7, 0x74, 
  0x2c, 0x18, 0x5e, 0xee, 0x28, 0x16, 0x2f, 0x5b, 0x23, 0x30, 0xff, 0x21, 
  0x39, 0xee, 0xe8, 0x22, 0x50, 0x3d, 0x30, 0x0f, 0x29, 0x25, 0x5e, 0x6c, 
  0x32, 0x40, 0xc5, 0xc7, 0x60, 0xe3, 0xcd, 0x26, 0x40, 0x29, 0x12, 0x2f, 
  0xfd, 0xee, 0x0f, 0x60, 0xfc, 0x09, 0x17, 0xc8, 0x78, 0x38, 0xfd, 0x66, 
  0x45, 0x17, 0xf0, 0xd6, 0xbb, 0xd7, 0xda, 0xa2, 0xb2, 0x1c, 0xcc, 0xee, 
  0xb8, 0x00, 0x29, 0x8d, 0x82, 0xd9, 0xc3, 0x27, 0xb4, 0x16, 0xf4, 0xb7, 
  0xb5, 0x03, 0xf2, 0x35, 0x81, 0x26, 0x48, 0x84, 0xe4, 0xec, 0x0f, 0x19, 
  0xa4, 0x03, 0xd0, 0xf1, 0xb1, 0xc5, 0x24, 0x5a, 0xe9, 0x30, 0x02, 0xb4, 
  0xfa, 0x01, 0xcc, 0x03, 0xf4, 0xde, 0xed, 0xc4, 0x21, 0xc2, 0xdc, 0x09, 
  0xae, 0x19, 0xfc, 0xb9, 0xf7, 0x2b, 0xe1, 0x23, 0x01, 0x1e, 0xd4, 0x9e, 
  0xf7, 0x0f, 0xeb, 0x06, 0x9a, 0x4f, 0xf7, 0x8c, 0xb2, 0xcc, 0xed, 0x4e, 
  0xfd, 0x16, 0xa8, 0xa8, 0xc3, 0x20, 0xdb, 0x4e, 0xeb, 0x4d, 0x29, 0xba, 
  0x9d, 0x1e, 0x14, 0x15, 0xf4, 0x39, 0xb0, 0xed, 0xef, 0x32, 0xc2, 0x2d, 
  0x98, 0xfc, 0x57, 0xac, 0xbc, 0x19, 0xfe, 0x18, 0xc3, 0x04, 0xfa, 0x8a, 
  0xdb, 0xd4, 0x05, 0x5d, 0xc5, 0x49, 0x2f, 0x99, 0xe6, 0x16, 0x02, 0x1f, 
  0x11, 0x2d, 0xc0, 0x9c, 0xc5, 0xdb, 0xda, 0x32, 0xb5, 0x19, 0xeb, 0xee, 
  0x89, 0xcc, 0x13, 0x42, 0x67, 0x06, 0x3d, 0x21, 0x21, 0x41, 0xe4, 0xe2, 
  0x1e, 0x25, 0x1d, 0x39, 0x3e, 0x0f, 0x27, 0x0f, 0x66, 0x1d, 0x17, 0x7f, 
  0x5d, 0x09, 0xca, 0xd0, 0x46, 0x2a, 0x33, 0x7a, 0x5b, 0x29, 0x39, 0x14, 
  0x61, 0xfe, 0x70, 0x7a, 0x40, 0x44, 0xcf, 0x3e, 0x35, 0xe3, 0xe0, 0x7e, 
  0x4e, 0x06, 0x2c, 0x43, 0xff, 0xf9, 0x70, 0x40, 0xfe, 0x2d, 0x30, 0x33, 
  0x54, 0x29, 0xd4, 0x13, 0x5a, 0x52, 0x6d, 0x1f, 0x29, 0xe7, 0x42, 0x14, 
  0x26, 0x3b, 0xdd, 0xfe, 0x19, 0xdc, 0xee, 0x4a, 0x25, 0x50, 0x23, 0x21, 
  0x35, 0xe7, 0x4f, 0x72, 0x28, 0xf3, 0xf7, 0xe4, 0x16, 0x1f, 0x21, 0x45, 
  0x47, 0x55, 0x1d, 0x03, 0x1f, 0xd0, 0x4d, 0x36, 0x30, 0x21, 0x1e, 0x05, 
  0x46, 0xef, 0xe9, 0x18, 0x1e, 0xfc, 0x41, 0xef, 0x64, 0xf9, 0x43, 0x38, 
  0x12, 0x19, 0xea, 0xd7, 0x0e, 0xe9, 0xdc, 0x14, 0x26, 0xec, 0x6c, 0xcd, 
  0x4a, 0x17, 0x40, 0x6c, 0x08, 0x23, 0xdb, 0x08, 0x2f, 0x1e, 0x16, 0x2d, 
  0x1d, 0x2c, 0x0d, 0x2d, 0x48, 0x2d, 0xf1, 0xf1, 0x1b, 0xb5, 0xd0, 0x67, 
  0xf4, 0x59, 0xe4, 0x51, 0xd3, 0x61, 0x04, 0xb2, 0x8d, 0xbb, 0xa7, 0xa9, 
  0x75, 0xc2, 0xab, 0x8d, 0xac, 0x2c, 0x65, 0x16, 0xae, 0x55, 0x4d, 0x23, 
  0x9c, 0xfd, 0x0a, 0x45, 0xe4, 0x8c, 0x3c, 0x85, 0x46, 0x46, 0x8c, 0xcf, 
  0x9d, 0x00, 0xea, 0xd9, 0xb9, 0xdd, 0x2d, 0x0c, 0x72, 0xad, 0x84, 0x92, 
  0xf7, 0xab, 0x3e, 0x16, 0xb8, 0xf9, 0xca, 0x31, 0x82, 0xdc, 0xbc, 0xba, 
  0x29, 0xe7, 0x8e, 0x96, 0x09, 0x08, 0xa7, 0xd3, 0xb8, 0x98, 0xe1, 0x11, 
  0xf2, 0x11, 0x52, 0x4d, 0xa6, 0x7b, 0x2a, 0x08, 0x59, 0x71, 0xd7, 0xd6, 
  0x2d, 0x7b, 0x84, 0x71, 0x52, 0xc6, 0x55, 0x92, 0x1f, 0x60, 0xd4, 0x91, 
  0x01, 0x67, 0x9f, 0x7c, 0xe6, 0x85, 0xb2, 0x1e, 0x2b, 0xbf, 0x88, 0x23, 
  0x7f, 0x8f, 0x97, 0x4e, 0x2c, 0x27, 0x00, 0x31, 0x48, 0xa6, 0x08, 0x2a, 
  0xa7, 0xab, 0xa9, 0x3e, 0xc6, 0xa8, 0xe5, 0x88, 0x71, 0x92, 0xe0, 0xf7, 
  0x13, 0x21, 0x35, 0x3d, 0x4d, 0x40, 0x40, 0x44, 0xf3, 0xfd, 0x0c, 0x28, 
  0x1f, 0xe6, 0xed, 0x6d, 0x41, 0x4e, 0x63, 0xe8, 0x60, 0xd0, 0x77, 0x6f, 
  0x01, 0x4f, 0x1b, 0x0b, 0x50, 0x09, 0x23, 0x7e, 0x60, 0x2a, 0x05, 0x33, 
  0x5d, 0xcb, 0x3f, 0x36, 0x38, 0x10, 0xfc, 0x3a, 0x1e, 0xd5, 0x18, 0x2a, 
  0x2e, 0xf6, 0x3c, 0x32, 0x53, 0x12, 0x2b, 0x57, 0x11, 0x1a, 0xda, 0xe6, 
  0x74, 0x23, 0x14, 0x6a, 0x70, 0x14, 0x68, 0xd7, 0x24, 0x12, 0x11, 0x49, 
  0xe4, 0x49, 0x34, 0xc3, 0x5d, 0x00, 0x2f, 0x67, 0x6a, 0xeb, 0x6b, 0x26, 
  0x02, 0x1a, 0x66, 0x68, 0x2d, 0x4f, 0x13, 0xc7, 0x7f, 0xc8, 0x3d, 0x19, 
  0x77, 0x4f, 0x30, 0xdc, 0x34, 0xcb, 0x50, 0x7b, 0xf3, 0xed, 0x09, 0xd6, 
  0x49, 0xe8, 0xff, 0x18, 0x49, 0x31, 0x32, 0x11, 0x5d, 0xc5, 0x69, 0x58, 
  0xe7, 0xd9, 0xf5, 0x33, 0x49, 0x08, 0xc5, 0x5e, 0x11, 0xf2, 0x00, 0x36, 
  0xf5, 0x13, 0x53, 0x41, 0x35, 0x4d, 0xee, 0xcc, 0x4a, 0x2c, 0x35, 0x54, 
  0x44, 0xdd, 0x29, 0x0e, 0xbc, 0x2c, 0xf2, 0xc1, 0xc1, 0xcd, 0x3a, 0x15, 
  0x81, 0xfd, 0x44, 0xdd, 0xd5, 0x25, 0xdb, 0x1f, 0xd9, 0x39, 0xce, 0xdb, 
  0xfc, 0xe7, 0x21, 0x01, 0xc7, 0x30, 0xf7, 0xe5, 0xb8, 0xe0, 0xe8, 0x32, 
  0xda, 0x49, 0xd7, 0xa9, 0xf2, 0x1f, 0xf7, 0x26, 0xda, 0x22, 0xf5, 0xbe, 
  0xb2, 0x13, 0xc3, 0xf5, 0xb7, 0x45, 0xeb, 0x8f, 0x1e, 0xb9, 0x30, 0x3b, 
  0xb1, 0x39, 0x3d, 0xdc, 0xdd, 0xd4, 0xb0, 0xd9, 0xde, 0x1c, 0xa9, 0xf9, 
  0x06, 0x17, 0xc6, 0x33, 0xaf, 0x3e, 0x35, 0xed, 0x96, 0xf0, 0x9c, 0xe2, 
  0xe2, 0x22, 0xbf, 0xf3, 0xca, 0x16, 0xd5, 0xfc, 0xd8, 0x48, 0x46, 0xee, 
  0xdd, 0x0e, 0xbe, 0x01, 0xf2, 0x19, 0xc3, 0x9b, 0xea, 0xe1, 0xee, 0x53, 
  0xb3, 0x14, 0x3f, 0xbc, 0xa5, 0xcb, 0x05, 0x41, 0xa7, 0xf9, 0x9a, 0x9f, 
  0xd2, 0xe9, 0x25, 0x34, 0xda, 0x2d, 0x0b, 0xfe, 0xb2, 0x03, 0x00, 0x28, 
  0x08, 0xfb, 0xd4, 0xa5, 0xdb, 0xea, 0x2c, 0xff, 0xa0, 0x40, 0x42, 0xb2, 
  0xe0, 0x07, 0xbd, 0xe0, 0x4a, 0x2a, 0x46, 0x7f, 0x52, 0x4b, 0xfd, 0xf9, 
  0x58, 0x27, 0x46, 0x2c, 0x53, 0x3e, 0x3d, 0xe2, 0x4e, 0x3d, 0x7b, 0x52, 
  0x49, 0xd8, 0xc4, 0x2c, 0x42, 0x24, 0x3d, 0x59, 0x2b, 0x2a, 0x21, 0x07, 
  0x11, 0xe7, 0x3f, 0x5d, 0x25, 0x47, 0xd6, 0x05, 0x43, 0x0b, 0xda, 0x4f, 
  0x3f, 0xef, 0x5e, 0x26, 0xfb, 0x08, 0x7a, 0x46, 0xe5, 0x25, 0x22, 0x0b, 
  0x11, 0xc9, 0x2d, 0x27, 0x3b, 0x18, 0x37, 0xdf, 0x13, 0xe3, 0x0b, 0x13, 
  0x40, 0x30, 0xfa, 0x07, 0x4e, 0xfc, 0xf6, 0x28, 0x28, 0xf6, 0x44, 0xcd, 
  0x3a, 0x03, 0x67, 0x50, 0x52, 0xde, 0x06, 0xe0, 0x38, 0xc5, 0x10, 0x42, 
  0x3c, 0x43, 0x00, 0x1c, 0x32, 0x1d, 0x3d, 0x51, 0xe8, 0xfc, 0xef, 0xc7, 
  0x41, 0xc2, 0xcb, 0x0c, 0x50, 0x19, 0x62, 0x29, 0xfa, 0xd1, 0x7b, 0x0a, 
  0x22, 0x46, 0x23, 0x1d, 0x4f, 0x2e, 0x12, 0x3b, 0x3e, 0x26, 0x09, 0xd7, 
  0x24, 0xd0, 0x60, 0x41, 0x17, 0xd7, 0x2e, 0xfe, 0x06, 0x08, 0x01, 0x65, 
  0x59, 0xe6, 0x47, 0xfb, 0x2b, 0xe8, 0x20, 0x51, 0x30, 0x3a, 0x27, 0xe3, 
  0x7f, 0xf4, 0x05, 0x2b, 0x3c, 0x46, 0x36, 0xd0, 0x2b, 0xf6, 0x0b, 0x6f, 
  0xfc, 0x0a, 0x1a, 0x2d, 0x6a, 0x36, 0x1f, 0x2a, 0x35, 0x4c, 0x11, 0x1d, 
  0x59, 0x1f, 0x5f, 0x41, 0xf6, 0xf5, 0xd3, 0xe2, 0x2f, 0x13, 0x21, 0x7b, 
  0x18, 0x15, 0x57, 0x09, 0x62, 0xd8, 0x2a, 0x58, 0x3d, 0x40, 0xea, 0xd0, 
  0x13, 0xeb, 0x24, 0x26, 0x36, 0x49, 0xfc, 0xe4, 0xf2, 0x24, 0x15, 0x5e, 
  0xff, 0x43, 0x04, 0x05, 0x1f, 0xcf, 0xdd, 0x6e, 0x05, 0x19, 0x1b, 0xd1, 
  0x59, 0x28, 0x7a, 0x60, 0x38, 0xfd, 0xca, 0x23, 0x79, 0xda, 0x38, 0x58, 
  0x66, 0xf4, 0x26, 0x23, 0x35, 0x27, 0x3d, 0x09, 0x2f, 0x42, 0x20, 0x01, 
  0x76, 0xf6, 0x2a, 0x40, 0x72, 0xfe, 0x09, 0xd9, 0x3d, 0xd3, 0x22, 0x1e, 
  0xea, 0x08, 0x1e, 0xd8, 0x46, 0xfe, 0x35, 0x40, 0x56, 0x05, 0x4f, 0xd5, 
  0x3f, 0x30, 0x2c, 0x29, 0x16, 0xec, 0x36, 0xe6, 0x3a, 0xee, 0xd0, 0xfc, 
  0x62, 0x23, 0x67, 0x01, 0x6f, 0xe4, 0x23, 0x25, 0x53, 0x59, 0xcd, 0x2a, 
  0x21, 0xfc, 0xde, 0x55, 0x1c, 0xe2, 0x3e, 0x1f, 0x76, 0xd5, 0x40, 0x69, 
  0x30, 0xf3, 0x28, 0x18, 0x73, 0x25, 0x2b, 0x2d, 0x1d, 0x17, 0x35, 0xe0, 
  0x71, 0xcf, 0x2b, 0x32, 0xeb, 0x49, 0xc3, 0x39, 0x41, 0x25, 0xee, 0x62, 
  0x18, 0x3b, 0x38, 0x2a, 0x02, 0x42, 0x3d, 0x12, 0xf2, 0x06, 0x04, 0xf3, 
  0x6e, 0x23, 0x3c, 0x5f, 0x4d, 0x07, 0x07, 0xf9, 0x1e, 0xda, 0x7f, 0x70, 
  0x22, 0x0c, 0xf8, 0xfe, 0x14, 0x11, 0x03, 0x1e, 0x3c, 0x1f, 0x05, 0xf1, 
  0xfa, 0xca, 0x3a, 0x34, 0x46, 0xfa, 0x32, 0xcc, 0x7b, 0x28, 0xde, 0x35, 
  0x0f, 0xe6, 0x0b, 0x32, 0xf6, 0x1b, 0x71, 0x4f, 0x4b, 0x3d, 0xe7, 0x03, 
  0x34, 0x24, 0xde, 0x70, 0x30, 0x15, 0x75, 0xc8, 0x0f, 0xd1, 0x3a, 0x53, 
  0x15, 0x47, 0xd9, 0x28, 0x55, 0x16, 0xdf, 0x28, 0x3e, 0x2c, 0x29, 0x27, 
  0x60, 0xcf, 0x7b, 0x68, 0xe4, 0xd7, 0xd9, 0x17, 0x58, 0x02, 0xf8, 0x2b, 
  0x64, 0xee, 0x37, 0xee, 0x2d, 0x0a, 0x40, 0x3e, 0x0b, 0x38, 0x30, 0x07, 
  0x22, 0x14, 0x32, 0x42, 0x07, 0x1e, 0x11, 0x0f, 0x64, 0x3f, 0x18, 0x7a, 
  0x13, 0x30, 0x18, 0x07, 0x55, 0x03, 0x4a, 0x27, 0x27, 0x4f, 0x32, 0x04, 
  0x5f, 0xec, 0x35, 0x2a, 0x06, 0xdb, 0xd7, 0xe0, 0x55, 0x2d, 0xd6, 0x7f, 
  0x5a, 0x4d, 0x66, 0x22, 0x27, 0x14, 0x33, 0x4f, 0xe6, 0xeb, 0xdb, 0x0d, 
  0x6a, 0xd2, 0x0e, 0x12, 0x42, 0x07, 0x05, 0x33, 0x53, 0xfc, 0x26, 0x65, 
  0x50, 0x12, 0xd4, 0x03, 0x27, 0x2f, 0xe6, 0x24, 0x59, 0x4c, 0x1d, 0xeb, 
  0x22, 0xd1, 0x39, 0x2e, 0x4c, 0xd9, 0x0e, 0xfc, 0x0c, 0x0d, 0x42, 0x16, 
  0x72, 0xed, 0x0f, 0xfd, 0xfc, 0x36, 0x39, 0x0c, 0x46, 0x40, 0xcb, 0xd3, 
  0x79, 0x2b, 0xe1, 0x52, 0x12, 0x16, 0x3f, 0x18, 0x1b, 0xeb, 0x53, 0x23, 
  0x31, 0xd7, 0xde, 0xfe, 0x55, 0x11, 0xd2, 0x23, 0x27, 0x27, 0x4b, 0xc8, 
  0x42, 0xf2, 0x29, 0x2b, 0x08, 0x24, 0xfc, 0xda, 0x6f, 0xc0, 0xd8, 0x71, 
  0x70, 0x1f, 0xf3, 0x35, 0x1e, 0x28, 0x5e, 0x20, 0x06, 0x31, 0x17, 0xe2, 
  0x36, 0x2e, 0x40, 0x23, 0x43, 0xe0, 0x61, 0x06, 0x37, 0x1e, 0x62, 0x7f, 
  0xf4, 0x4f, 0x33, 0x2e, 0x44, 0x30, 0xde, 0x15, 0x0b, 0x3b, 0x58, 0x33, 
  0x25, 0xeb, 0x36, 0x1c, 0xe5, 0x3d, 0xe4, 0x0c, 0x6d, 0xd1, 0xee, 0x68, 
  0x3d, 0x09, 0x15, 0x0e, 0x6a, 0xcc, 0x75, 0x39, 0x60, 0x48, 0xf9, 0xcc, 
  0x1a, 0x14, 0xfd, 0x11, 0x50, 0x11, 0x32, 0xf1, 0x5b, 0x24, 0x72, 0x2f, 
  0xe7, 0xd6, 0xeb, 0xc7, 0x12, 0x30, 0xed, 0x1d, 0x44, 0x17, 0x60, 0xd6, 
  0x16, 0xdb, 0x17, 0x41, 0xfb, 0xcf, 0xfa, 0xc1, 0x0e, 0x38, 0xf4, 0x77, 
  0x21, 0x4f, 0x5d, 0x3a, 0x4c, 0x33, 0x32, 0x6a, 0x01, 0xe6, 0xf5, 0xfe, 
  0x22, 0x20, 0x14, 0x5c, 0x34, 0xee, 0x4f, 0x31, 0x4e, 0x08, 0x13, 0x1f, 
  0x2e, 0x15, 0x38, 0x0c, 0x7b, 0x16, 0xea, 0x55, 0x05, 0xe3, 0x6d, 0xde, 
  0x06, 0xbf, 0x4b, 0x77, 0x44, 0x41, 0xff, 0x0a, 0x0e, 0x2d, 0x19, 0x6a, 
  0x41, 0x30, 0x3e, 0xe8, 0x76, 0x25, 0x1e, 0x7f, 0xfc, 0x3f, 0xf7, 0xda, 
  0x56, 0xfa, 0x39, 0x43, 0x77, 0xf5, 0x56, 0xe3, 0x5b, 0xe6, 0x41, 0x41, 
  0x54, 0xe2, 0xd8, 0xdf, 0x3d, 0x15, 0xfe, 0x5d, 0x30, 0xef, 0x1e, 0x25, 
  0x32, 0xef, 0x77, 0x1b, 0xe0, 0x3a, 0xe0, 0x1f, 0x53, 0xe5, 0x2a, 0x0f, 
  0x4d, 0x38, 0x13, 0xdd, 0x2a, 0x22, 0x72, 0x5a, 0xdf, 0x3c, 0xcf, 0x1c, 
  0x62, 0xd2, 0x0d, 0x5b, 0x7e, 0x51, 0x2b, 0x32, 0x4f, 0x43, 0x73, 0x44, 
  0xea, 0xe8, 0xce, 0xe0, 0x0b, 0xcf, 0xc9, 0x28, 0x49, 0x07, 0xf6, 0xd5, 
  0xf5, 0xe7, 0x48, 0x67, 0x29, 0x40, 0x0a, 0x39, 0x3f, 0x47, 0x46, 0x6f, 
  0x04, 0x4b, 0x6a, 0xd5, 0x1e, 0xdb, 0x77, 0x1e, 0x00, 0x13, 0xd5, 0xc9, 
  0x66, 0xeb, 0xce, 0x03, 0x00, 0x34, 0x6e, 0x19, 0x1f, 0x20, 0x57, 0x3a, 
  0x4d, 0x21, 0xd8, 0xeb, 0x35, 0x20, 0x09, 0x1b, 0x46, 0x14, 0x71, 0x38, 
  0x5f, 0x02, 0x55, 0x5d, 0x12, 0x2d, 0xe8, 0xd8, 0x6e, 0x12, 0xee, 0x6e, 
  0x0c, 0x1c, 0x2f, 0x0b, 0x62, 0xf9, 0x43, 0x17, 0xf6, 0x21, 0xcf, 0x23, 
  0x7f, 0x27, 0x37, 0x45, 0x31, 0x56, 0x3b, 0x12, 0x36, 0x10, 0x07, 0x56, 
  0x15, 0x01, 0xed, 0x10, 0x73, 0xd5, 0xda, 0x2f, 0x30, 0x4a, 0x63, 0x42, 
  0x41, 0xf3, 0x77, 0x1c, 0x44, 0x4d, 0xca, 0x1e, 0x56, 0x1a, 0x31, 0x55, 
  0x68, 0xff, 0x74, 0x3f, 0x3f, 0xf1, 0x1b, 0x38, 0x37, 0xfe, 0xd5, 0xd2, 
  0x6d, 0xdd, 0xef, 0x1b, 0x12, 0x22, 0x4d, 0xe7, 0x46, 0x33, 0x30, 0x17, 
  0xef, 0xf1, 0xcb, 0xda, 0x12, 0x10, 0xd3, 0x14, 0x6f, 0x4f, 0x5f, 0xee, 
  0x1f, 0x0d, 0x2f, 0x0e, 0x29, 0x13, 0x0d, 0x0b, 0x7d, 0x3f, 0xe0, 0x15, 
  0x2d, 0x0e, 0x28, 0xdb, 0xfb, 0xf3, 0x3d, 0x74, 0x31, 0xf2, 0x16, 0xf4, 
  0x5d, 0x05, 0xef, 0x31, 0x62, 0x2d, 0x2f, 0x02, 0x29, 0xfa, 0x2d, 0x5a, 
  0x43, 0x43, 0x1b, 0xf4, 0x44, 0xf4, 0x02, 0x0a, 0x50, 0x31, 0x68, 0x31, 
  0x3f, 0x2b, 0x70, 0x43, 0x37, 0x52, 0xd4, 0xe4, 0x61, 0xcb, 0xf1, 0x2a, 
  0x42, 0x16, 0x26, 0xee, 0xfe, 0x23, 0x6f, 0x30, 0x14, 0xda, 0xd1, 0x18, 
  0x61, 0xfb, 0xda, 0x22, 0x24, 0x47, 0x51, 0xe2, 0x1b, 0x1e, 0x20, 0x4a, 
  0xdc, 0x3e, 0xe9, 0xe4, 0x31, 0x31, 0x1c, 0x50, 0x14, 0x34, 0x42, 0xf9, 
  0x43, 0x14, 0x33, 0x7d, 0xe0, 0x43, 0xc7, 0xf3, 0x2f, 0xc9, 0x32, 0x57, 
  0x0a, 0x09, 0x0f, 0x08, 0x63, 0x16, 0x72, 0x08, 0x46, 0x13, 0x25, 0xc5, 
  0x4c, 0x31, 0xfb, 0x21, 0x74, 0x42, 0xf9, 0x34, 0x65, 0x16, 0x09, 0x29, 
  0xf5, 0xe1, 0x37, 0xdb, 0x76, 0x24, 0x2d, 0x2f, 0x2f, 0x14, 0xfd, 0xec, 
  0x21, 0xf0, 0x6e, 0x34, 0x51, 0x0f, 0xcf, 0xf2, 0x36, 0xc0, 0x0a, 0x0c, 
  0x61, 0xf8, 0xf1, 0xd9, 0xea, 0x09, 0x28, 0x1f, 0x35, 0xe3, 0x30, 0x05, 
  0x0e, 0xeb, 0xbe, 0x2d, 0x40, 0x49, 0x40, 0x2d, 0xe8, 0x06, 0x33, 0x0b, 
  0x2b, 0x1f, 0x14, 0x16, 0x71, 0xba, 0x0c, 0x23, 0x1e, 0x3a, 0x04, 0x36, 
  0x25, 0xf5, 0x7f, 0x69, 0xfa, 0x40, 0xcf, 0x1a, 0x5a, 0x04, 0xeb, 0x41, 
  0x5c, 0xf7, 0x48, 0x06, 0x71, 0x18, 0x6b, 0x6d, 0x16, 0x52, 0x22, 0x07, 
  0x5a, 0x1a, 0x47, 0x0b, 0x75, 0x25, 0x2b, 0x19, 0x58, 0x10, 0x78, 0x6f, 
  0x2b, 0x48, 0x3d, 0xd3, 0x55, 0xcb, 0xec, 0x55, 0x67, 0x09, 0x5b, 0x10, 
  0x54, 0x16, 0x14, 0x5c, 0x06, 0xf7, 0xfb, 0x23, 0x34, 0x00, 0xd9, 0x6a, 
  0x09, 0x1e, 0x18, 0x16, 0x53, 0xdf, 0x0d, 0x52, 0x18, 0x1f, 0x17, 0xc1, 
  0x3a, 0x40, 0xfb, 0x02, 0x0f, 0x12, 0x2b, 0x25, 0x30, 0xd3, 0x11, 0x0f, 
  0x1f, 0xd2, 0x06, 0x38, 0x39, 0xfc, 0x1f, 0x5d, 0x03, 0xe1, 0x2d, 0xf9, 
  0x69, 0x3d, 0x18, 0x5f, 0x27, 0x16, 0xce, 0x17, 0x05, 0x0b, 0x09, 0x0e, 
  0x76, 0xda, 0x28, 0xf6, 0xff, 0xf9, 0x24, 0x5f, 0x11, 0x0f, 0xe8, 0xc7, 
  0x30, 0xc2, 0x32, 0x2e, 0x55, 0x0d, 0x49, 0xf1, 0x43, 0x04, 0x7f, 0x2f, 
  0x47, 0x15, 0x26, 0xcb, 0x4a, 0xdb, 0xde, 0x0e, 0x35, 0x15, 0x2f, 0xdb, 
  0x13, 0x28, 0x66, 0x40, 0x09, 0xd2, 0x19, 0x19, 0x4f, 0x27, 0xe7, 0x58, 
  0x61, 0x03, 0x35, 0x01, 0x60, 0xfa, 0x21, 0x6d, 0x4d, 0xfe, 0x0a, 0xd5, 
  0x17, 0x07, 0x31, 0x50, 0x6c, 0x23, 0x55, 0xf1, 0x13, 0x21, 0x44, 0x39, 
  0x0c, 0x09, 0xce, 0xf9, 0x49, 0xe8, 0x16, 0x45, 0x26, 0x44, 0x33, 0xd8, 
  0x62, 0x0b, 0x26, 0x2b, 0x18, 0xef, 0xe6, 0x2d, 0x4a, 0x2d, 0x20, 0x2b, 
  0x22, 0xf9, 0x20, 0xf2, 0x20, 0xdd, 0x2e, 0x4f, 0x00, 0x21, 0xd6, 0xef, 
  0x19, 0xed, 0x10, 0x24, 0x20, 0x2d, 0x20, 0xdd, 0x4e, 0x26, 0x7f, 0x67, 
  0x2b, 0xe5, 0x05, 0xec, 0x31, 0x1f, 0xf6, 0x21, 0x1f, 0x0d, 0x35, 0xe4, 
  0x4f, 0x1f, 0x53, 0x23, 0x06, 0x3b, 0x2c, 0x10, 0x5d, 0xca, 0xee, 0x32, 
  0x4b, 0x15, 0x35, 0xc8, 0x54, 0x0f, 0x55, 0x3f, 0x0f, 0x17, 0x05, 0x17, 
  0x13, 0x0a, 0x1b, 0x41, 0x3e, 0xe6, 0x13, 0x16, 0x22, 0x14, 0x6b, 0x19, 
  0x35, 0x19, 0x33, 0x06, 0x44, 0xe2, 0xd3, 0x1b, 0x62, 0x3c, 0x18, 0xcf, 
  0x18, 0xcf, 0x62, 0x61, 0x20, 0x01, 0xe8, 0x03, 0x5e, 0x1f, 0x11, 0x27, 
  0x28, 0xf4, 0x17, 0x00, 0xcc, 0xea, 0xbc, 0xc0, 0xe9, 0x0e, 0x37, 0x24, 
  0xa6, 0xe6, 0xd9, 0x8b, 0x9d, 0x1c, 0x10, 0xec, 0xe5, 0x50, 0xdb, 0xc8, 
  0x2c, 0xd1, 0x22, 0x0b, 0x81, 0x06, 0xfc, 0xf3, 0xe9, 0xc1, 0x0e, 0x48, 
  0xb3, 0x4e, 0xba, 0xed, 0xf0, 0x07, 0x1a, 0x16, 0x98, 0x4a, 0x21, 0x8d, 
  0xb0, 0xc7, 0xa3, 0x3a, 0xf0, 0x19, 0xc7, 0xe0, 0x23, 0x0a, 0xc7, 0x56, 
  0x8a, 0xed, 0xdf, 0x8b, 0xe5, 0xdc, 0xae, 0x4e, 0xce, 0xf0, 0x8f, 0x83, 
  0xdd, 0xd0, 0xcc, 0x36, 0xce, 0x4d, 0x40, 0x94, 0x91, 0x23, 0x17, 0xec, 
  0xcc, 0x36, 0xa6, 0xb1, 0xf5, 0x2c, 0xe8, 0x38, 0x8e, 0x51, 0xdb, 0xbe, 
  0xc2, 0x21, 0x01, 0x3a, 0x07, 0xf0, 0xa7, 0xb5, 0xcd, 0x07, 0x29, 0x08, 
  0xa6, 0x02, 0x60, 0xce, 0x97, 0x0c, 0xca, 0x14, 0x16, 0x5d, 0xa2, 0xb0, 
  0x05, 0xdb, 0xf0, 0x2e, 0xe9, 0xf1, 0x10, 0x93, 0xe1, 0xf5, 0xba, 0xe5, 
  0x08, 0x3a, 0x9e, 0xa6, 0x0f, 0x02, 0xfe, 0x51, 0x8c, 0xfe, 0x2a, 0xab, 
  0xcf, 0xec, 0xaa, 0x20, 0x8a, 0x0b, 0x81, 0x8b, 0x22, 0x1f, 0xc8, 0x3d, 
  0xbf, 0xe3, 0x40, 0xa6, 0x8c, 0x0c, 0xd7, 0xf0, 0xef, 0x2b, 0xc3, 0xcb, 
  0xb4, 0xc9, 0x28, 0x05, 0xee, 0xfc, 0xf7, 0xd1, 0xd4, 0x07, 0x97, 0xfb, 
  0xfa, 0x3b, 0xf3, 0x89, 0x07, 0x16, 0xed, 0x0b, 0x92, 0xff, 0xe6, 0xc9, 
  0xd7, 0x07, 0x0d, 0x1b, 0xfd, 0x2d, 0x8b, 0x98, 0xf4, 0x25, 0x22, 0x07, 
  0xd0, 0xea, 0x45, 0xb5, 0xf1, 0x10, 0xd1, 0x3e, 0xda, 0x54, 0x9a, 0x8f, 
  0xdd, 0x29, 0xe2, 0x3a, 0xde, 0x58, 0x23, 0xd6, 0x8c, 0x01, 0x00, 0x14, 
  0xf9, 0x0c, 0xc1, 0xcf, 0x1d, 0xbd, 0xc5, 0x5c, 0xaa, 0x25, 0x1b, 0xf9, 
  0xa9, 0xe7, 0xfa, 0xd5, 0xa9, 0xeb, 0xf2, 0xd8, 0xe8, 0xf5, 0xfc, 0x5e, 
  0xf7, 0x1c, 0x44, 0x02, 0xd4, 0xf7, 0xac, 0x1b, 0xc1, 0x35, 0xae, 0x97, 
  0x1a, 0xfa, 0x13, 0x53, 0xa1, 0xfb, 0xee, 0xcb, 0xa7, 0x19, 0xc5, 0xdd, 
  0xfa, 0x27, 0xf7, 0xa3, 0x22, 0x0d, 0xec, 0x01, 0xd1, 0x40, 0x0e, 0xe4, 
  0xcc, 0x08, 0xa9, 0xfb, 0x16, 0xdc, 0x59, 0x7c, 0x14, 0x2c, 0x06, 0xdf, 
  0x6f, 0x3b, 0x02, 0x1c, 0x7f, 0x4d, 0x17, 0x45, 0xf7, 0x0d, 0x2d, 0x39, 
  0x32, 0x43, 0x2a, 0x0c, 0x4c, 0x2a, 0x46, 0x11, 0x13, 0xdb, 0xfb, 0x37, 
  0xfd, 0x07, 0x71, 0x4c, 0xe8, 0x46, 0xc0, 0x08, 0x50, 0x29, 0xf3, 0x31, 
  0x44, 0x20, 0x15, 0xdd, 0x0d, 0xcb, 0x5d, 0x69, 0xe6, 0xf9, 0x3b, 0x1e, 
  0x23, 0xdb, 0xca, 0x65, 0x71, 0x48, 0x5f, 0xd4, 0xfd, 0xff, 0x5d, 0x5b, 
  0x49, 0x06, 0xf1, 0x0c, 0x60, 0xf6, 0x05, 0x63, 0x38, 0xd6, 0xf6, 0xbf, 
  0x0a, 0x05, 0x4f, 0x24, 0x01, 0xe0, 0xe0, 0xe2, 0x0b, 0x1f, 0x24, 0x56, 
  0x78, 0x24, 0x04, 0x1d, 0x23, 0x09, 0x6d, 0x27, 0xd8, 0xf9, 0xef, 0xdf, 
  0x1e, 0xdb, 0x29, 0x4a, 0x49, 0x14, 0x24, 0xfd, 0x1b, 0x0a, 0x41, 0x62, 
  0x1c, 0x23, 0xfa, 0x05, 0x42, 0x27, 0xcb, 0x4d, 0x5f, 0xd9, 0x41, 0x3b, 
  0x36, 0xd4, 0x45, 0x01, 0x22, 0x0a, 0xc8, 0xf6, 0x47, 0x15, 0x10, 0x0e, 
  0x6e, 0x3b, 0x1f, 0x2b, 0x05, 0xdf, 0x46, 0x61, 0x51, 0x4e, 0x38, 0x28, 
  0x16, 0x3a, 0xe2, 0x35, 0x41, 0xda, 0x1e, 0x19, 0x11, 0x1f, 0x34, 0x52, 
  0x49, 0xdd, 0xf9, 0xe9, 0x66, 0x35, 0xe6, 0x44, 0x71, 0x3b, 0x41, 0xe4, 
  0x6e, 0x41, 0x23, 0x4f, 0x30, 0xfa, 0xe4, 0xdd, 0x3c, 0x38, 0xfd, 0x7f, 
  0x17, 0xf6, 0x6b, 0x21, 0x05, 0xcc, 0x6f, 0x35, 0x4d, 0xec, 0x13, 0x2e, 
  0x2c, 0x04, 0x3f, 0x1f, 0x3b, 0xfc, 0x29, 0xca, 0x55, 0x0d, 0x66, 0x0e, 
  0x58, 0x38, 0xf3, 0xd2, 0x77, 0x08, 0x0b, 0x1f, 0x58, 0x4e, 0x34, 0x0b, 
  0x36, 0xc5, 0x5e, 0x29, 0x23, 0x39, 0x27, 0xce, 0x2c, 0x2c, 0xc8, 0x08, 
  0x05, 0x20, 0x19, 0xfb, 0x50, 0x1c, 0x32, 0x74, 0xf4, 0x46, 0xc9, 0x07, 
  0x35, 0xe9, 0xe3, 0x18, 0x0c, 0xd6, 0x0e, 0xe6, 0x48, 0x31, 0x54, 0x6d, 
  0x0c, 0x4e, 0x0a, 0xdf, 0x44, 0xc4, 0x20, 0x71, 0x04, 0x14, 0xfc, 0x32, 
  0xf5, 0x32, 0x5a, 0x26, 0x16, 0x2a, 0x2f, 0x05, 0x68, 0xf8, 0x0d, 0x22, 
  0x14, 0xe2, 0x2a, 0xe7, 0xb3, 0x9b, 0xdf, 0xe4, 0x68, 0x15, 0xad, 0xcc, 
  0x27, 0xd7, 0xbc, 0x61, 0x60, 0x1a, 0xe7, 0xf0, 0x66, 0x06, 0x0c, 0x75, 
  0xcd, 0xe6, 0xf4, 0x09, 0xaa, 0x4e, 0x16, 0x83, 0x4f, 0xdf, 0x28, 0xc4, 
  0x24, 0xc4, 0xa2, 0x60, 0xe4, 0x6a, 0xa1, 0xd8, 0x41, 0xae, 0xdf, 0x71, 
  0x52, 0x1e, 0x9e, 0x6b, 0xc4, 0xdc, 0xab, 0xd7, 0x72, 0x10, 0xe8, 0x8b, 
  0x5b, 0xa5, 0x57, 0xdc, 0xbc, 0xbe, 0xa8, 0x66, 0x12, 0xf7, 0xdc, 0xa3, 
  0x27, 0x1b, 0x93, 0xc0, 0xa3, 0xa8, 0xca, 0xc4, 0x01, 0x8c, 0x2f, 0x2c, 
  0x00, 0x49, 0x08, 0x74, 0xab, 0xb7, 0x5a, 0x55, 0x2d, 0xd7, 0xe2, 0xfb, 
  0xf3, 0xf2, 0xe3, 0x1d, 0x3d, 0x13, 0xe5, 0x71, 0xb7, 0x3d, 0x57, 0xdf, 
  0x60, 0x0c, 0xf5, 0x26, 0x89, 0x89, 0xae, 0xf6, 0x0b, 0xa6, 0x1e, 0x1e, 
  0xa5, 0x84, 0x57, 0xd4, 0xeb, 0x24, 0x0f, 0xd0, 0xe7, 0x64, 0x74, 0x81, 
  0xaa, 0x82, 0x5a, 0xeb, 0x30, 0x0f, 0xec, 0xcb, 0xce, 0xcd, 0xd6, 0xe6, 
  0xb5, 0xd7, 0xa8, 0x16, 0xb9, 0xec, 0xf6, 0x01, 0xea, 0x78, 0xc4, 0x67, 
  0x8e, 0x00, 0xd6, 0xe7, 0x02, 0x3a, 0xdc, 0x0d, 0x46, 0xb4, 0x7d, 0xdc, 
  0x34, 0x59, 0x4c, 0xe1, 0x51, 0x4b, 0x1d, 0x1e, 0xd7, 0xee, 0x16, 0x96, 
  0xec, 0x04, 0xdd, 0x32, 0xb9, 0x36, 0x64, 0x29, 0xca, 0x4d, 0xbc, 0x02, 
  0x8e, 0xea, 0xea, 0x0a, 0xd1, 0xd0, 0x45, 0xa8, 0xea, 0xca, 0x70, 0x31, 
  0x29, 0x6f, 0x83, 0x5d, 0xbd, 0xe9, 0x0d, 0x4f, 0x9e, 0x77, 0x1b, 0x0c, 
  0xfe, 0x59, 0xad, 0x90, 0x9e, 0x28, 0x84, 0xc3, 0x07, 0x9e, 0xbb, 0x97, 
  0x05, 0x18, 0x98, 0x0e, 0x83, 0xd3, 0xc3, 0xfb, 0xcd, 0xa7, 0x91, 0x77, 
  0x52, 0x3f, 0x6d, 0x4a, 0x48, 0x62, 0xf7, 0x70, 0x3c, 0x85, 0x6b, 0xa0, 
  0x17, 0x87, 0x02, 0x97, 0x95, 0x67, 0x9f, 0xb1, 0x1c, 0x72, 0x19, 0x62, 
  0xd6, 0xfc, 0x4e, 0x8c, 0x2f, 0x20, 0x89, 0xf9, 0x27, 0x9f, 0x13, 0xb9, 
  0xda, 0xaa, 0xc0, 0xf3, 0xf1, 0xec, 0x46, 0x81, 0xc7, 0xd8, 0x7a, 0x2b, 
  0xea, 0x20, 0x88, 0x90, 0x3a, 0xfe, 0xff, 0xff, 0x04, 0x00, 0x00, 0x00, 
  0x80, 0x00, 0x00, 0x00, 0x18, 0x58, 0xff, 0xff, 0x8c, 0xf3, 0x01, 0x00, 
  0x77, 0x80, 0xff, 0xff, 0xb3, 0x56, 0xff, 0xff, 0xdf, 0x9a, 0xff, 0xff, 
  0x19, 0xc6, 0xff, 0xff, 0x26, 0xf4, 0x01, 0x00, 0x47, 0x38, 0xff, 0xff, 
  0x51, 0x47, 0xff, 0xff, 0x87, 0x9e, 0xff, 0xff, 0xc5, 0x35, 0xff, 0xff, 
  0x90, 0xe6, 0x01, 0x00, 0x62, 0xc3, 0xff, 0xff, 0x00, 0x00, 0x00, 0x00, 
  0x88, 0x76, 0xff, 0xff, 0x39, 0xd0, 0x01, 0x00, 0x34, 0x4c, 0xff, 0xff, 
  0xea, 0x71, 0xff, 0xff, 0xf5, 0xbc, 0xff, 0xff, 0x5d, 0x96, 0xff, 0xff, 
  0x5f, 0xa7, 0xff, 0xff, 0x3a, 0xb2, 0xff, 0xff, 0x83, 0xd4, 0xff, 0xff, 
  0xd2, 0x28, 0xff, 0xff, 0xda, 0x6e, 0xff, 0xff, 0x69, 0x30, 0xff, 0xff, 
  0xb7, 0x17, 0x02, 0x00, 0xc2, 0xe9, 0x01, 0x00, 0x9e, 0x29, 0xff, 0xff, 
  0x6a, 0x7f, 0xff, 0xff, 0x1a, 0x97, 0xff, 0xff, 0x00, 0x00, 0x00, 0x00, 
  0xc6, 0xfe, 0xff, 0xff, 0x04, 0x00, 0x00, 0x00, 0x40, 0x00, 0x00, 0x00, 
  0x0a, 0xff, 0x4a, 0x93, 0xa6, 0x8b, 0x22, 0xd4, 0xac, 0x83, 0xe1, 0x23, 
  0xa5, 0xbc, 0xfa, 0xe1, 0xf6, 0xb9, 0x97, 0xa7, 0x81, 0xa0, 0xbd, 0x2d, 
  0xd8, 0xc0, 0x1a, 0xe4, 0xed, 0x97, 0xd8, 0xac, 0x4a, 0xab, 0xfd, 0x0d, 
  0x42, 0x36, 0xce, 0x5e, 0x1e, 0x3a, 0x4b, 0xc0, 0xfd, 0x1c, 0x55, 0x99, 
  0x45, 0x15, 0x47, 0x66, 0x25, 0x67, 0x0a, 0x6a, 0x6b, 0xe2, 0xba, 0x99, 
  0x72, 0x7f, 0xa0, 0x32, 0x12, 0xff, 0xff, 0xff, 0x04, 0x00, 0x00, 0x00, 
  0x08, 0x00, 0x00, 0x00, 0x0f, 0x27, 0x00, 0x00, 0x1c, 0xda, 0xff, 0xff, 
  0x26, 0xff, 0xff, 0xff, 0x04, 0x00, 0x00, 0x00, 0x08, 0x00, 0x00, 0x00, 
  0x01, 0x00, 0x00, 0x00, 0x02, 0x00, 0x00, 0x00, 0xc4, 0xee, 0xff, 0xff, 
  0xc8, 0xee, 0xff, 0xff, 0x0f, 0x00, 0x00, 0x00, 0x4d, 0x4c, 0x49, 0x52, 
  0x20, 0x43, 0x6f, 0x6e, 0x76, 0x65, 0x72, 0x74, 0x65, 0x64, 0x2e, 0x00, 
  0x01, 0x00, 0x00, 0x00, 0x14, 0x00, 0x00, 0x00, 0x00, 0x00, 0x0e, 0x00, 
  0x18, 0x00, 0x14, 0x00, 0x10, 0x00, 0x0c, 0x00, 0x08, 0x00, 0x04, 0x00, 
  0x0e, 0x00, 0x00, 0x00, 0x14, 0x00, 0x00, 0x00, 0x1c, 0x00, 0x00, 0x00, 
  0x84, 0x02, 0x00, 0x00, 0x88, 0x02, 0x00, 0x00, 0x8c, 0x02, 0x00, 0x00, 
  0x04, 0x00, 0x00, 0x00, 0x6d, 0x61, 0x69, 0x6e, 0x00, 0x00, 0x00, 0x00, 
  0x09, 0x00, 0x00, 0x00, 0x1c, 0x02, 0x00, 0x00, 0xb8, 0x01, 0x00, 0x00, 
  0x64, 0x01, 0x00, 0x00, 0x20, 0x01, 0x00, 0x00, 0xdc, 0x00, 0x00, 0x00, 
  0xa8, 0x00, 0x00, 0x00, 0x70, 0x00, 0x00, 0x00, 0x34, 0x00, 0x00, 0x00, 
  0x10, 0x00, 0x00, 0x00, 0x00, 0x00, 0x0a, 0x00, 0x10, 0x00, 0x0c, 0x00, 
  0x08, 0x00, 0x04, 0x00, 0x0a, 0x00, 0x00, 0x00, 0x0c, 0x00, 0x00, 0x00, 
  0x10, 0x00, 0x00, 0x00, 0x05, 0x00, 0x00, 0x00, 0x01, 0x00, 0x00, 0x00, 
  0x12, 0x00, 0x00, 0x00, 0x01, 0x00, 0x00, 0x00, 0x11, 0x00, 0x00, 0x00, 
  0xa2, 0xfe, 0xff, 0xff, 0x1c, 0x00, 0x00, 0x00, 0x00, 0x00, 0x00, 0x09, 
  0x1c, 0x00, 0x00, 0x00, 0x20, 0x00, 0x00, 0x00, 0x04, 0x00, 0x00, 0x00, 
  0x00, 0x00, 0x06, 0x00, 0x08, 0x00, 0x04, 0x00, 0x06, 0x00, 0x00, 0x00, 
  0x00, 0x00, 0x80, 0x3f, 0x01, 0x00, 0x00, 0x00, 0x11, 0x00, 0x00, 0x00, 
  0x01, 0x00, 0x00, 0x00, 0x10, 0x00, 0x00, 0x00, 0xda, 0xfe, 0xff, 0xff, 
  0x14, 0x00, 0x00, 0x00, 0x00, 0x00, 0x00, 0x08, 0x10, 0x00, 0x00, 0x00, 
  0x14, 0x00, 0x00, 0x00, 0x03, 0x00, 0x00, 0x00, 0xc0, 0xef, 0xff, 0xff, 
  0x01, 0x00, 0x00, 0x00, 0x10, 0x00, 0x00, 0x00, 0x03, 0x00, 0x00, 0x00, 
  0x0f, 0x00, 0x00, 0x00, 0x03, 0x00, 0x00, 0x00, 0x02, 0x00, 0x00, 0x00, 
  0x0e, 0xff, 0xff, 0xff, 0x14, 0x00, 0x00, 0x00, 0x00, 0x00, 0x00, 0x1b, 
  0x10, 0x00, 0x00, 0x00, 0x14, 0x00, 0x00, 0x00, 0x02, 0x00, 0x00, 0x00, 
  0xf4, 0xef, 0xff, 0xff, 0x01, 0x00, 0x00, 0x00, 0x0f, 0x00, 0x00, 0x00, 
  0x02, 0x00, 0x00, 0x00, 0x0e, 0x00, 0x00, 0x00, 0x01, 0x00, 0x00, 0x00, 
  0xde, 0xfe, 0xff, 0xff, 0x10, 0x00, 0x00, 0x00, 0x00, 0x00, 0x00, 0x01, 
  0x1c, 0x00, 0x00, 0x00, 0x20, 0x00, 0x00, 0x00, 0xd0, 0xfe, 0xff, 0xff, 
  0x00, 0x00, 0x00, 0x01, 0x01, 0x00, 0x00, 0x00, 0x01, 0x00, 0x00, 0x00, 
  0x00, 0x00, 0x00, 0x01, 0x01, 0x00, 0x00, 0x00, 0x0e, 0x00, 0x00, 0x00, 
  0x03, 0x00, 0x00, 0x00, 0x0d, 0x00, 0x00, 0x00, 0x05, 0x00, 0x00, 0x00, 
  0x04, 0x00, 0x00, 0x00, 0x7e, 0xff, 0xff, 0xff, 0x14, 0x00, 0x00, 0x00, 
  0x00, 0x00, 0x00, 0x05, 0x24, 0x00, 0x00, 0x00, 0x28, 0x00, 0x00, 0x00, 
  0x01, 0x00, 0x00, 0x00, 0x6e, 0xff, 0xff, 0xff, 0x02, 0x00, 0x00, 0x00, 
  0x02, 0x00, 0x00, 0x00, 0x02, 0x00, 0x00, 0x00, 0x02, 0x00, 0x00, 0x00, 
  0x00, 0x00, 0x00, 0x01, 0x01, 0x00, 0x00, 0x00, 0x0d, 0x00, 0x00, 0x00, 
  0x01, 0x00, 0x00, 0x00, 0x0c, 0x00, 0x00, 0x00, 0x5e, 0xff, 0xff, 0xff, 
  0x10, 0x00, 0x00, 0x00, 0x00, 0x00, 0x00, 0x01, 0x1c, 0x00, 0x00, 0x00, 
  0x20, 0x00, 0x00, 0x00, 0x50, 0xff, 0xff, 0xff, 0x00, 0x00, 0x00, 0x01, 
  0x01, 0x00, 0x00, 0x00, 0x01, 0x00, 0x00, 0x00, 0x00, 0x00, 0x00, 0x01, 
  0x01, 0x00, 0x00, 0x00, 0x0c, 0x00, 0x00, 0x00, 0x03, 0x00, 0x00, 0x00, 
  0x0b, 0x00, 0x00, 0x00, 0x07, 0x00, 0x00, 0x00, 0x06, 0x00, 0x00, 0x00, 
  0x00, 0x00, 0x0e, 0x00, 0x1a, 0x00, 0x14, 0x00, 0x10, 0x00, 0x0c, 0x00, 
  0x0b, 0x00, 0x04, 0x00, 0x0e, 0x00, 0x00, 0x00, 0x24, 0x00, 0x00, 0x00, 
  0x00, 0x00, 0x00, 0x05, 0x34, 0x00, 0x00, 0x00, 0x38, 0x00, 0x00, 0x00, 
  0x01, 0x00, 0x00, 0x00, 0x00, 0x00, 0x0e, 0x00, 0x18, 0x00, 0x17, 0x00, 
  0x10, 0x00, 0x0c, 0x00, 0x08, 0x00, 0x04, 0x00, 0x0e, 0x00, 0x00, 0x00, 
  0x02, 0x00, 0x00, 0x00, 0x02, 0x00, 0x00, 0x00, 0x02, 0x00, 0x00, 0x00, 
  0x02, 0x00, 0x00, 0x00, 0x00, 0x00, 0x00, 0x01, 0x01, 0x00, 0x00, 0x00, 
  0x0b, 0x00, 0x00, 0x00, 0x01, 0x00, 0x00, 0x00, 0x0a, 0x00, 0x00, 0x00, 
  0x00, 0x00, 0x0e, 0x00, 0x14, 0x00, 0x00, 0x00, 0x10, 0x00, 0x0c, 0x00, 
  0x0b, 0x00, 0x04, 0x00, 0x0e, 0x00, 0x00, 0x00, 0x1c, 0x00, 0x00, 0x00, 
  0x00, 0x00, 0x00, 0x01, 0x28, 0x00, 0x00, 0x00, 0x2c, 0x00, 0x00, 0x00, 
  0x0c, 0x00, 0x14, 0x00, 0x13, 0x00, 0x0c, 0x00, 0x08, 0x00, 0x07, 0x00, 
  0x0c, 0x00, 0x00, 0x00, 0x00, 0x00, 0x00, 0x01, 0x01, 0x00, 0x00, 0x00, 
  0x01, 0x00, 0x00, 0x00, 0x00, 0x00, 0x00, 0x01, 0x01, 0x00, 0x00, 0x00, 
  0x0a, 0x00, 0x00, 0x00, 0x03, 0x00, 0x00, 0x00, 0x00, 0x00, 0x00, 0x00, 
  0x09, 0x00, 0x00, 0x00, 0x08, 0x00, 0x00, 0x00, 0x01, 0x00, 0x00, 0x00, 
  0x12, 0x00, 0x00, 0x00, 0x01, 0x00, 0x00, 0x00, 0x00, 0x00, 0x00, 0x00, 
  0x13, 0x00, 0x00, 0x00, 0xa0, 0x0e, 0x00, 0x00, 0x44, 0x0e, 0x00, 0x00, 
  0xbc, 0x0d, 0x00, 0x00, 0x48, 0x0d, 0x00, 0x00, 0x74, 0x0b, 0x00, 0x00, 
  0x90, 0x09, 0x00, 0x00, 0x7c, 0x08, 0x00, 0x00, 0x58, 0x07, 0x00, 0x00, 
  0xa4, 0x06, 0x00, 0x00, 0xe0, 0x05, 0x00, 0x00, 0x0c, 0x05, 0x00, 0x00, 
  0x70, 0x04, 0x00, 0x00, 0x9c, 0x03, 0x00, 0x00, 0x00, 0x03, 0x00, 0x00, 
  0x2c, 0x02, 0x00, 0x00, 0x98, 0x01, 0x00, 0x00, 0xfc, 0x00, 0x00, 0x00, 
  0x78, 0x00, 0x00, 0x00, 0x1c, 0x00, 0x00, 0x00, 0x00, 0x00, 0x16, 0x00, 
  0x1c, 0x00, 0x18, 0x00, 0x00, 0x00, 0x14, 0x00, 0x10, 0x00, 0x0c, 0x00, 
  0x00, 0x00, 0x00, 0x00, 0x08, 0x00, 0x07, 0x00, 0x16, 0x00, 0x00, 0x00, 
  0x00, 0x00, 0x00, 0x01, 0x14, 0x00, 0x00, 0x00, 0x1c, 0x00, 0x00, 0x00, 
  0x1c, 0x00, 0x00, 0x00, 0x13, 0x00, 0x00, 0x00, 0x34, 0x00, 0x00, 0x00, 
  0x02, 0x00, 0x00, 0x00, 0xff, 0xff, 0xff, 0xff, 0x02, 0x00, 0x00, 0x00, 
  0x28, 0xf2, 0xff, 0xff, 0x1b, 0x00, 0x00, 0x00, 0x53, 0x74, 0x61, 0x74, 
  0x65, 0x66, 0x75, 0x6c, 0x50, 0x61, 0x72, 0x74, 0x69, 0x74, 0x69, 0x6f, 
  0x6e, 0x65, 0x64, 0x43, 0x61, 0x6c, 0x6c, 0x5f, 0x31, 0x3a, 0x30, 0x00, 
  0x02, 0x00, 0x00, 0x00, 0x01, 0x00, 0x00, 0x00, 0x02, 0x00, 0x00, 0x00, 
  0x32, 0xf2, 0xff, 0xff, 0x00, 0x00, 0x00, 0x01, 0x18, 0x00, 0x00, 0x00, 
  0x20, 0x00, 0x00, 0x00, 0x40, 0x00, 0x00, 0x00, 0x12, 0x00, 0x00, 0x00, 
  0x00, 0x00, 0x00, 0x09, 0x58, 0x00, 0x00, 0x00, 0x02, 0x00, 0x00, 0x00, 
  0xff, 0xff, 0xff, 0xff, 0x02, 0x00, 0x00, 0x00, 0x14, 0xf2, 0xff, 0xff, 
  0x08, 0x00, 0x00, 0x00, 0x14, 0x00, 0x00, 0x00, 0x01, 0x00, 0x00, 0x00, 
  0x80, 0xff, 0xff, 0xff, 0xff, 0xff, 0xff, 0xff, 0x00, 0x00, 0x00, 0x00, 
  0x01, 0x00, 0x00, 0x00, 0x00, 0x00, 0x80, 0x3b, 0x1c, 0x00, 0x00, 0x00, 
  0x53, 0x74, 0x61, 0x74, 0x65, 0x66, 0x75, 0x6c, 0x50, 0x61, 0x72, 0x74, 
  0x69, 0x74, 0x69, 0x6f, 0x6e, 0x65, 0x64, 0x43, 0x61, 0x6c, 0x6c, 0x5f, 
  0x31, 0x3a, 0x30, 0x31, 0x00, 0x00, 0x00, 0x00, 0x02, 0x00, 0x00, 0x00, 
  0x01, 0x00, 0x00, 0x00, 0x02, 0x00, 0x00, 0x00, 0xb2, 0xf2, 0xff, 0xff, 
  0x00, 0x00, 0x00, 0x01, 0x18, 0x00, 0x00, 0x00, 0x20, 0x00, 0x00, 0x00, 
  0x3c, 0x00, 0x00, 0x00, 0x11, 0x00, 0x00, 0x00, 0x00, 0x00, 0x00, 0x09, 
  0x70, 0x00, 0x00, 0x00, 0x02, 0x00, 0x00, 0x00, 0xff, 0xff, 0xff, 0xff, 
  0x02, 0x00, 0x00, 0x00, 0x94, 0xf2, 0xff, 0xff, 0x08, 0x00, 0x00, 0x00, 
  0x10, 0x00, 0x00, 0x00, 0x01, 0x00, 0x00, 0x00, 0x03, 0x00, 0x00, 0x00, 
  0x00, 0x00, 0x00, 0x00, 0x01, 0x00, 0x00, 0x00, 0x00, 0xcc, 0x80, 0x3c, 
  0x38, 0x00, 0x00, 0x00, 0x73, 0x65, 0x71, 0x75, 0x65, 0x6e, 0x74, 0x69, 
  0x61, 0x6c, 0x5f, 0x31, 0x2f, 0x64, 0x65, 0x6e, 0x73, 0x65, 0x5f, 0x31, 
  0x2f, 0x4d, 0x61, 0x74, 0x4d, 0x75, 0x6c, 0x3b, 0x73, 0x65, 0x71, 0x75, 
  0x65, 0x6e, 0x74, 0x69, 0x61, 0x6c, 0x5f, 0x31, 0x2f, 0x64, 0x65, 0x6e, 
  0x73, 0x65, 0x5f, 0x31, 0x2f, 0x42, 0x69, 0x61, 0x73, 0x41, 0x64, 0x64, 
  0x00, 0x00, 0x00, 0x00, 0x02, 0x00, 0x00, 0x00, 0x01, 0x00, 0x00, 0x00, 
  0x02, 0x00, 0x00, 0x00, 0x4a, 0xf3, 0xff, 0xff, 0x00, 0x00, 0x00, 0x01, 
  0x18, 0x00, 0x00, 0x00, 0x20, 0x00, 0x00, 0x00, 0x40, 0x00, 0x00, 0x00, 
  0x10, 0x00, 0x00, 0x00, 0x00, 0x00, 0x00, 0x09, 0x68, 0x00, 0x00, 0x00, 
  0x02, 0x00, 0x00, 0x00, 0xff, 0xff, 0xff, 0xff, 0x20, 0x00, 0x00, 0x00, 
  0x2c, 0xf3, 0xff, 0xff, 0x08, 0x00, 0x00, 0x00, 0x14, 0x00, 0x00, 0x00, 
  0x01, 0x00, 0x00, 0x00, 0x80, 0xff, 0xff, 0xff, 0xff, 0xff, 0xff, 0xff, 
  0x00, 0x00, 0x00, 0x00, 0x01, 0x00, 0x00, 0x00, 0x5f, 0xe8, 0xdc, 0x3a, 
  0x2c, 0x00, 0x00, 0x00, 0x73, 0x65, 0x71, 0x75, 0x65, 0x6e, 0x74, 0x69, 
  0x61, 0x6c, 0x5f, 0x31, 0x2f, 0x67, 0x6c, 0x6f, 0x62, 0x61, 0x6c, 0x5f, 
  0x61, 0x76, 0x65, 0x72, 0x61, 0x67, 0x65, 0x5f, 0x70, 0x6f, 0x6f, 0x6c, 
  0x69, 0x6e, 0x67, 0x32, 0x64, 0x5f, 0x31, 0x2f, 0x4d, 0x65, 0x61, 0x6e, 
  0x00, 0x00, 0x00, 0x00, 0x02, 0x00, 0x00, 0x00, 0x01, 0x00, 0x00, 0x00, 
  0x20, 0x00, 0x00, 0x00, 0xda, 0xf3, 0xff, 0xff, 0x00, 0x00, 0x00, 0x01, 
  0x18, 0x00, 0x00, 0x00, 0x28, 0x00, 0x00, 0x00, 0x44, 0x00, 0x00, 0x00, 
  0x0f, 0x00, 0x00, 0x00, 0x00, 0x00, 0x00, 0x09, 0xa0, 0x00, 0x00, 0x00, 
  0x04, 0x00, 0x00, 0x00, 0xff, 0xff, 0xff, 0xff, 0x08, 0x00, 0x00, 0x00, 
  0x08, 0x00, 0x00, 0x00, 0x20, 0x00, 0x00, 0x00, 0xc4, 0xf3, 0xff, 0xff, 
  0x08, 0x00, 0x00, 0x00, 0x10, 0x00, 0x00, 0x00, 0x01, 0x00, 0x00, 0x00, 
  0x80, 0xff, 0xff, 0xff, 0xff, 0xff, 0xff, 0xff, 0x01, 0x00, 0x00, 0x00, 
  0xd2, 0x7f, 0xdd, 0x3a, 0x61, 0x00, 0x00, 0x00, 0x73, 0x65, 0x71, 0x75, 
  0x65, 0x6e, 0x74, 0x69, 0x61, 0x6c, 0x5f, 0x31, 0x2f, 0x63, 0x6f, 0x6e, 
  0x76, 0x32, 0x64, 0x5f, 0x32, 0x5f, 0x31, 0x2f, 0x52, 0x65, 0x6c, 0x75, 
  0x3b, 0x73, 0x65, 0x71, 0x75, 0x65, 0x6e, 0x74, 0x69, 0x61, 0x6c, 0x5f, 
  0x31, 0x2f, 0x63, 0x6f, 0x6e, 0x76, 0x32, 0x64, 0x5f, 0x32, 0x5f, 0x31, 
  0x2f, 0x42, 0x69, 0x61, 0x73, 0x41, 0x64, 0x64, 0x3b, 0x73, 0x65, 0x71, 
  0x75, 0x65, 0x6e, 0x74, 0x69, 0x61, 0x6c, 0x5f, 0x31, 0x2f, 0x63, 0x6f, 
  0x6e, 0x76, 0x32, 0x64, 0x5f, 0x32, 0x5f, 0x31, 0x2f, 0x63, 0x6f, 0x6e, 
  0x76, 0x6f, 0x6c, 0x75, 0x74, 0x69, 0x6f, 0x6e, 0x3b, 0x00, 0x00, 0x00, 
  0x04, 0x00, 0x00, 0x00, 0x01, 0x00, 0x00, 0x00, 0x08, 0x00, 0x00, 0x00, 
  0x08, 0x00, 0x00, 0x00, 0x20, 0x00, 0x00, 0x00, 0xaa, 0xf4, 0xff, 0xff, 
  0x00, 0x00, 0x00, 0x01, 0x18, 0x00, 0x00, 0x00, 0x28, 0x00, 0x00, 0x00, 
  0x44, 0x00, 0x00, 0x00, 0x0e, 0x00, 0x00, 0x00, 0x00, 0x00, 0x00, 0x09, 
  0x68, 0x00, 0x00, 0x00, 0x04, 0x00, 0x00, 0x00, 0xff, 0xff, 0xff, 0xff, 
  0x0a, 0x00, 0x00, 0x00, 0x0a, 0x00, 0x00, 0x00, 0x10, 0x00, 0x00, 0x00, 
  0x94, 0xf4, 0xff, 0xff, 0x08, 0x00, 0x00, 0x00, 0x10, 0x00, 0x00, 0x00, 
  0x01, 0x00, 0x00, 0x00, 0x80, 0xff, 0xff, 0xff, 0xff, 0xff, 0xff, 0xff, 
  0x01, 0x00, 0x00, 0x00, 0x61, 0x09, 0xba, 0x39, 0x28, 0x00, 0x00, 0x00, 
  0x73, 0x65, 0x71, 0x75, 0x65, 0x6e, 0x74, 0x69, 0x61, 0x6c, 0x5f, 0x31, 
  0x2f, 0x6d, 0x61, 0x78, 0x5f, 0x70, 0x6f, 0x6f, 0x6c, 0x69, 0x6e, 0x67, 
  0x32, 0x64, 0x5f, 0x31, 0x5f, 0x32, 0x2f, 0x4d, 0x61, 0x78, 0x50, 0x6f, 
  0x6f, 0x6c, 0x32, 0x64, 0x00, 0x00, 0x00, 0x00, 0x04, 0x00, 0x00, 0x00, 
  0x01, 0x00, 0x00, 0x00, 0x0a, 0x00, 0x00, 0x00, 0x0a, 0x00, 0x00, 0x00, 
  0x10, 0x00, 0x00, 0x00, 0x42, 0xf5, 0xff, 0xff, 0x00, 0x00, 0x00, 0x01, 
  0x18, 0x00, 0x00, 0x00, 0x28, 0x00, 0x00, 0x00, 0x44, 0x00, 0x00, 0x00, 
  0x0d, 0x00, 0x00, 0x00, 0x00, 0x00, 0x00, 0x09, 0xa0, 0x00, 0x00, 0x00, 
  0x04, 0x00, 0x00, 0x00, 0xff, 0xff, 0xff, 0xff, 0x15, 0x00, 0x00, 0x00, 
  0x15, 0x00, 0x00, 0x00, 0x10, 0x00, 0x00, 0x00, 0x2c, 0xf5, 0xff, 0xff, 
  0x08, 0x00, 0x00, 0x00, 0x10, 0x00, 0x00, 0x00, 0x01, 0x00, 0x00, 0x00, 
  0x80, 0xff, 0xff, 0xff, 0xff, 0xff, 0xff, 0xff, 0x01, 0x00, 0x00, 0x00, 
  0x61, 0x09, 0xba, 0x39, 0x61, 0x00, 0x00, 0x00, 0x73, 0x65, 0x71, 0x75, 
  0x65, 0x6e, 0x74, 0x69, 0x61, 0x6c, 0x5f, 0x31, 0x2f, 0x63, 0x6f, 0x6e, 
  0x76, 0x32, 0x64, 0x5f, 0x31, 0x5f, 0x32, 0x2f, 0x52, 0x65, 0x6c, 0x75, 
  0x3b, 0x73, 0x65, 0x71, 0x75, 0x65, 0x6e, 0x74, 0x69, 0x61, 0x6c, 0x5f, 
  0x31, 0x2f, 0x63, 0x6f, 0x6e, 0x76, 0x32, 0x64, 0x5f, 0x31, 0x5f, 0x32, 
  0x2f, 0x42, 0x69, 0x61, 0x73, 0x41, 0x64, 0x64, 0x3b, 0x73, 0x65, 0x71, 
  0x75, 0x65, 0x6e, 0x74, 0x69, 0x61, 0x6c, 0x5f, 0x31, 0x2f, 0x63, 0x6f, 
  0x6e, 0x76, 0x32, 0x64, 0x5f, 0x31, 0x5f, 0x32, 0x2f, 0x63, 0x6f, 0x6e, 
  0x76, 0x6f, 0x6c, 0x75, 0x74, 0x69, 0x6f, 0x6e, 0x3b, 0x00, 0x00, 0x00, 
  0x04, 0x00, 0x00, 0x00, 0x01, 0x00, 0x00, 0x00, 0x15, 0x00, 0x00, 0x00, 
  0x15, 0x00, 0x00, 0x00, 0x10, 0x00, 0x00, 0x00, 0x12, 0xf6, 0xff, 0xff, 
  0x00, 0x00, 0x00, 0x01, 0x18, 0x00, 0x00, 0x00, 0x28, 0x00, 0x00, 0x00, 
  0x48, 0x00, 0x00, 0x00, 0x0c, 0x00, 0x00, 0x00, 0x00, 0x00, 0x00, 0x09, 
  0x68, 0x00, 0x00, 0x00, 0x04, 0x00, 0x00, 0x00, 0xff, 0xff, 0xff, 0xff, 
  0x17, 0x00, 0x00, 0x00, 0x17, 0x00, 0x00, 0x00, 0x08, 0x00, 0x00, 0x00, 
  0xfc, 0xf5, 0xff, 0xff, 0x08, 0x00, 0x00, 0x00, 0x14, 0x00, 0x00, 0x00, 
  0x01, 0x00, 0x00, 0x00, 0x80, 0xff, 0xff, 0xff, 0xff, 0xff, 0xff, 0xff, 
  0x00, 0x00, 0x00, 0x00, 0x01, 0x00, 0x00, 0x00, 0x1e, 0x6a, 0xf8, 0x38, 
  0x26, 0x00, 0x00, 0x00, 0x73, 0x65, 0x71, 0x75, 0x65, 0x6e, 0x74, 0x69, 
  0x61, 0x6c, 0x5f, 0x31, 0x2f, 0x6d, 0x61, 0x78, 0x5f, 0x70, 0x6f, 0x6f, 
  0x6c, 0x69, 0x6e, 0x67, 0x32, 0x64, 0x5f, 0x31, 0x2f, 0x4d, 0x61, 0x78, 
  0x50, 0x6f, 0x6f, 0x6c, 0x32, 0x64, 0x00, 0x00, 0x04, 0x00, 0x00, 0x00, 
  0x01, 0x00, 0x00, 0x00, 0x17, 0x00, 0x00, 0x00, 0x17, 0x00, 0x00, 0x00, 
  0x08, 0x00, 0x00, 0x00, 0xaa, 0xf6, 0xff, 0xff, 0x00, 0x00, 0x00, 0x01, 
  0x18, 0x00, 0x00, 0x00, 0x28, 0x00, 0x00, 0x00, 0x48, 0x00, 0x00, 0x00, 
  0x0b, 0x00, 0x00, 0x00, 0x00, 0x00, 0x00, 0x09, 0xa0, 0x00, 0x00, 0x00, 
  0x04, 0x00, 0x00, 0x00, 0xff, 0xff, 0xff, 0xff, 0x2e, 0x00, 0x00, 0x00, 
  0x2e, 0x00, 0x00, 0x00, 0x08, 0x00, 0x00, 0x00, 0x94, 0xf6, 0xff, 0xff, 
  0x08, 0x00, 0x00, 0x00, 0x14, 0x00, 0x00, 0x00, 0x01, 0x00, 0x00, 0x00, 
  0x80, 0xff, 0xff, 0xff, 0xff, 0xff, 0xff, 0xff, 0x00, 0x00, 0x00, 0x00, 
  0x01, 0x00, 0x00, 0x00, 0x1e, 0x6a, 0xf8, 0x38, 0x5c, 0x00, 0x00, 0x00, 
  0x73, 0x65, 0x71, 0x75, 0x65, 0x6e, 0x74, 0x69, 0x61, 0x6c, 0x5f, 0x31, 
  0x2f, 0x63, 0x6f, 0x6e, 0x76, 0x32, 0x64, 0x5f, 0x31, 0x2f, 0x52, 0x65, 
  0x6c, 0x75, 0x3b, 0x73, 0x65, 0x71, 0x75, 0x65, 0x6e, 0x74, 0x69, 0x61, 
  0x6c, 0x5f, 0x31, 0x2f, 0x63, 0x6f, 0x6e, 0x76, 0x32, 0x64, 0x5f, 0x31, 
  0x2f, 0x42, 0x69, 0x61, 0x73, 0x41, 0x64, 0x64, 0x3b, 0x73, 0x65, 0x71, 
  0x75, 0x65, 0x6e, 0x74, 0x69, 0x61, 0x6c, 0x5f, 0x31, 0x2f, 0x63, 0x6f, 
  0x6e, 0x76, 0x32, 0x64, 0x5f, 0x31, 0x2f, 0x63, 0x6f, 0x6e, 0x76, 0x6f, 
  0x6c, 0x75, 0x74, 0x69, 0x6f, 0x6e, 0x3b, 0x31, 0x00, 0x00, 0x00, 0x00, 
  0x04, 0x00, 0x00, 0x00, 0x01, 0x00, 0x00, 0x00, 0x2e, 0x00, 0x00, 0x00, 
  0x2e, 0x00, 0x00, 0x00, 0x08, 0x00, 0x00, 0x00, 0xd2, 0xf7, 0xff, 0xff, 
  0x00, 0x00, 0x00, 0x01, 0x14, 0x00, 0x00, 0x00, 0x88, 0x00, 0x00, 0x00, 
  0x0a, 0x00, 0x00, 0x00, 0x00, 0x00, 0x00, 0x09, 0x94, 0x00, 0x00, 0x00, 
  0x4c, 0xf7, 0xff, 0xff, 0x08, 0x00, 0x00, 0x00, 0x4c, 0x00, 0x00, 0x00, 
  0x08, 0x00, 0x00, 0x00, 0x00, 0x00, 0x00, 0x00, 0x00, 0x00, 0x00, 0x00, 
  0x00, 0x00, 0x00, 0x00, 0x00, 0x00, 0x00, 0x00, 0x00, 0x00, 0x00, 0x00, 
  0x00, 0x00, 0x00, 0x00, 0x00, 0x00, 0x00, 0x00, 0x00, 0x00, 0x00, 0x00, 
  0x00, 0x00, 0x00, 0x00, 0x00, 0x00, 0x00, 0x00, 0x00, 0x00, 0x00, 0x00, 
  0x00, 0x00, 0x00, 0x00, 0x00, 0x00, 0x00, 0x00, 0x00, 0x00, 0x00, 0x00, 
  0x00, 0x00, 0x00, 0x00, 0x00, 0x00, 0x00, 0x00, 0x00, 0x00, 0x00, 0x00, 
  0x08, 0x00, 0x00, 0x00, 0xd1, 0xde, 0xc3, 0x36, 0xde, 0x62, 0x18, 0x37, 
  0x06, 0x76, 0x0a, 0x37, 0x5f, 0x28, 0x06, 0x37, 0x56, 0xc4, 0xcd, 0x36, 
  0x54, 0xca, 0x01, 0x37, 0x53, 0xac, 0xeb, 0x36, 0xcb, 0x51, 0x10, 0x37, 
  0x12, 0x00, 0x00, 0x00, 0x74, 0x66, 0x6c, 0x2e, 0x70, 0x73, 0x65, 0x75, 
  0x64, 0x6f, 0x5f, 0x71, 0x63, 0x6f, 0x6e, 0x73, 0x74, 0x37, 0x00, 0x00, 
  0x04, 0x00, 0x00, 0x00, 0x08, 0x00, 0x00, 0x00, 0x03, 0x00, 0x00, 0x00, 
  0x03, 0x00, 0x00, 0x00, 0x01, 0x00, 0x00, 0x00, 0x92, 0xf8, 0xff, 0xff, 
  0x00, 0x00, 0x00, 0x01, 0x14, 0x00, 0x00, 0x00, 0x84, 0x00, 0x00, 0x00, 
  0x09, 0x00, 0x00, 0x00, 0x00, 0x00, 0x00, 0x02, 0x90, 0x00, 0x00, 0x00, 
  0x0c, 0xf8, 0xff, 0xff, 0x08, 0x00, 0x00, 0x00, 0x48, 0x00, 0x00, 0x00, 
  0x08, 0x00, 0x00, 0x00, 0x00, 0x00, 0x00, 0x00, 0x00, 0x00, 0x00, 0x00, 
  0x00, 0x00, 0x00, 0x00, 0x00, 0x00, 0x00, 0x00, 0x00, 0x00, 0x00, 0x00, 
  0x00, 0x00, 0x00, 0x00, 0x00, 0x00, 0x00, 0x00, 0x00, 0x00, 0x00, 0x00, 
  0x00, 0x00, 0x00, 0x00, 0x00, 0x00, 0x00, 0x00, 0x00, 0x00, 0x00, 0x00, 
  0x00, 0x00, 0x00, 0x00, 0x00, 0x00, 0x00, 0x00, 0x00, 0x00, 0x00, 0x00, 
  0x00, 0x00, 0x00, 0x00, 0x00, 0x00, 0x00, 0x00, 0x08, 0x00, 0x00, 0x00, 
  0x3a, 0x53, 0xc2, 0x32, 0x1a, 0x2f, 0x17, 0x33, 0x61, 0x5e, 0x09, 0x33, 
  0x6b, 0x19, 0x05, 0x33, 0xc2, 0x24, 0xcc, 0x32, 0x32, 0xc4, 0x00, 0x33, 
  0x59, 0xd0, 0xe9, 0x32, 0x51, 0x2e, 0x0f, 0x33, 0x12, 0x00, 0x00, 0x00, 
  0x74, 0x66, 0x6c, 0x2e, 0x70, 0x73, 0x65, 0x75, 0x64, 0x6f, 0x5f, 0x71, 
  0x63, 0x6f, 0x6e, 0x73, 0x74, 0x36, 0x00, 0x00, 0x01, 0x00, 0x00, 0x00, 
  0x08, 0x00, 0x00, 0x00, 0x42, 0xf9, 0xff, 0xff, 0x00, 0x00, 0x00, 0x01, 
  0x14, 0x00, 0x00, 0x00, 0xe8, 0x00, 0x00, 0x00, 0x08, 0x00, 0x00, 0x00, 
  0x00, 0x00, 0x00, 0x09, 0xf4, 0x00, 0x00, 0x00, 0xbc, 0xf8, 0xff, 0xff, 
  0x08, 0x00, 0x00, 0x00, 0x8c, 0x00, 0x00, 0x00, 0x10, 0x00, 0x00, 0x00, 
  0x00, 0x00, 0x00, 0x00, 0x00, 0x00, 0x00, 0x00, 0x00, 0x00, 0x00, 0x00, 
  0x00, 0x00, 0x00, 0x00, 0x00, 0x00, 0x00, 0x00, 0x00, 0x00, 0x00, 0x00, 
  0x00, 0x00, 0x00, 0x00, 0x00, 0x00, 0x00, 0x00, 0x00, 0x00, 0x00, 0x00, 
  0x00, 0x00, 0x00, 0x00, 0x00, 0x00, 0x00, 0x00, 0x00, 0x00, 0x00, 0x00, 
  0x00, 0x00, 0x00, 0x00, 0x00, 0x00, 0x00, 0x00, 0x00, 0x00, 0x00, 0x00, 
  0x00, 0x00, 0x00, 0x00, 0x00, 0x00, 0x00, 0x00, 0x00, 0x00, 0x00, 0x00, 
  0x00, 0x00, 0x00, 0x00, 0x00, 0x00, 0x00, 0x00, 0x00, 0x00, 0x00, 0x00, 
  0x00, 0x00, 0x00, 0x00, 0x00, 0x00, 0x00, 0x00, 0x00, 0x00, 0x00, 0x00, 
  0x00, 0x00, 0x00, 0x00, 0x00, 0x00, 0x00, 0x00, 0x00, 0x00, 0x00, 0x00, 
  0x00, 0x00, 0x00, 0x00, 0x00, 0x00, 0x00, 0x00, 0x00, 0x00, 0x00, 0x00, 
  0x00, 0x00, 0x00, 0x00, 0x00, 0x00, 0x00, 0x00, 0x00, 0x00, 0x00, 0x00, 
  0x10, 0x00, 0x00, 0x00, 0xca, 0xb8, 0x13, 0x3b, 0x5c, 0x35, 0xe2, 0x3a, 
  0x82, 0xe8, 0x24, 0x3b, 0xd6, 0x6d, 0x21, 0x3b, 0x6c, 0x2e, 0x1d, 0x3b, 
  0xea, 0xba, 0x1b, 0x3b, 0x99, 0x7b, 0xae, 0x3a, 0xde, 0x9b, 0xf1, 0x3a, 
  0x51, 0xc6, 0x14, 0x3b, 0x82, 0x97, 0xe6, 0x3a, 0xab, 0xb1, 0xe4, 0x3a, 
  0x06, 0xee, 0x19, 0x3b, 0xdf, 0x68, 0x24, 0x3b, 0x79, 0x22, 0xff, 0x3a, 
  0x24, 0xc9, 0x1e, 0x3b, 0x1d, 0x9b, 0xda, 0x3a, 0x12, 0x00, 0x00, 0x00, 
  0x74, 0x66, 0x6c, 0x2e, 0x70, 0x73, 0x65, 0x75, 0x64, 0x6f, 0x5f, 0x71, 
  0x63, 0x6f, 0x6e, 0x73, 0x74, 0x35, 0x00, 0x00, 0x04, 0x00, 0x00, 0x00, 
  0x10, 0x00, 0x00, 0x00, 0x03, 0x00, 0x00, 0x00, 0x03, 0x00, 0x00, 0x00, 
  0x08, 0x00, 0x00, 0x00, 0x62, 0xfa, 0xff, 0xff, 0x00, 0x00, 0x00, 0x01, 
  0x14, 0x00, 0x00, 0x00, 0xe4, 0x00, 0x00, 0x00, 0x07, 0x00, 0x00, 0x00, 
  0x00, 0x00, 0x00, 0x02, 0xf0, 0x00, 0x00, 0x00, 0xdc, 0xf9, 0xff, 0xff, 
  0x08, 0x00, 0x00, 0x00, 0x88, 0x00, 0x00, 0x00, 0x10, 0x00, 0x00, 0x00, 
  0x00, 0x00, 0x00, 0x00, 0x00, 0x00, 0x00, 0x00, 0x00, 0x00, 0x00, 0x00, 
  0x00, 0x00, 0x00, 0x00, 0x00, 0x00, 0x00, 0x00, 0x00, 0x00, 0x00, 0x00, 
  0x00, 0x00, 0x00, 0x00, 0x00, 0x00, 0x00, 0x00, 0x00, 0x00, 0x00, 0x00, 
  0x00, 0x00, 0x00, 0x00, 0x00, 0x00, 0x00, 0x00, 0x00, 0x00, 0x00, 0x00, 
  0x00, 0x00, 0x00, 0x00, 0x00, 0x00, 0x00, 0x00, 0x00, 0x00, 0x00, 0x00, 
  0x00, 0x00, 0x00, 0x00, 0x00, 0x00, 0x00, 0x00, 0x00, 0x00, 0x00, 0x00, 
  0x00, 0x00, 0x00, 0x00, 0x00, 0x00, 0x00, 0x00, 0x00, 0x00, 0x00, 0x00, 
  0x00, 0x00, 0x00, 0x00, 0x00, 0x00, 0x00, 0x00, 0x00, 0x00, 0x00, 0x00, 
  0x00, 0x00, 0x00, 0x00, 0x00, 0x00, 0x00, 0x00, 0x00, 0x00, 0x00, 0x00, 
  0x00, 0x00, 0x00, 0x00, 0x00, 0x00, 0x00, 0x00, 0x00, 0x00, 0x00, 0x00, 
  0x00, 0x00, 0x00, 0x00, 0x00, 0x00, 0x00, 0x00, 0x10, 0x00, 0x00, 0x00, 
  0x40, 0x58, 0x8f, 0x34, 0x76, 0x81, 0x5b, 0x34, 0x9a, 0x05, 0xa0, 0x34, 
  0x52, 0xa5, 0x9c, 0x34, 0x20, 0x86, 0x98, 0x34, 0xa0, 0x1d, 0x97, 0x34, 
  0x10, 0x50, 0x29, 0x34, 0x26, 0x73, 0x6a, 0x34, 0xca, 0x5d, 0x90, 0x34, 
  0x5c, 0xc2, 0x5f, 0x34, 0xea, 0xea, 0x5d, 0x34, 0x64, 0x5e, 0x95, 0x34, 
  0xbf, 0x89, 0x9f, 0x34, 0x27, 0x93, 0x77, 0x34, 0xad, 0x14, 0x9a, 0x34, 
  0xe2, 0x20, 0x54, 0x34, 0x12, 0x00, 0x00, 0x00, 0x74, 0x66, 0x6c, 0x2e, 
  0x70, 0x73, 0x65, 0x75, 0x64, 0x6f, 0x5f, 0x71, 0x63, 0x6f, 0x6e, 0x73, 
  0x74, 0x34, 0x00, 0x00, 0x01, 0x00, 0x00, 0x00, 0x10, 0x00, 0x00, 0x00, 
  0x72, 0xfb, 0xff, 0xff, 0x00, 0x00, 0x00, 0x01, 0x14, 0x00, 0x00, 0x00, 
  0xa8, 0x01, 0x00, 0x00, 0x06, 0x00, 0x00, 0x00, 0x00, 0x00, 0x00, 0x09, 
  0xb4, 0x01, 0x00, 0x00, 0xec, 0xfa, 0xff, 0xff, 0x08, 0x00, 0x00, 0x00, 
  0x0c, 0x01, 0x00, 0x00, 0x20, 0x00, 0x00, 0x00, 0x00, 0x00, 0x00, 0x00, 
  0x00, 0x00, 0x00, 0x00, 0x00, 0x00, 0x00, 0x00, 0x00, 0x00, 0x00, 0x00, 
  0x00, 0x00, 0x00, 0x00, 0x00, 0x00, 0x00, 0x00, 0x00, 0x00, 0x00, 0x00, 
  0x00, 0x00, 0x00, 0x00, 0x00, 0x00, 0x00, 0x00, 0x00, 0x00, 0x00, 0x00, 
  0x00, 0x00, 0x00, 0x00, 0x00, 0x00, 0x00, 0x00, 0x00, 0x00, 0x00, 0x00, 
  0x00, 0x00, 0x00, 0x00, 0x00, 0x00, 0x00, 0x00, 0x00, 0x00, 0x00, 0x00, 
  0x00, 0x00, 0x00, 0x00, 0x00, 0x00, 0x00, 0x00, 0x00, 0x00, 0x00, 0x00, 
  0x00, 0x00, 0x00, 0x00, 0x00, 0x00, 0x00, 0x00, 0x00, 0x00, 0x00, 0x00, 
  0x00, 0x00, 0x00, 0x00, 0x00, 0x00, 0x00, 0x00, 0x00, 0x00, 0x00, 0x00, 
  0x00, 0x00, 0x00, 0x00, 0x00, 0x00, 0x00, 0x00, 0x00, 0x00, 0x00, 0x00, 
  0x00, 0x00, 0x00, 0x00, 0x00, 0x00, 0x00, 0x00, 0x00, 0x00, 0x00, 0x00, 
  0x00, 0x00, 0x00, 0x00, 0x00, 0x00, 0x00, 0x00, 0x00, 0x00, 0x00, 0x00, 
  0x00, 0x00, 0x00, 0x00, 0x00, 0x00, 0x00, 0x00, 0x00, 0x00, 0x00, 0x00, 
  0x00, 0x00, 0x00, 0x00, 0x00, 0x00, 0x00, 0x00, 0x00, 0x00, 0x00, 0x00, 
  0x00, 0x00, 0x00, 0x00, 0x00, 0x00, 0x00, 0x00, 0x00, 0x00, 0x00, 0x00, 
  0x00, 0x00, 0x00, 0x00, 0x00, 0x00, 0x00, 0x00, 0x00, 0x00, 0x00, 0x00, 
  0x00, 0x00, 0x00, 0x00, 0x00, 0x00, 0x00, 0x00, 0x00, 0x00, 0x00, 0x00, 
  0x00, 0x00, 0x00, 0x00, 0x00, 0x00, 0x00, 0x00, 0x00, 0x00, 0x00, 0x00, 
  0x00, 0x00, 0x00, 0x00, 0x00, 0x00, 0x00, 0x00, 0x00, 0x00, 0x00, 0x00, 
  0x00, 0x00, 0x00, 0x00, 0x00, 0x00, 0x00, 0x00, 0x00, 0x00, 0x00, 0x00, 
  0x00, 0x00, 0x00, 0x00, 0x00, 0x00, 0x00, 0x00, 0x00, 0x00, 0x00, 0x00, 
  0x00, 0x00, 0x00, 0x00, 0x00, 0x00, 0x00, 0x00, 0x00, 0x00, 0x00, 0x00, 
  0x00, 0x00, 0x00, 0x00, 0x20, 0x00, 0x00, 0x00, 0xf2, 0x7b, 0x00, 0x3b, 
  0x47, 0x4f, 0x03, 0x3b, 0x22, 0x08, 0x96, 0x3a, 0xa2, 0x0c, 0xfe, 0x3a, 
  0xd2, 0x94, 0x01, 0x3b, 0x1e, 0x80, 0xf2, 0x3a, 0x1b, 0x96, 0xec, 0x3a, 
  0xe3, 0x79, 0xf2, 0x3a, 0x96, 0xb4, 0xf7, 0x3a, 0x4e, 0xf1, 0xf3, 0x3a, 
  0xa8, 0xb0, 0xef, 0x3a, 0x12, 0x5d, 0xf0, 0x3a, 0x03, 0x84, 0x06, 0x3b, 
  0x0f, 0x0b, 0x73, 0x3a, 0xf9, 0x0f, 0x01, 0x3b, 0xbc, 0x33, 0x04, 0x3b, 
  0x0c, 0x45, 0xfa, 0x3a, 0xaf, 0x0f, 0x04, 0x3b, 0xd7, 0x23, 0xf6, 0x3a, 
  0x0e, 0x85, 0xf8, 0x3a, 0xea, 0x08, 0xf2, 0x3a, 0xd3, 0xcd, 0xe7, 0x3a, 
  0x75, 0xfd, 0x08, 0x3b, 0xc1, 0x38, 0xf6, 0x3a, 0x44, 0x44, 0xf6, 0x3a, 
  0x46, 0xe4, 0x12, 0x3b, 0xda, 0x49, 0xf2, 0x3a, 0x96, 0x19, 0xef, 0x3a, 
  0x8c, 0x10, 0xea, 0x3a, 0xdd, 0x1a, 0xf3, 0x3a, 0xcb, 0xa1, 0x7d, 0x3a, 
  0xc6, 0x52, 0x71, 0x3a, 0x12, 0x00, 0x00, 0x00, 0x74, 0x66, 0x6c, 0x2e, 
  0x70, 0x73, 0x65, 0x75, 0x64, 0x6f, 0x5f, 0x71, 0x63, 0x6f, 0x6e, 0x73, 
  0x74, 0x33, 0x00, 0x00, 0x04, 0x00, 0x00, 0x00, 0x20, 0x00, 0x00, 0x00, 
  0x03, 0x00, 0x00, 0x00, 0x03, 0x00, 0x00, 0x00, 0x10, 0x00, 0x00, 0x00, 
  0x52, 0xfd, 0xff, 0xff, 0x00, 0x00, 0x00, 0x01, 0x14, 0x00, 0x00, 0x00, 
  0xa4, 0x01, 0x00, 0x00, 0x05, 0x00, 0x00, 0x00, 0x00, 0x00, 0x00, 0x02, 
  0xb0, 0x01, 0x00, 0x00, 0xcc, 0xfc, 0xff, 0xff, 0x08, 0x00, 0x00, 0x00, 
  0x08, 0x01, 0x00, 0x00, 0x20, 0x00, 0x00, 0x00, 0x00, 0x00, 0x00, 0x00, 
  0x00, 0x00, 0x00, 0x00, 0x00, 0x00, 0x00, 0x00, 0x00, 0x00, 0x00, 0x00, 
  0x00, 0x00, 0x00, 0x00, 0x00, 0x00, 0x00, 0x00, 0x00, 0x00, 0x00, 0x00, 
  0x00, 0x00, 0x00, 0x00, 0x00, 0x00, 0x00, 0x00, 0x00, 0x00, 0x00, 0x00, 
  0x00, 0x00, 0x00, 0x00, 0x00, 0x00, 0x00, 0x00, 0x00, 0x00, 0x00, 0x00, 
  0x00, 0x00, 0x00, 0x00, 0x00, 0x00, 0x00, 0x00, 0x00, 0x00, 0x00, 0x00, 
  0x00, 0x00, 0x00, 0x00, 0x00, 0x00, 0x00, 0x00, 0x00, 0x00, 0x00, 0x00, 
  0x00, 0x00, 0x00, 0x00, 0x00, 0x00, 0x00, 0x00, 0x00, 0x00, 0x00, 0x00, 
  0x00, 0x00, 0x00, 0x00, 0x00, 0x00, 0x00, 0x00, 0x00, 0x00, 0x00, 0x00, 
  0x00, 0x00, 0x00, 0x00, 0x00, 0x00, 0x00, 0x00, 0x00, 0x00, 0x00, 0x00, 
  0x00, 0x00, 0x00, 0x00, 0x00, 0x00, 0x00, 0x00, 0x00, 0x00, 0x00, 0x00, 
  0x00, 0x00, 0x00, 0x00, 0x00, 0x00, 0x00, 0x00, 0x00, 0x00, 0x00, 0x00, 
  0x00, 0x00, 0x00, 0x00, 0x00, 0x00, 0x00, 0x00, 0x00, 0x00, 0x00, 0x00, 
  0x00, 0x00, 0x00, 0x00, 0x00, 0x00, 0x00, 0x00, 0x00, 0x00, 0x00, 0x00, 
  0x00, 0x00, 0x00, 0x00, 0x00, 0x00, 0x00, 0x00, 0x00, 0x00, 0x00, 0x00, 
  0x00, 0x00, 0x00, 0x00, 0x00, 0x00, 0x00, 0x00, 0x00, 0x00, 0x00, 0x00, 
  0x00, 0x00, 0x00, 0x00, 0x00, 0x00, 0x00, 0x00, 0x00, 0x00, 0x00, 0x00, 
  0x00, 0x00, 0x00, 0x00, 0x00, 0x00, 0x00, 0x00, 0x00, 0x00, 0x00, 0x00, 
  0x00, 0x00, 0x00, 0x00, 0x00, 0x00, 0x00, 0x00, 0x00, 0x00, 0x00, 0x00, 
  0x00, 0x00, 0x00, 0x00, 0x00, 0x00, 0x00, 0x00, 0x00, 0x00, 0x00, 0x00, 
  0x00, 0x00, 0x00, 0x00, 0x00, 0x00, 0x00, 0x00, 0x00, 0x00, 0x00, 0x00, 
  0x00, 0x00, 0x00, 0x00, 0x00, 0x00, 0x00, 0x00, 0x00, 0x00, 0x00, 0x00, 
  0x20, 0x00, 0x00, 0x00, 0x86, 0xbd, 0x3a, 0x35, 0xd2, 0xd8, 0x3e, 0x35, 
  0xd0, 0x0e, 0xda, 0x34, 0x7c, 0x9e, 0x38, 0x35, 0xc0, 0x55, 0x3c, 0x35, 
  0xf8, 0x39, 0x30, 0x35, 0xbb, 0xed, 0x2b, 0x35, 0x71, 0x35, 0x30, 0x35, 
  0x48, 0x02, 0x34, 0x35, 0x43, 0x46, 0x31, 0x35, 0x22, 0x2f, 0x2e, 0x35, 
  0x6d, 0xac, 0x2e, 0x35, 0xb0, 0x81, 0x43, 0x35, 0xf0, 0x9e, 0xb0, 0x34, 
  0xab, 0x94, 0x3b, 0x35, 0xdd, 0x24, 0x40, 0x35, 0x56, 0xdf, 0x35, 0x35, 
  0x77, 0xf0, 0x3f, 0x35, 0x0f, 0xdf, 0x32, 0x35, 0xc7, 0x99, 0x34, 0x35, 
  0x58, 0xe3, 0x2f, 0x35, 0x09, 0x74, 0x28, 0x35, 0x58, 0x1a, 0x47, 0x35, 
  0x42, 0xee, 0x32, 0x35, 0x9f, 0xf6, 0x32, 0x35, 0x79, 0x7e, 0x55, 0x35, 
  0x89, 0x12, 0x30, 0x35, 0x59, 0xc1, 0x2d, 0x35, 0x99, 0x18, 0x2a, 0x35, 
  0x6d, 0xaa, 0x30, 0x35, 0xd8, 0x50, 0xb8, 0x34, 0xfb, 0x5e, 0xaf, 0x34, 
  0x12, 0x00, 0x00, 0x00, 0x74, 0x66, 0x6c, 0x2e, 0x70, 0x73, 0x65, 0x75, 
  0x64, 0x6f, 0x5f, 0x71, 0x63, 0x6f, 0x6e, 0x73, 0x74, 0x32, 0x00, 0x00, 
  0x01, 0x00, 0x00, 0x00, 0x20, 0x00, 0x00, 0x00, 0x22, 0xff, 0xff, 0xff, 
  0x00, 0x00, 0x00, 0x01, 0x14, 0x00, 0x00, 0x00, 0x40, 0x00, 0x00, 0x00, 
  0x04, 0x00, 0x00, 0x00, 0x00, 0x00, 0x00, 0x09, 0x4c, 0x00, 0x00, 0x00, 
  0x9c, 0xfe, 0xff, 0xff, 0x08, 0x00, 0x00, 0x00, 0x1c, 0x00, 0x00, 0x00, 
  0x02, 0x00, 0x00, 0x00, 0x00, 0x00, 0x00, 0x00, 0x00, 0x00, 0x00, 0x00, 
  0x00, 0x00, 0x00, 0x00, 0x00, 0x00, 0x00, 0x00, 0x00, 0x00, 0x00, 0x00, 
  0x02, 0x00, 0x00, 0x00, 0xb6, 0xc5, 0x87, 0x3b, 0x0d, 0xf6, 0x8b, 0x3b, 
  0x12, 0x00, 0x00, 0x00, 0x74, 0x66, 0x6c, 0x2e, 0x70, 0x73, 0x65, 0x75, 
  0x64, 0x6f, 0x5f, 0x71, 0x63, 0x6f, 0x6e, 0x73, 0x74, 0x31, 0x00, 0x00, 
  0x02, 0x00, 0x00, 0x00, 0x02, 0x00, 0x00, 0x00, 0x20, 0x00, 0x00, 0x00, 
  0x92, 0xff, 0xff, 0xff, 0x00, 0x00, 0x00, 0x01, 0x14, 0x00, 0x00, 0x00, 
  0x40, 0x00, 0x00, 0x00, 0x03, 0x00, 0x00, 0x00, 0x00, 0x00, 0x00, 0x02, 
  0x4c, 0x00, 0x00, 0x00, 0x0c, 0xff, 0xff, 0xff, 0x08, 0x00, 0x00, 0x00, 
  0x1c, 0x00, 0x00, 0x00, 0x02, 0x00, 0x00, 0x00, 0x00, 0x00, 0x00, 0x00, 
  0x00, 0x00, 0x00, 0x00, 0x00, 0x00, 0x00, 0x00, 0x00, 0x00, 0x00, 0x00, 
  0x00, 0x00, 0x00, 0x00, 0x02, 0x00, 0x00, 0x00, 0x4c, 0x52, 0xea, 0x36, 
  0xfc, 0x8c, 0xf1, 0x36, 0x11, 0x00, 0x00, 0x00, 0x74, 0x66, 0x6c, 0x2e, 
  0x70, 0x73, 0x65, 0x75, 0x64, 0x6f, 0x5f, 0x71, 0x63, 0x6f, 0x6e, 0x73, 
  0x74, 0x00, 0x00, 0x00, 0x01, 0x00, 0x00, 0x00, 0x02, 0x00, 0x00, 0x00, 
  0x00, 0x00, 0x16, 0x00, 0x1c, 0x00, 0x18, 0x00, 0x17, 0x00, 0x10, 0x00, 
  0x0c, 0x00, 0x08, 0x00, 0x00, 0x00, 0x00, 0x00, 0x00, 0x00, 0x07, 0x00, 
  0x16, 0x00, 0x00, 0x00, 0x00, 0x00, 0x00, 0x01, 0x18, 0x00, 0x00, 0x00, 
  0x18, 0x00, 0x00, 0x00, 0x02, 0x00, 0x00, 0x00, 0x00, 0x00, 0x00, 0x02, 
  0x20, 0x00, 0x00, 0x00, 0x04, 0x00, 0x04, 0x00, 0x04, 0x00, 0x00, 0x00, 
  0x0e, 0x00, 0x00, 0x00, 0x61, 0x72, 0x69, 0x74, 0x68, 0x2e, 0x63, 0x6f, 
  0x6e, 0x73, 0x74, 0x61, 0x6e, 0x74, 0x00, 0x00, 0x01, 0x00, 0x00, 0x00, 
  0x02, 0x00, 0x00, 0x00, 0x00, 0x00, 0x16, 0x00, 0x20, 0x00, 0x1c, 0x00, 
  0x1b, 0x00, 0x14, 0x00, 0x10, 0x00, 0x0c, 0x00, 0x00, 0x00, 0x00, 0x00, 
  0x08, 0x00, 0x07, 0x00, 0x16, 0x00, 0x00, 0x00, 0x00, 0x00, 0x00, 0x01, 
  0x18, 0x00, 0x00, 0x00, 0x34, 0x00, 0x00, 0x00, 0x50, 0x00, 0x00, 0x00, 
  0x01, 0x00, 0x00, 0x00, 0x00, 0x00, 0x00, 0x09, 0x68, 0x00, 0x00, 0x00, 
  0x04, 0x00, 0x00, 0x00, 0xff, 0xff, 0xff, 0xff, 0x30, 0x00, 0x00, 0x00, 
  0x30, 0x00, 0x00, 0x00, 0x01, 0x00, 0x00, 0x00, 0x0c, 0x00, 0x0c, 0x00, 
  0x00, 0x00, 0x00, 0x00, 0x08, 0x00, 0x04, 0x00, 0x0c, 0x00, 0x00, 0x00, 
  0x08, 0x00, 0x00, 0x00, 0x10, 0x00, 0x00, 0x00, 0x01, 0x00, 0x00, 0x00, 
  0x80, 0xff, 0xff, 0xff, 0xff, 0xff, 0xff, 0xff, 0x01, 0x00, 0x00, 0x00, 
  0xf8, 0xfa, 0x7d, 0x3b, 0x1e, 0x00, 0x00, 0x00, 0x73, 0x65, 0x72, 0x76, 
  0x69, 0x6e, 0x67, 0x5f, 0x64, 0x65, 0x66, 0x61, 0x75, 0x6c, 0x74, 0x5f, 
  0x6b, 0x65, 0x72, 0x61, 0x73, 0x5f, 0x74, 0x65, 0x6e, 0x73, 0x6f, 0x72, 
  0x3a, 0x30, 0x00, 0x00, 0x04, 0x00, 0x00, 0x00, 0x01, 0x00, 0x00, 0x00, 
  0x30, 0x00, 0x00, 0x00, 0x30, 0x00, 0x00, 0x00, 0x01, 0x00, 0x00, 0x00, 
  0x06, 0x00, 0x00, 0x00, 0x74, 0x00, 0x00, 0x00, 0x54, 0x00, 0x00, 0x00, 
  0x40, 0x00, 0x00, 0x00, 0x2c, 0x00, 0x00, 0x00, 0x18, 0x00, 0x00, 0x00, 
  0x04, 0x00, 0x00, 0x00, 0xb0, 0xff, 0xff, 0xff, 0x06, 0x00, 0x00, 0x00, 
  0x02, 0x00, 0x00, 0x00, 0x00, 0x00, 0x00, 0x06, 0xc0, 0xff, 0xff, 0xff, 
  0x19, 0x00, 0x00, 0x00, 0x02, 0x00, 0x00, 0x00, 0x00, 0x00, 0x00, 0x19, 
  0xd0, 0xff, 0xff, 0xff, 0x09, 0x00, 0x00, 0x00, 0x04, 0x00, 0x00, 0x00, 
  0x00, 0x00, 0x00, 0x09, 0xe0, 0xff, 0xff, 0xff, 0x28, 0x00, 0x00, 0x00, 
  0x02, 0x00, 0x00, 0x00, 0x00, 0x00, 0x00, 0x28, 0xf0, 0xff, 0xff, 0xff, 
  0x11, 0x00, 0x00, 0x00, 0x02, 0x00, 0x00, 0x00, 0x00, 0x00, 0x00, 0x11, 
  0x0c, 0x00, 0x10, 0x00, 0x0f, 0x00, 0x00, 0x00, 0x08, 0x00, 0x04, 0x00, 
  0x0c, 0x00, 0x00, 0x00, 0x03, 0x00, 0x00, 0x00, 0x03, 0x00, 0x00, 0x00, 
  0x00, 0x00, 0x00, 0x03, 
};