const unsigned char model[] = {
  0x1c, 0x00, 0x00, 0x00, 0x54, 0x46, 0x4c, 0x33, 0x14, 0x00, 0x20, 0x00, 
  0x1c, 0x00, 0x18, 0x00, 0x14, 0x00, 0x10, 0x00, 0x0c, 0x00, 0x00, 0x00, 
  0x08, 0x00, 0x04, 0x00, 0x14, 0x00, 0x00, 0x00, 0x1c, 0x00, 0x00, 0x00, 
  0x98, 0x00, 0x00, 0x00, 0xf0, 0x00, 0x00, 0x00, 0x70, 0x5f, 0x00, 0x00, 
  0x80, 0x5f, 0x00, 0x00, 0xdc, 0x69, 0x00, 0x00, 0x03, 0x00, 0x00, 0x00, 
  0x01, 0x00, 0x00, 0x00, 0x10, 0x00, 0x00, 0x00, 0x00, 0x00, 0x0a, 0x00, 
  0x10, 0x00, 0x0c, 0x00, 0x08, 0x00, 0x04, 0x00, 0x0a, 0x00, 0x00, 0x00, 
  0x0c, 0x00, 0x00, 0x00, 0x1c, 0x00, 0x00, 0x00, 0x3c, 0x00, 0x00, 0x00, 
  0x0f, 0x00, 0x00, 0x00, 0x73, 0x65, 0x72, 0x76, 0x69, 0x6e, 0x67, 0x5f, 
  0x64, 0x65, 0x66, 0x61, 0x75, 0x6c, 0x74, 0x00, 0x01, 0x00, 0x00, 0x00, 
  0x04, 0x00, 0x00, 0x00, 0x90, 0xff, 0xff, 0xff, 0x11, 0x00, 0x00, 0x00, 
  0x04, 0x00, 0x00, 0x00, 0x08, 0x00, 0x00, 0x00, 0x6f, 0x75, 0x74, 0x70, 
  0x75, 0x74, 0x5f, 0x30, 0x00, 0x00, 0x00, 0x00, 0x01, 0x00, 0x00, 0x00, 
  0x04, 0x00, 0x00, 0x00, 0x76, 0xa0, 0xff, 0xff, 0x04, 0x00, 0x00, 0x00, 
  0x0c, 0x00, 0x00, 0x00, 0x6b, 0x65, 0x72, 0x61, 0x73, 0x5f, 0x74, 0x65, 
  0x6e, 0x73, 0x6f, 0x72, 0x00, 0x00, 0x00, 0x00, 0x02, 0x00, 0x00, 0x00, 
  0x34, 0x00, 0x00, 0x00, 0x04, 0x00, 0x00, 0x00, 0xdc, 0xff, 0xff, 0xff, 
  0x14, 0x00, 0x00, 0x00, 0x04, 0x00, 0x00, 0x00, 0x13, 0x00, 0x00, 0x00, 
  0x43, 0x4f, 0x4e, 0x56, 0x45, 0x52, 0x53, 0x49, 0x4f, 0x4e, 0x5f, 0x4d, 
  0x45, 0x54, 0x41, 0x44, 0x41, 0x54, 0x41, 0x00, 0x08, 0x00, 0x0c, 0x00, 
  0x08, 0x00, 0x04, 0x00, 0x08, 0x00, 0x00, 0x00, 0x13, 0x00, 0x00, 0x00, 
  0x04, 0x00, 0x00, 0x00, 0x13, 0x00, 0x00, 0x00, 0x6d, 0x69, 0x6e, 0x5f, 
  0x72, 0x75, 0x6e, 0x74, 0x69, 0x6d, 0x65, 0x5f, 0x76, 0x65, 0x72, 0x73, 
  0x69, 0x6f, 0x6e, 0x00, 0x15, 0x00, 0x00, 0x00, 0x7c, 0x5e, 0x00, 0x00, 
  0x74, 0x5e, 0x00, 0x00, 0xe4, 0x5d, 0x00, 0x00, 0x94, 0x5d, 0x00, 0x00, 
  0x64, 0x5d, 0x00, 0x00, 0x4c, 0x5d, 0x00, 0x00, 0x3c, 0x15, 0x00, 0x00, 
  0x2c, 0x03, 0x00, 0x00, 0x1c, 0x02, 0x00, 0x00, 0x04, 0x02, 0x00, 0x00, 
  0xd4, 0x00, 0x00, 0x00, 0xcc, 0x00, 0x00, 0x00, 0xc4, 0x00, 0x00, 0x00, 
  0xbc, 0x00, 0x00, 0x00, 0xb4, 0x00, 0x00, 0x00, 0xac, 0x00, 0x00, 0x00, 
  0xa4, 0x00, 0x00, 0x00, 0x9c, 0x00, 0x00, 0x00, 0x94, 0x00, 0x00, 0x00, 
  0x74, 0x00, 0x00, 0x00, 0x04, 0x00, 0x00, 0x00, 0x46, 0xa1, 0xff, 0xff, 
  0x04, 0x00, 0x00, 0x00, 0x60, 0x00, 0x00, 0x00, 0x10, 0x00, 0x00, 0x00, 
  0x00, 0x00, 0x00, 0x00, 0x08, 0x00, 0x0e, 0x00, 0x08, 0x00, 0x04, 0x00, 
  0x08, 0x00, 0x00, 0x00, 0x10, 0x00, 0x00, 0x00, 0x24, 0x00, 0x00, 0x00, 
  0x00, 0x00, 0x06, 0x00, 0x08, 0x00, 0x04, 0x00, 0x06, 0x00, 0x00, 0x00, 
  0x04, 0x00, 0x00, 0x00, 0x00, 0x00, 0x00, 0x00, 0x0c, 0x00, 0x18, 0x00, 
  0x14, 0x00, 0x10, 0x00, 0x0c, 0x00, 0x04, 0x00, 0x0c, 0x00, 0x00, 0x00, 
  0xad, 0x52, 0xd8, 0x5e, 0xa0, 0x5f, 0x61, 0x95, 0x02, 0x00, 0x00, 0x00, 
  0x02, 0x00, 0x00, 0x00, 0x04, 0x00, 0x00, 0x00, 0x06, 0x00, 0x00, 0x00, 
  0x32, 0x2e, 0x32, 0x30, 0x2e, 0x30, 0x00, 0x00, 0xb2, 0xa1, 0xff, 0xff, 
  0x04, 0x00, 0x00, 0x00, 0x10, 0x00, 0x00, 0x00, 0x31, 0x2e, 0x36, 0x2e, 
  0x30, 0x00, 0x00, 0x00, 0x00, 0x00, 0x00, 0x00, 0x00, 0x00, 0x00, 0x00, 
  0x28, 0x98, 0xff, 0xff, 0x2c, 0x98, 0xff, 0xff, 0x30, 0x98, 0xff, 0xff, 
  0x34, 0x98, 0xff, 0xff, 0x38, 0x98, 0xff, 0xff, 0x3c, 0x98, 0xff, 0xff, 
  0x40, 0x98, 0xff, 0xff, 0x44, 0x98, 0xff, 0xff, 0xee, 0xa1, 0xff, 0xff, 
  0x04, 0x00, 0x00, 0x00, 0x20, 0x01, 0x00, 0x00, 0x40, 0xa5, 0x49, 0x3a, 
  0xb7, 0x2c, 0x87, 0xba, 0xfa, 0x95, 0x52, 0xba, 0xc5, 0xff, 0x3f, 0x3a, 
  0x68, 0xa6, 0x48, 0x3a, 0xc1, 0x26, 0xf3, 0x39, 0xa3, 0x51, 0x44, 0x39, 
  0x84, 0xf2, 0x6e, 0x3a, 0x9b, 0x4e, 0x6b, 0x3a, 0x1b, 0xc8, 0x4f, 0xba, 
  0xc0, 0xae, 0x64, 0x39, 0xb0, 0x7e, 0x0e, 0xba, 0x7a, 0x95, 0x52, 0xba, 
  0x39, 0x10, 0xda, 0xb8, 0xf5, 0x73, 0x11, 0xb7, 0x0c, 0xb5, 0x57, 0xba, 
  0x64, 0xd9, 0x72, 0xba, 0xda, 0xa4, 0x80, 0x38, 0xab, 0x7d, 0x6b, 0x3a, 
  0x7f, 0x2d, 0x91, 0x39, 0xd5, 0x63, 0x17, 0xba, 0x7b, 0xae, 0x0a, 0xba, 
  0xe1, 0x23, 0x23, 0x3a, 0x81, 0x34, 0x02, 0xba, 0x7b, 0xe3, 0xfe, 0xb9, 
  0x9c, 0x24, 0x62, 0xba, 0xc1, 0x0a, 0x5f, 0x3a, 0x1f, 0xb1, 0x38, 0x3a, 
  0x9c, 0xfb, 0x80, 0x3a, 0x6b, 0x64, 0xb9, 0xb9, 0x62, 0x7b, 0x0a, 0xba, 
  0x65, 0x6b, 0x75, 0x3a, 0x27, 0x97, 0xed, 0x39, 0xe3, 0xe3, 0x4d, 0xba, 
  0x1a, 0x5d, 0xc5, 0xb9, 0xa2, 0x27, 0x45, 0xba, 0xf3, 0x64, 0x72, 0xba, 
  0xb1, 0xdf, 0x27, 0x3a, 0x63, 0x40, 0x1b, 0x3a, 0x48, 0xc6, 0x99, 0xb9, 
  0x4a, 0xc7, 0x85, 0x3a, 0x54, 0x10, 0x90, 0x3a, 0xe2, 0x8a, 0x3a, 0x3a, 
  0x4e, 0x87, 0x2c, 0xba, 0x35, 0x9d, 0x14, 0x3a, 0x90, 0xf7, 0x7a, 0x39, 
  0xb6, 0x7d, 0x34, 0xba, 0x92, 0x8e, 0x84, 0xba, 0x20, 0x8d, 0x08, 0xba, 
  0x66, 0x79, 0x5f, 0x3a, 0x0b, 0x0c, 0x5a, 0xba, 0x94, 0x77, 0x4f, 0xba, 
  0xc6, 0x28, 0x91, 0x3a, 0x7d, 0x75, 0x84, 0x3a, 0xd8, 0x86, 0x08, 0x3a, 
  0xf6, 0x61, 0x6f, 0xba, 0xde, 0x5d, 0x6b, 0xba, 0x5e, 0xc2, 0x7c, 0x38, 
  0x70, 0xea, 0x04, 0xb9, 0x5b, 0x80, 0xc7, 0xb9, 0xfc, 0xdb, 0x54, 0xba, 
  0x2c, 0x44, 0x80, 0x3a, 0xc9, 0x63, 0x9f, 0xb9, 0x69, 0x3c, 0x77, 0xb9, 
  0x4e, 0x0d, 0x25, 0x3a, 0xca, 0x60, 0x37, 0xba, 0xe9, 0xfd, 0xcd, 0x39, 
  0x3a, 0xc7, 0x89, 0x3a, 0xf4, 0xa7, 0x60, 0x38, 0x3d, 0x7a, 0x81, 0x3a, 
  0x8e, 0x14, 0x2c, 0xba, 0x8f, 0x20, 0x6b, 0xb8, 0x1a, 0xa3, 0xff, 0xff, 
  0x04, 0x00, 0x00, 0x00, 0x08, 0x00, 0x00, 0x00, 0x01, 0x00, 0x00, 0x00, 
  0x02, 0x00, 0x00, 0x00, 0x2e, 0xa3, 0xff, 0xff, 0x04, 0x00, 0x00, 0x00, 
  0x00, 0x01, 0x00, 0x00, 0xf1, 0x1a, 0x66, 0xbe, 0x7f, 0xba, 0xc4, 0x3e, 
  0xa4, 0x06, 0xe7, 0xbe, 0xa4, 0x34, 0x8b, 0x3e, 0x7d, 0x90, 0x8d, 0xbe, 
  0x6e, 0x6e, 0xfd, 0x3e, 0xff, 0xf7, 0xe4, 0xbd, 0x22, 0xe0, 0x75, 0xbe, 
  0x58, 0x0a, 0xf0, 0x3d, 0x5b, 0x52, 0x0f, 0x3e, 0x00, 0xe9, 0xb1, 0x3e, 
  0x4b, 0x16, 0xed, 0xbe, 0x94, 0x50, 0x8b, 0x3e, 0x92, 0xc5, 0x8c, 0x3c, 
  0xf1, 0x4f, 0xca, 0xbe, 0xff, 0x59, 0xe2, 0xbe, 0xd1, 0xde, 0x7c, 0xbe, 
  0x36, 0xd2, 0xa5, 0x3e, 0x2b, 0x40, 0xbc, 0xbe, 0xf4, 0x8c, 0xbe, 0xbc, 
  0x8e, 0xa2, 0x5b, 0x3e, 0x29, 0x7d, 0x16, 0xbe, 0x9f, 0x64, 0xdc, 0x3e, 
  0xaf, 0xf6, 0xf9, 0xbd, 0x9d, 0xf5, 0x39, 0xbd, 0x0e, 0xfd, 0x13, 0x3e, 
  0xc4, 0x86, 0x5b, 0xbd, 0x3f, 0x87, 0xa8, 0x3e, 0x93, 0x3f, 0xb4, 0xbe, 
  0x60, 0x5a, 0xa1, 0xbe, 0x38, 0x7c, 0x48, 0x3c, 0x65, 0xf9, 0x6d, 0xbe, 
  0xa8, 0xc9, 0xf4, 0x3e, 0xef, 0xa4, 0x16, 0xbc, 0xbb, 0x59, 0xe2, 0x3e, 
  0x81, 0x72, 0xc5, 0xbd, 0xde, 0x46, 0xdd, 0x3e, 0xd3, 0x4f, 0xfe, 0xbd, 
  0xc7, 0x40, 0x89, 0x3e, 0x16, 0xe8, 0xb6, 0xbe, 0x9f, 0xf7, 0xaf, 0x3e, 
  0x82, 0x6c, 0x5c, 0x3c, 0x47, 0xdf, 0x86, 0xbd, 0x65, 0x13, 0xf8, 0x3e, 
  0x8b, 0xcb, 0xc4, 0xbd, 0xd4, 0x12, 0xbe, 0xbe, 0x4d, 0x46, 0xa9, 0x3e, 
  0x46, 0x64, 0xc6, 0x3c, 0x10, 0x80, 0x0e, 0x3d, 0xfc, 0xa7, 0x33, 0x3e, 
  0x37, 0x08, 0x38, 0x3e, 0x26, 0x5d, 0xcf, 0xbe, 0xd9, 0x0f, 0xee, 0x3e, 
  0x63, 0x28, 0xfd, 0xbe, 0x43, 0x2f, 0x92, 0xbe, 0x58, 0xfa, 0x49, 0xbe, 
  0x71, 0xae, 0x50, 0x3e, 0x8e, 0x5c, 0x05, 0x3f, 0xcf, 0xd7, 0x47, 0x3e, 
  0xda, 0x60, 0x9c, 0xbd, 0xc9, 0xed, 0xb0, 0x3e, 0xbd, 0x6c, 0x4b, 0x3e, 
  0x25, 0xa9, 0x04, 0x3f, 0xcc, 0xc0, 0xdd, 0x3e, 0x3a, 0xa4, 0xff, 0xff, 
  0x04, 0x00, 0x00, 0x00, 0x00, 0x12, 0x00, 0x00, 0x30, 0xa1, 0x18, 0x3e, 
  0x08, 0x68, 0x00, 0xbe, 0xc2, 0xb2, 0x0a, 0x3e, 0xe1, 0xf2, 0xd3, 0x3d, 
  0x6a, 0x0a, 0xf6, 0x3c, 0x1d, 0xdb, 0xb7, 0xbd, 0x22, 0x81, 0x16, 0x3e, 
  0x65, 0x45, 0x8a, 0x3d, 0x48, 0x4d, 0x1b, 0x3d, 0xb0, 0xf6, 0x8d, 0x3d, 
  0xae, 0xe6, 0x31, 0xbd, 0x47, 0x32, 0xd5, 0x3b, 0x78, 0xa3, 0x9b, 0x3d, 
  0x6e, 0xa4, 0x16, 0x3e, 0xec, 0x55, 0x1e, 0xbe, 0xd3, 0xa1, 0x4f, 0x3d, 
  0x05, 0x96, 0x13, 0xbb, 0xa3, 0x88, 0x0e, 0xbe, 0x7e, 0x9f, 0x1c, 0x3e, 
  0xf6, 0x52, 0x41, 0xbe, 0x94, 0xd6, 0x45, 0x3e, 0x2b, 0x0a, 0x1b, 0xbe, 
  0x6a, 0xd4, 0x8c, 0x3d, 0x7d, 0xcf, 0x60, 0x3d, 0xe8, 0x79, 0x47, 0x3e, 
  0x40, 0xa1, 0x7e, 0x3d, 0x5a, 0x1e, 0x78, 0x3d, 0xc8, 0x3b, 0xc4, 0x3d, 
  0x19, 0x72, 0xe7, 0xbd, 0xab, 0x92, 0x83, 0xbd, 0x86, 0x4d, 0x08, 0xbe, 
  0x00, 0x62, 0x01, 0x3c, 0xe5, 0x35, 0x4d, 0x3d, 0xd2, 0x36, 0xd6, 0x3d, 
  0x2f, 0xdb, 0x43, 0x3e, 0x8a, 0xc6, 0x2f, 0xbe, 0x82, 0x60, 0x7c, 0x3c, 
  0x27, 0xcf, 0x12, 0xbd, 0xef, 0xed, 0xaa, 0x3d, 0x97, 0xe1, 0x06, 0x3e, 
  0x8a, 0x23, 0x02, 0x3e, 0xc0, 0x06, 0xf2, 0x3c, 0x5a, 0xaa, 0xc2, 0xbd, 
  0x63, 0xfe, 0x76, 0x3d, 0x5a, 0x09, 0xd9, 0xbc, 0x49, 0xa2, 0x60, 0xbc, 
  0xd0, 0xee, 0x62, 0xbc, 0x14, 0x85, 0x2c, 0x3e, 0xbd, 0x81, 0x3a, 0x3e, 
  0x30, 0x44, 0xd8, 0xbd, 0x60, 0x77, 0xf0, 0x3d, 0xf7, 0xbe, 0x01, 0xbe, 
  0x14, 0x93, 0xf0, 0x3d, 0xe6, 0xfa, 0x82, 0xbc, 0x73, 0xf8, 0x6d, 0x3d, 
  0x3d, 0x9e, 0xd8, 0xbd, 0x7d, 0x21, 0x41, 0x3e, 0xc0, 0x3c, 0x0d, 0xbe, 
  0xcf, 0xa4, 0x01, 0xbe, 0xd9, 0x06, 0x34, 0xbe, 0xcd, 0x50, 0x02, 0x3d, 
  0x6a, 0x33, 0x66, 0x3d, 0x79, 0xb4, 0xc4, 0x3b, 0x3c, 0xa1, 0xab, 0xbb, 
  0x9c, 0xbc, 0xbb, 0xbd, 0x58, 0x41, 0xb9, 0x3c, 0xc6, 0xca, 0x6e, 0x3d, 
  0x13, 0x68, 0x9d, 0xbd, 0x97, 0x35, 0xd3, 0x3d, 0xc6, 0x85, 0xdf, 0x3d, 
  0xf7, 0x2b, 0x43, 0xbd, 0xeb, 0xfd, 0x15, 0x3e, 0x5e, 0x69, 0xdc, 0x3d, 
  0xb6, 0xb6, 0xfb, 0x3d, 0xaa, 0x3d, 0xa2, 0x3b, 0x69, 0x74, 0x97, 0x3e, 
  0xb4, 0x04, 0x27, 0xbe, 0xd0, 0x09, 0x9b, 0x3e, 0x70, 0x71, 0x96, 0xbc, 
  0x87, 0x83, 0x94, 0xbd, 0xca, 0xd2, 0x20, 0xbe, 0xd6, 0xe1, 0xac, 0xbd, 
  0x51, 0xde, 0x0f, 0x3e, 0xb4, 0x15, 0x70, 0x3d, 0x4b, 0x0d, 0xa6, 0x3d, 
  0xae, 0x21, 0x99, 0x3e, 0xb4, 0x33, 0x11, 0x3e, 0xd9, 0xee, 0x10, 0xbe, 
  0xc7, 0xbb, 0xea, 0x3d, 0xf6, 0x21, 0xe5, 0xbd, 0x45, 0x0e, 0xd8, 0x3d, 
  0xdb, 0xc9, 0xa1, 0x3e, 0x92, 0xf1, 0x26, 0x3e, 0x4e, 0x6c, 0x68, 0x3e, 
  0xe1, 0xef, 0xe8, 0x3d, 0xe2, 0x08, 0xee, 0xbb, 0x13, 0x27, 0x0e, 0x3e, 
  0x94, 0x9b, 0x21, 0xbd, 0x6f, 0x6d, 0xce, 0x3c, 0xea, 0xa8, 0x5e, 0x3e, 
  0x38, 0xb4, 0xd5, 0xbc, 0xf3, 0x51, 0x87, 0x3e, 0x99, 0x8f, 0x0f, 0x3e, 
  0x5c, 0x43, 0xa0, 0x3b, 0x3c, 0xeb, 0x14, 0xbe, 0xc2, 0x4a, 0xcc, 0x3d, 
  0x41, 0x82, 0x48, 0x3e, 0xee, 0x8a, 0x71, 0x3e, 0x30, 0x04, 0x44, 0xbd, 
  0x17, 0x06, 0x80, 0x3e, 0x18, 0xea, 0xfe, 0xbd, 0xad, 0xca, 0xac, 0x3d, 
  0x37, 0x16, 0xad, 0x3b, 0xc0, 0xce, 0x87, 0x3c, 0xa3, 0xd3, 0x1c, 0x3d, 
  0x77, 0xa3, 0x41, 0x3d, 0x19, 0x61, 0xd0, 0x3d, 0x3f, 0x81, 0xab, 0x3e, 
  0xa7, 0xef, 0x70, 0xbd, 0xb2, 0xf1, 0xcb, 0xbd, 0x75, 0x52, 0x00, 0xbe, 
  0x4a, 0x52, 0x96, 0x3d, 0x58, 0x63, 0x19, 0x3d, 0xbe, 0xcd, 0xde, 0x3d, 
  0xc5, 0x73, 0xd1, 0xbd, 0xda, 0x42, 0x49, 0x3e, 0xb8, 0x6a, 0x04, 0x3e, 
  0x2a, 0x9a, 0x0f, 0xbe, 0x92, 0x9c, 0xfc, 0x3c, 0xad, 0x40, 0x18, 0x3e, 
  0x3a, 0xb7, 0xc1, 0x3d, 0xbf, 0x14, 0x5f, 0x3e, 0x5d, 0x43, 0x24, 0x3e, 
  0xcc, 0xfd, 0x4e, 0x3e, 0x7c, 0xa6, 0xbd, 0x3d, 0x79, 0xdd, 0xa6, 0x3d, 
  0x02, 0x84, 0x1a, 0x3e, 0x7b, 0xd3, 0xf7, 0xbd, 0xd5, 0xa4, 0xf2, 0x3b, 
  0x95, 0x04, 0x90, 0x3e, 0xea, 0xe5, 0x1e, 0xbe, 0xa9, 0x18, 0xb4, 0x3e, 
  0xf1, 0xb7, 0xb2, 0xbd, 0x75, 0x79, 0x20, 0x3e, 0xa9, 0x29, 0x18, 0xbe, 
  0x22, 0xcb, 0xe5, 0x3d, 0xbc, 0xe6, 0x8c, 0xbc, 0xdb, 0xc1, 0x36, 0x3d, 
  0x36, 0x49, 0x95, 0x3c, 0x15, 0x33, 0xf1, 0xbd, 0x61, 0x83, 0x0a, 0x3e, 
  0x1f, 0x01, 0x1d, 0x3c, 0xdb, 0x0b, 0x93, 0xbd, 0x40, 0x95, 0x8f, 0xbd, 
  0x71, 0x9e, 0x22, 0x3e, 0xf1, 0xbb, 0xac, 0xbd, 0x84, 0xb7, 0x11, 0x3e, 
  0x41, 0xa7, 0x88, 0xbc, 0xfd, 0x70, 0x07, 0x3e, 0x05, 0x89, 0xbc, 0xbd, 
  0x1f, 0xbd, 0xba, 0xbd, 0xd0, 0x57, 0x4d, 0xbc, 0x3f, 0x85, 0xa6, 0xbd, 
  0xae, 0x95, 0x49, 0x3d, 0x0e, 0xf8, 0x03, 0xbe, 0x0f, 0xad, 0xd7, 0x3d, 
  0x28, 0xf4, 0x18, 0xbe, 0x0e, 0x52, 0xed, 0xbd, 0xe4, 0x97, 0x0c, 0x3e, 
  0x60, 0x54, 0xb6, 0x3b, 0x3b, 0xd1, 0x46, 0xbd, 0x42, 0x88, 0x05, 0x3e, 
  0xc9, 0x51, 0xc2, 0xbd, 0xb5, 0xf6, 0x8a, 0x3d, 0x52, 0xe4, 0xa1, 0xbd, 
  0x2c, 0x85, 0xce, 0x3d, 0xfe, 0x0d, 0x79, 0xbd, 0xfe, 0xb8, 0x1e, 0xbe, 
  0x6e, 0xd7, 0x7f, 0xbd, 0x4d, 0xc0, 0xa8, 0x3d, 0x42, 0xed, 0x66, 0xbc, 
  0x44, 0x33, 0xe9, 0xbd, 0xd6, 0x1d, 0x07, 0x3d, 0xd6, 0xb7, 0xc6, 0x3d, 
  0xdf, 0xcb, 0xaf, 0x3d, 0x68, 0xe9, 0xdf, 0x3c, 0x76, 0xc2, 0xc7, 0xbd, 
  0x78, 0xa9, 0x06, 0x3e, 0xdb, 0xcb, 0xf0, 0xbd, 0xbd, 0x28, 0xd8, 0xbd, 
  0xee, 0x3b, 0x50, 0xbd, 0x0f, 0x15, 0x57, 0x3d, 0xa9, 0x09, 0xce, 0xbc, 
  0xfa, 0x03, 0xe0, 0x3d, 0x25, 0xbe, 0x8b, 0x3d, 0xa5, 0xba, 0xc8, 0xbd, 
  0xa2, 0x2f, 0x1b, 0xbe, 0x6f, 0xde, 0xd4, 0xbd, 0x50, 0xa1, 0xd4, 0xbd, 
  0x34, 0xcd, 0xe9, 0x3d, 0xcd, 0x7e, 0x1d, 0x3d, 0xe6, 0x49, 0x91, 0xbd, 
  0xa3, 0x59, 0x1b, 0x3e, 0xdd, 0x1e, 0xd9, 0xbd, 0x9d, 0xdb, 0xfe, 0x3d, 
  0x8c, 0xe2, 0x34, 0x3d, 0x88, 0x62, 0xcb, 0xbd, 0xbd, 0x72, 0x70, 0xbd, 
  0x6f, 0xe9, 0x0f, 0xbe, 0x10, 0x40, 0xf4, 0xbd, 0x75, 0x3b, 0x06, 0xbc, 
  0x7b, 0x08, 0xa6, 0xbd, 0x27, 0x6e, 0x79, 0xbd, 0xb0, 0xc7, 0x09, 0xbe, 
  0xb7, 0xb4, 0x4e, 0xba, 0xf3, 0x56, 0x1d, 0xbe, 0x50, 0x98, 0xe1, 0x3d, 
  0xe8, 0x1b, 0xa5, 0x3c, 0xb6, 0x9b, 0xb3, 0x3d, 0xee, 0xd1, 0xbc, 0x3d, 
  0x97, 0xf5, 0xe2, 0xbc, 0xcf, 0x59, 0x8d, 0x3e, 0x06, 0x6f, 0xbc, 0x3d, 
  0x42, 0x17, 0x6c, 0xbc, 0x6b, 0xce, 0x6b, 0x3d, 0xb0, 0x28, 0x0b, 0xbc, 
  0x48, 0xec, 0x7f, 0x3e, 0x64, 0x8a, 0x7c, 0x3d, 0x4b, 0x67, 0x06, 0xbe, 
  0xea, 0x80, 0x57, 0x3e, 0x6f, 0x8c, 0xa1, 0xbd, 0x3f, 0x25, 0xaa, 0x3c, 
  0xbe, 0x81, 0xd5, 0xbd, 0x80, 0x1b, 0x27, 0x3c, 0x5a, 0xe8, 0x76, 0x3e, 
  0xca, 0x88, 0xe4, 0xbc, 0xb8, 0xe5, 0xf0, 0xbc, 0x11, 0x08, 0xbb, 0x3c, 
  0x1f, 0x9c, 0xd1, 0xbd, 0x02, 0x3e, 0xd7, 0x3d, 0xfb, 0xcd, 0x06, 0x3e, 
  0x36, 0x79, 0xfe, 0x3d, 0xc8, 0xa0, 0x0c, 0x3e, 0x17, 0x6d, 0x6e, 0x3e, 
  0x3b, 0x46, 0x07, 0xbe, 0xef, 0xbf, 0x00, 0x3c, 0x5d, 0x3d, 0x18, 0xbd, 
  0xf4, 0xe5, 0xe0, 0xbd, 0x26, 0x8e, 0x03, 0xbe, 0x6c, 0xbb, 0x00, 0x3d, 
  0xf2, 0xf3, 0x06, 0x3d, 0xb8, 0x5e, 0x05, 0xbd, 0x8e, 0xc2, 0x75, 0xbd, 
  0x60, 0x36, 0x85, 0x3e, 0x82, 0x25, 0xaa, 0x3d, 0x0d, 0x72, 0x22, 0x3d, 
  0xd9, 0x98, 0x9d, 0x3d, 0x1c, 0x74, 0x23, 0xbe, 0x9a, 0x08, 0x76, 0x3e, 
  0xc9, 0xe9, 0xc6, 0x3d, 0x70, 0x28, 0x5e, 0x3d, 0xa9, 0xf3, 0x41, 0x3e, 
  0x9a, 0xd4, 0xb7, 0xbd, 0x24, 0x2c, 0xca, 0xbd, 0xa5, 0xa7, 0x83, 0x3d, 
  0x80, 0x9c, 0x00, 0x3d, 0x2a, 0x93, 0x8d, 0x3a, 0x3f, 0x24, 0x67, 0x3e, 
  0x54, 0xeb, 0x00, 0xbe, 0xe9, 0x11, 0x4b, 0x3e, 0x1b, 0x73, 0xe2, 0xbd, 
  0x98, 0x2a, 0x3f, 0x3e, 0xc2, 0x82, 0xe0, 0x3d, 0x68, 0x4f, 0xe1, 0xbc, 
  0x6e, 0x38, 0x27, 0x3d, 0xc8, 0x52, 0x6a, 0x3e, 0x62, 0x9f, 0xe3, 0xbd, 
  0x92, 0x72, 0x8a, 0x3e, 0x18, 0x91, 0xd2, 0x3d, 0x9f, 0x14, 0x4d, 0x3e, 
  0x06, 0xdc, 0x8f, 0xbd, 0x78, 0xcc, 0x1d, 0xbe, 0x23, 0xbe, 0xed, 0x3c, 
  0xce, 0xd1, 0x8f, 0x3d, 0x60, 0xef, 0x83, 0xbd, 0x18, 0x3f, 0x7d, 0x3e, 
  0xb1, 0x9f, 0x02, 0x3e, 0x15, 0x8f, 0xc5, 0xbd, 0xf5, 0xbf, 0x24, 0x3e, 
  0xb0, 0xf6, 0x95, 0x3d, 0xb9, 0x7f, 0x3f, 0xbd, 0xae, 0x0d, 0x63, 0xbe, 
  0x3b, 0x9b, 0x1a, 0xbb, 0x3d, 0xaf, 0x84, 0xbe, 0x2b, 0x56, 0x94, 0x3d, 
  0xbd, 0xcc, 0xb6, 0xbc, 0xec, 0x62, 0x4b, 0xbd, 0x3b, 0x8b, 0xc1, 0xbd, 
  0x1c, 0x76, 0x4c, 0xbd, 0xbf, 0x71, 0x2c, 0xbe, 0xa8, 0x6e, 0xe3, 0xbd, 
  0xfb, 0x98, 0xae, 0xbd, 0xa7, 0x60, 0x5d, 0xbd, 0x71, 0x7c, 0x06, 0x3e, 
  0xf2, 0xf0, 0x4f, 0xbd, 0xec, 0xc5, 0x68, 0xbd, 0x1c, 0x35, 0xad, 0xbd, 
  0x2d, 0x1b, 0x7d, 0xbe, 0x06, 0xca, 0x65, 0x3c, 0x5e, 0x10, 0x50, 0xbc, 
  0x4d, 0x7a, 0xf2, 0xbd, 0xb1, 0x49, 0x87, 0x3d, 0xe3, 0x0e, 0x13, 0x3e, 
  0xf6, 0x7b, 0xa4, 0x3d, 0x44, 0xb7, 0x1a, 0xbd, 0xb1, 0xc8, 0x08, 0xbc, 
  0x27, 0x65, 0x3f, 0x3d, 0x77, 0x55, 0xe1, 0xbd, 0xf6, 0x12, 0x2a, 0xbe, 
  0x66, 0x5f, 0x95, 0xbd, 0x8d, 0xf2, 0x32, 0x3e, 0x60, 0x0e, 0x2b, 0x3d, 
  0x3c, 0x74, 0x4a, 0x3d, 0xe7, 0x3d, 0x40, 0xbe, 0xf6, 0xb9, 0x07, 0x3e, 
  0x89, 0x0a, 0x78, 0xbd, 0x4d, 0x73, 0xc6, 0x3d, 0x5c, 0x02, 0xfa, 0x3d, 
  0x82, 0x19, 0xdd, 0x3d, 0xb0, 0x27, 0x7e, 0x3c, 0x7e, 0x73, 0x33, 0x3d, 
  0xf7, 0x8c, 0xb5, 0x3c, 0xcb, 0xd4, 0x34, 0x3e, 0xbe, 0x88, 0x0a, 0xbe, 
  0x0b, 0xf6, 0x09, 0x3d, 0x73, 0x12, 0x56, 0xbd, 0x6a, 0xc0, 0xce, 0x3c, 
  0x58, 0x13, 0xf0, 0x3c, 0x0c, 0x70, 0x9a, 0xbd, 0xec, 0x12, 0x8a, 0xbe, 
  0x17, 0x0b, 0x1a, 0x3d, 0xb7, 0xfa, 0x54, 0xbe, 0x6f, 0x57, 0xb2, 0x3d, 
  0x45, 0xa7, 0x34, 0x3e, 0x15, 0x90, 0xf1, 0xbd, 0x6a, 0xad, 0xb7, 0x3d, 
  0xa8, 0x53, 0x52, 0xbe, 0x8a, 0x87, 0x2e, 0xbd, 0x12, 0xd6, 0x38, 0x3e, 
  0x29, 0xbf, 0x6b, 0xbd, 0x21, 0xa6, 0x21, 0xbe, 0x6f, 0x39, 0x2f, 0x3e, 
  0x8a, 0x6c, 0xeb, 0xbc, 0x94, 0x20, 0x25, 0x3d, 0x5d, 0x49, 0x15, 0xbe, 
  0x8e, 0xdc, 0x4b, 0xbe, 0x5f, 0xa6, 0x08, 0xbe, 0x3d, 0x3d, 0x46, 0xbe, 
  0xb5, 0x6a, 0x45, 0x3d, 0x20, 0x50, 0xa7, 0x3d, 0xf7, 0xa3, 0x06, 0x3c, 
  0xdb, 0x80, 0x0d, 0x3e, 0x8f, 0xea, 0x74, 0x3e, 0xbc, 0x09, 0xc4, 0x3d, 
  0xf5, 0x46, 0x94, 0xbd, 0x92, 0x5a, 0x94, 0x3d, 0xe2, 0x7c, 0xdb, 0xbd, 
  0x4a, 0x07, 0xc5, 0x3d, 0xf1, 0xca, 0x00, 0xbe, 0xa6, 0xa7, 0x8a, 0x3d, 
  0xa6, 0x77, 0x55, 0xbc, 0x63, 0xe8, 0xa0, 0x3b, 0x2b, 0x91, 0x95, 0x3d, 
  0x73, 0xfd, 0x7b, 0x3c, 0x9c, 0x95, 0xec, 0xbd, 0xe5, 0xf5, 0xa5, 0x3d, 
  0xd3, 0x17, 0x25, 0xbd, 0x3b, 0x69, 0x05, 0xbe, 0x62, 0x19, 0xd6, 0x3d, 
  0x79, 0x9c, 0x26, 0xbd, 0xfd, 0xa9, 0x21, 0xbe, 0x37, 0x22, 0x0d, 0x3c, 
  0x39, 0xf4, 0x28, 0x3b, 0xee, 0xc0, 0x65, 0xbd, 0x00, 0x19, 0x4e, 0x3d, 
  0x96, 0x7b, 0x51, 0xbd, 0xfc, 0x64, 0x29, 0x3e, 0xb1, 0x69, 0x87, 0x3e, 
  0x55, 0xdc, 0xa7, 0x3d, 0x11, 0xab, 0xc7, 0x3d, 0x57, 0x00, 0xfd, 0x3d, 
  0xef, 0x77, 0x0c, 0x3e, 0xf0, 0x8a, 0x18, 0xbe, 0xc0, 0xf4, 0x18, 0xbe, 
  0x82, 0x2b, 0xac, 0xbc, 0x1b, 0xa2, 0x03, 0x3e, 0x94, 0x23, 0x21, 0x3e, 
  0x84, 0x0f, 0x8d, 0x3e, 0xe2, 0x3f, 0x0f, 0xbe, 0x17, 0xe5, 0x21, 0x3e, 
  0x4b, 0xb6, 0xa2, 0xbb, 0xf0, 0xb7, 0x80, 0x3d, 0x24, 0x85, 0x85, 0x3e, 
  0xa3, 0x07, 0x71, 0x3c, 0x67, 0xf3, 0xf2, 0x3c, 0x55, 0xdd, 0x4b, 0x3d, 
  0x18, 0x5c, 0x57, 0x3c, 0x3e, 0x71, 0xae, 0xbd, 0x9c, 0x19, 0xa4, 0xbd, 
  0xc0, 0x8c, 0x40, 0xbd, 0xec, 0x9e, 0x74, 0x3e, 0x7e, 0x39, 0x1a, 0x3e, 
  0xc7, 0x35, 0x9c, 0x3d, 0x9c, 0xc2, 0xd3, 0x3d, 0x8b, 0xd3, 0x29, 0xbd, 
  0x1d, 0x69, 0x80, 0xbd, 0x2a, 0xe9, 0xe5, 0xbd, 0x40, 0x55, 0x07, 0x3d, 
  0x89, 0xf5, 0x92, 0x3e, 0xdb, 0x18, 0x84, 0xbc, 0x3e, 0x05, 0xe9, 0xbc, 
  0x45, 0xf9, 0x99, 0x3e, 0xf3, 0xff, 0xef, 0xbc, 0x06, 0x17, 0x04, 0x3e, 
  0x6d, 0x24, 0x71, 0xbc, 0xcc, 0xb0, 0x08, 0xbd, 0x80, 0x4b, 0x8c, 0x3e, 
  0xc6, 0x0f, 0x81, 0xbd, 0x0c, 0xe0, 0x18, 0x3d, 0xdf, 0x55, 0xac, 0x3e, 
  0x37, 0x44, 0x30, 0xbd, 0xd0, 0xe0, 0x2b, 0x3e, 0x2b, 0xc8, 0x04, 0x3e, 
  0xd8, 0x7e, 0xd2, 0xbc, 0x77, 0x12, 0xd8, 0x3d, 0x7e, 0xb6, 0x11, 0x3e, 
  0xfa, 0xd9, 0x09, 0xbd, 0x51, 0xad, 0x7c, 0x3e, 0xa5, 0xa0, 0x1b, 0x3e, 
  0x56, 0xa2, 0xb0, 0xbd, 0xfc, 0xd8, 0xda, 0x3d, 0x40, 0x04, 0x95, 0x3c, 
  0x98, 0xa0, 0x86, 0x3e, 0x0d, 0x99, 0xa3, 0x3c, 0x0a, 0xe5, 0xe5, 0x3c, 
  0xe3, 0x49, 0x86, 0x3e, 0x45, 0x9e, 0x1e, 0x3e, 0x69, 0x98, 0x61, 0xbd, 
  0xba, 0xc9, 0xaa, 0x3b, 0x2b, 0x36, 0x09, 0x3e, 0x74, 0x95, 0xda, 0x3d, 
  0xdb, 0x01, 0x97, 0x3d, 0x7c, 0x23, 0xa0, 0xbd, 0x89, 0x95, 0x1d, 0x3e, 
  0xd7, 0x91, 0x24, 0x3e, 0x5e, 0x24, 0xaf, 0x3d, 0xbb, 0x29, 0x80, 0xbd, 
  0xb0, 0x38, 0x24, 0x3c, 0xa4, 0x8f, 0x9d, 0xbc, 0x62, 0xe1, 0xc9, 0x3c, 
  0x2f, 0x67, 0xd1, 0xbd, 0xf5, 0xca, 0x5f, 0x3e, 0x28, 0x01, 0xa1, 0xbb, 
  0xb5, 0xa8, 0xad, 0xbd, 0x65, 0x84, 0x06, 0x3d, 0x4a, 0x22, 0x93, 0x3d, 
  0x8a, 0xa2, 0x09, 0x3e, 0x1c, 0x0e, 0xbb, 0xbc, 0x32, 0x55, 0x55, 0x3c, 
  0xd1, 0xd7, 0x16, 0x3e, 0x72, 0xef, 0x15, 0xbc, 0x74, 0xa7, 0xc1, 0xbd, 
  0x15, 0x7b, 0xc4, 0x3d, 0xeb, 0x7d, 0x3e, 0xbc, 0x1d, 0x1c, 0x89, 0x3e, 
  0x2e, 0x70, 0x40, 0x3e, 0x05, 0x35, 0xc2, 0xbd, 0x0e, 0x22, 0x52, 0x3e, 
  0x43, 0xa0, 0xe9, 0x3d, 0x99, 0x30, 0x18, 0x3e, 0xea, 0xd5, 0xa7, 0xbd, 
  0xd0, 0xcf, 0x22, 0xbc, 0xfe, 0x9d, 0xca, 0x3d, 0xc1, 0xaa, 0x7a, 0x3e, 
  0x9c, 0x2d, 0x81, 0xbd, 0x44, 0x30, 0xe4, 0xbc, 0x2c, 0x10, 0xad, 0x3d, 
  0x57, 0xb6, 0x78, 0x3c, 0x9e, 0x73, 0x27, 0x3e, 0xf6, 0x1c, 0x38, 0xbd, 
  0x9a, 0x61, 0xc2, 0x3d, 0x81, 0xe7, 0x46, 0x3c, 0xe7, 0x8f, 0x23, 0x3d, 
  0x7d, 0x63, 0x37, 0x3d, 0x3d, 0x8f, 0xe2, 0x3c, 0xf2, 0x47, 0xd3, 0xbc, 
  0xe5, 0x4e, 0x8d, 0xbd, 0x95, 0x5f, 0x01, 0x3e, 0x5e, 0x05, 0xcf, 0x3d, 
  0x11, 0xf8, 0xa1, 0x3a, 0xae, 0xf1, 0xe5, 0x3d, 0xdf, 0xfc, 0xde, 0x3d, 
  0x70, 0xe9, 0xee, 0xbc, 0x64, 0x1a, 0x0a, 0xbe, 0x06, 0xe4, 0xd2, 0xbd, 
  0x0a, 0xd0, 0x98, 0x3d, 0xb6, 0xc2, 0x9d, 0x3d, 0x51, 0x0c, 0x83, 0x3e, 
  0xb8, 0x9c, 0x25, 0xbe, 0x15, 0xca, 0x18, 0x3e, 0x22, 0xf4, 0xf8, 0x3d, 
  0xda, 0x36, 0xd4, 0x3c, 0xf7, 0x93, 0x8d, 0x3c, 0x20, 0x61, 0x57, 0xbd, 
  0x08, 0x44, 0x34, 0x3e, 0x30, 0x68, 0x33, 0x3d, 0x0c, 0xcf, 0x42, 0x3d, 
  0x30, 0xeb, 0xce, 0x3b, 0xa5, 0xa3, 0x5e, 0xbd, 0x5c, 0x06, 0xf0, 0x3d, 
  0x9b, 0x45, 0x2c, 0x3d, 0x5f, 0x8e, 0x20, 0xbe, 0x81, 0x91, 0x4f, 0x3e, 
  0x6e, 0x26, 0x07, 0x3e, 0x7f, 0x9a, 0x14, 0xbe, 0x30, 0x19, 0x37, 0x3e, 
  0x89, 0xac, 0xd6, 0xbd, 0xe1, 0xb0, 0x0c, 0x3e, 0x1e, 0xb6, 0x07, 0x3e, 
  0xd2, 0x00, 0xc8, 0x3d, 0x8c, 0x3f, 0x6a, 0x3e, 0xcc, 0x9f, 0x04, 0x3d, 
  0x40, 0xfd, 0x87, 0x3c, 0xa0, 0xa8, 0x38, 0x3d, 0x75, 0x3e, 0xf7, 0xbd, 
  0xd8, 0x51, 0xb6, 0x3d, 0x13, 0x72, 0xd8, 0x3c, 0x83, 0x8b, 0x02, 0x3e, 
  0x12, 0xc7, 0x8f, 0x3e, 0x95, 0x8b, 0x16, 0x3d, 0x5d, 0x26, 0xac, 0xbd, 
  0x81, 0x42, 0x95, 0x3e, 0x6a, 0xf5, 0xc2, 0x3d, 0x31, 0x19, 0xb9, 0xbd, 
  0x94, 0xe3, 0x24, 0x3c, 0x3a, 0x5b, 0x93, 0x3d, 0x87, 0xd9, 0x51, 0x3e, 
  0xaf, 0x1f, 0xd8, 0xbc, 0x85, 0x7f, 0x50, 0x3d, 0xbc, 0xcd, 0x8d, 0x3d, 
  0x2f, 0x0f, 0x8c, 0xbb, 0xfc, 0x73, 0x88, 0x3d, 0x9a, 0x29, 0x2d, 0xbe, 
  0x90, 0x13, 0xd3, 0xbd, 0xc0, 0xca, 0x53, 0x3e, 0xb8, 0x21, 0x4c, 0x3d, 
  0x49, 0x47, 0xc1, 0x3d, 0xc1, 0x1c, 0x74, 0x3e, 0x69, 0x2f, 0x99, 0xbd, 
  0x52, 0xbf, 0x19, 0x3e, 0x7d, 0x6f, 0x08, 0x3e, 0x00, 0x33, 0x82, 0xbb, 
  0x64, 0xbf, 0xaa, 0x3c, 0x01, 0x06, 0x03, 0x3c, 0xbd, 0xbf, 0x04, 0x3e, 
  0xe9, 0xc7, 0x83, 0x3e, 0x98, 0x9d, 0x48, 0xbc, 0x8c, 0x5b, 0x87, 0xbd, 
  0x0e, 0xa7, 0x19, 0x3e, 0x86, 0x18, 0x1a, 0xbe, 0xf3, 0x1b, 0x60, 0x3d, 
  0x19, 0x9e, 0x1a, 0x3e, 0xdb, 0x77, 0x8f, 0xbd, 0xcd, 0x0c, 0x0d, 0x3e, 
  0x2c, 0x2c, 0x2b, 0x3e, 0x11, 0xe2, 0x46, 0x3d, 0xb4, 0x95, 0xf5, 0x3c, 
  0x2c, 0xdb, 0x0a, 0xbd, 0x17, 0xf6, 0xce, 0x3d, 0xde, 0x5d, 0xfb, 0xbd, 
  0x96, 0x6c, 0x57, 0xbd, 0xfa, 0xe2, 0x3a, 0x3d, 0xff, 0x38, 0x24, 0xbc, 
  0x10, 0xf4, 0xb7, 0x3d, 0x1a, 0x73, 0xce, 0xbc, 0xf6, 0x3b, 0xab, 0xbd, 
  0xc3, 0x21, 0x36, 0xbd, 0x31, 0x6a, 0x99, 0x3d, 0x48, 0x2c, 0xb7, 0x3d, 
  0x14, 0xae, 0x15, 0x3d, 0xb6, 0xcb, 0x99, 0x3d, 0xf6, 0x31, 0xc7, 0xbc, 
  0x14, 0xfb, 0x99, 0x3d, 0x60, 0x54, 0xba, 0xbd, 0x5c, 0xee, 0x7f, 0xba, 
  0xdf, 0xff, 0x2c, 0xbe, 0x44, 0x13, 0x7b, 0xbd, 0x71, 0x08, 0x28, 0xbe, 
  0xb0, 0xfb, 0x04, 0xbe, 0x95, 0x83, 0xc5, 0xbb, 0x0b, 0xfb, 0xf2, 0xbd, 
  0xe2, 0xe2, 0xc7, 0x3d, 0x14, 0x11, 0xad, 0xbd, 0x7e, 0x2c, 0x89, 0x3d, 
  0xa7, 0xaf, 0x65, 0xbc, 0xd0, 0x04, 0x80, 0xbd, 0xb1, 0xa5, 0xcf, 0xbd, 
  0x84, 0x5d, 0x00, 0x3e, 0xb5, 0x0e, 0xfc, 0x3d, 0xac, 0xff, 0x73, 0xbd, 
  0x42, 0xdd, 0x1f, 0x3e, 0xe9, 0x7f, 0x47, 0xbd, 0x30, 0x34, 0xd4, 0x3b, 
  0x3b, 0x65, 0x92, 0xbd, 0x3e, 0xee, 0x11, 0x3d, 0x68, 0x66, 0xa5, 0xbd, 
  0x22, 0x99, 0x18, 0xbe, 0xbb, 0xde, 0x04, 0x3e, 0x0d, 0x07, 0xaf, 0x3d, 
  0xf1, 0x3d, 0x37, 0x3d, 0xf5, 0xaf, 0x9a, 0xbd, 0xb1, 0x92, 0x1f, 0xbe, 
  0x62, 0x12, 0x11, 0x3e, 0x1b, 0x35, 0xd9, 0xbd, 0x96, 0xc3, 0xd8, 0xbd, 
  0x93, 0xc4, 0x0b, 0x3e, 0xfc, 0x41, 0x82, 0x3d, 0xc4, 0x7b, 0xc5, 0xbd, 
  0xcd, 0x6a, 0x8e, 0xbd, 0x73, 0xb5, 0x10, 0x3e, 0xec, 0x58, 0x0f, 0x3d, 
  0x3b, 0xd6, 0x3e, 0x3b, 0x64, 0x89, 0xb7, 0xbd, 0xa0, 0xea, 0xd2, 0xbd, 
  0xc1, 0x2f, 0x9e, 0xbd, 0x46, 0xb4, 0x8e, 0x3d, 0x6b, 0xf9, 0x0f, 0xbe, 
  0xf6, 0x37, 0x1a, 0xbd, 0x85, 0xc5, 0x95, 0xbd, 0xd4, 0xea, 0xb4, 0x3d, 
  0xf6, 0x10, 0x42, 0x3d, 0x66, 0x87, 0xef, 0x3d, 0x77, 0x65, 0x40, 0xbd, 
  0x57, 0x7b, 0x20, 0xbe, 0x68, 0x39, 0x58, 0x3d, 0x9b, 0xc5, 0xb4, 0x3d, 
  0xd7, 0xff, 0x1d, 0x3e, 0xda, 0xe2, 0x8f, 0xbd, 0xad, 0x23, 0xe3, 0x3d, 
  0xc5, 0x6d, 0x0d, 0x3e, 0xbd, 0x65, 0x3c, 0x3e, 0x73, 0xe0, 0x53, 0xbc, 
  0x08, 0x29, 0x25, 0xbe, 0xb1, 0x65, 0x95, 0x3d, 0x6f, 0xe8, 0xf4, 0xbd, 
  0x31, 0xf0, 0xbb, 0xbc, 0xdd, 0xfd, 0x06, 0xbe, 0x06, 0x7e, 0xba, 0xbd, 
  0x2a, 0x88, 0x60, 0x3e, 0x96, 0x01, 0x80, 0x3e, 0x46, 0x53, 0x83, 0xbd, 
  0x21, 0x1b, 0xd4, 0x3d, 0xdc, 0xc6, 0x06, 0x3c, 0x08, 0x2b, 0xd0, 0xbb, 
  0x31, 0x4b, 0xae, 0xbc, 0x58, 0xd8, 0x49, 0xba, 0xdf, 0x4b, 0x77, 0x3e, 
  0x2d, 0x86, 0xb5, 0x3d, 0xb3, 0x09, 0xe8, 0x3d, 0xd6, 0x7e, 0x84, 0x3e, 
  0x67, 0x71, 0x6b, 0xbd, 0x61, 0x61, 0x29, 0x3d, 0x4a, 0xe9, 0xbe, 0xbc, 
  0x93, 0x4f, 0x0e, 0x3e, 0x0f, 0xb6, 0x47, 0x3e, 0x61, 0x3c, 0x98, 0x3e, 
  0x9e, 0x58, 0x75, 0xbd, 0xe1, 0x73, 0x7e, 0x3e, 0x98, 0xda, 0x1b, 0x3e, 
  0x14, 0xbf, 0x86, 0xbc, 0xa5, 0xd4, 0xe6, 0xbd, 0x9d, 0x16, 0x01, 0x3e, 
  0x41, 0xe6, 0x8a, 0x3e, 0xf6, 0x08, 0x96, 0xbc, 0x4c, 0x63, 0x02, 0x3e, 
  0xfb, 0x4a, 0x96, 0x3d, 0xdb, 0x19, 0xc3, 0xbc, 0xce, 0x0c, 0xcb, 0x3d, 
  0x07, 0x25, 0x84, 0x3d, 0xc6, 0x38, 0xe0, 0xbd, 0x3b, 0xfe, 0xde, 0x3d, 
  0xdf, 0x6d, 0x83, 0x3e, 0x92, 0x93, 0xed, 0x3c, 0x5d, 0x1a, 0xa0, 0x3d, 
  0x8f, 0x3e, 0x49, 0x3d, 0xff, 0x2b, 0xc2, 0xbc, 0x91, 0x26, 0x1c, 0xbe, 
  0x96, 0x1f, 0x15, 0xbe, 0xf3, 0x8c, 0x8b, 0xbc, 0x9f, 0xee, 0x74, 0x3e, 
  0x7a, 0x30, 0x9c, 0x3d, 0x3c, 0x9a, 0x9f, 0x3e, 0x9c, 0x7b, 0x24, 0x3e, 
  0xaa, 0x11, 0x22, 0xbe, 0x25, 0xa9, 0xd5, 0x3d, 0x60, 0x4b, 0xef, 0xbd, 
  0xe6, 0x9a, 0x06, 0xbd, 0x2f, 0xa5, 0x59, 0x3e, 0x87, 0xe4, 0x7b, 0xbb, 
  0x5f, 0x10, 0xfa, 0x3d, 0xa1, 0xc8, 0xab, 0xbb, 0x66, 0xba, 0x14, 0x3b, 
  0x40, 0x85, 0x73, 0x3c, 0xe0, 0xa3, 0x0a, 0xbe, 0x2e, 0xb8, 0x02, 0x3d, 
  0x34, 0x6a, 0x6b, 0x3e, 0x05, 0xf1, 0x0b, 0x3e, 0xbf, 0x4f, 0x22, 0x3e, 
  0xf0, 0xc7, 0x10, 0xbe, 0x0a, 0xa9, 0xda, 0x3c, 0xe5, 0x67, 0x2f, 0x3e, 
  0xab, 0x7e, 0x91, 0xbd, 0xc6, 0xce, 0xc8, 0xbc, 0x95, 0xbc, 0x2e, 0x3e, 
  0x38, 0x04, 0x95, 0xbd, 0xf1, 0xbb, 0x9c, 0x3e, 0xf8, 0x59, 0xce, 0xbd, 
  0xbe, 0x0d, 0x06, 0x3e, 0x9c, 0x83, 0x05, 0x3d, 0xc0, 0x6a, 0xe7, 0xbc, 
  0x23, 0x64, 0x72, 0x3e, 0x89, 0x34, 0x67, 0x3e, 0x86, 0x21, 0x03, 0x3e, 
  0x2a, 0xac, 0x7c, 0x3e, 0x52, 0xe8, 0xc3, 0xbd, 0x65, 0x4a, 0xcb, 0x3c, 
  0x61, 0xfc, 0xf8, 0xbd, 0x00, 0x94, 0x01, 0x39, 0x1d, 0xc8, 0x89, 0x3d, 
  0x24, 0xea, 0x53, 0x3d, 0x94, 0x5c, 0xc6, 0xbc, 0x74, 0x0c, 0x32, 0x3d, 
  0x47, 0x02, 0xfb, 0x3d, 0x32, 0x24, 0xeb, 0x3d, 0x4a, 0x39, 0xa6, 0x3c, 
  0xb1, 0x57, 0x24, 0x3e, 0x23, 0x88, 0x8f, 0x3d, 0x17, 0x14, 0x9f, 0x3e, 
  0xa1, 0x85, 0x28, 0xbe, 0x27, 0x21, 0x35, 0x3e, 0x65, 0xc0, 0xe1, 0x3d, 
  0x8f, 0x6e, 0x20, 0x3e, 0xb0, 0x6b, 0x35, 0x3d, 0x50, 0x41, 0x78, 0xbc, 
  0xac, 0xd7, 0xaf, 0x3d, 0xd1, 0x82, 0xc0, 0x3d, 0x61, 0x33, 0x8e, 0x3d, 
  0x48, 0xb5, 0x6e, 0x3e, 0xa3, 0x2f, 0x81, 0x3d, 0x2b, 0x1a, 0xdd, 0x3d, 
  0x73, 0x1a, 0x36, 0xbe, 0xda, 0x52, 0xce, 0x3d, 0x75, 0x41, 0x0c, 0x3d, 
  0x52, 0x0b, 0x95, 0x3e, 0x7e, 0xbd, 0xb2, 0x3c, 0x6b, 0x4f, 0x10, 0x3e, 
  0xa0, 0xd7, 0x4b, 0x3d, 0xdc, 0x0d, 0xa8, 0xbd, 0xdc, 0xea, 0x28, 0x3e, 
  0x20, 0x0f, 0x92, 0xbd, 0x79, 0x80, 0x29, 0x3e, 0x1c, 0x82, 0x0f, 0x3e, 
  0xc6, 0x68, 0xfe, 0xbd, 0xf4, 0xa5, 0xb4, 0x3e, 0x66, 0xf0, 0xff, 0x3d, 
  0x16, 0x37, 0x9c, 0x3d, 0xa0, 0x30, 0xc8, 0xbb, 0x32, 0x9b, 0xc1, 0x3d, 
  0xb8, 0x89, 0x97, 0x3d, 0x5b, 0xd1, 0x0f, 0x3e, 0x5c, 0x16, 0xa9, 0xbd, 
  0x26, 0x93, 0x60, 0x3e, 0xc3, 0xd4, 0xa3, 0x3c, 0x8d, 0x36, 0x8e, 0xbd, 
  0xb4, 0xc7, 0x01, 0x3e, 0x26, 0x18, 0xa4, 0xbd, 0x13, 0x7c, 0x9d, 0x3e, 
  0x13, 0xf0, 0x12, 0xbb, 0x19, 0xb4, 0xaf, 0xbd, 0xf2, 0xf9, 0x28, 0x3d, 
  0x1a, 0x78, 0x02, 0xbe, 0x09, 0x26, 0xe1, 0xbd, 0x94, 0x8a, 0xfe, 0xbd, 
  0x82, 0xa1, 0xd4, 0x3d, 0x7d, 0x01, 0x1a, 0xbd, 0xf6, 0xa5, 0x5f, 0x3e, 
  0xe5, 0x72, 0x1d, 0x3e, 0x43, 0xb7, 0x2c, 0x3d, 0xa1, 0xce, 0x91, 0xbd, 
  0x97, 0xa6, 0xd0, 0x3c, 0x68, 0xe4, 0x29, 0x3d, 0xd0, 0xd3, 0x52, 0xbc, 
  0x87, 0xa9, 0x34, 0x3e, 0x24, 0x44, 0x94, 0x3e, 0x92, 0xd0, 0x7e, 0xbd, 
  0xf4, 0x78, 0x82, 0x3e, 0x39, 0xc4, 0x34, 0x3e, 0x66, 0x9d, 0x1c, 0xbe, 
  0x88, 0x5d, 0x26, 0xbe, 0xd6, 0x94, 0xbd, 0xbd, 0x55, 0x4d, 0xae, 0x3d, 
  0x72, 0x26, 0x8e, 0x3d, 0x8a, 0x5d, 0x96, 0xbd, 0xab, 0x24, 0xab, 0x3d, 
  0x82, 0x5e, 0xdf, 0xbd, 0x47, 0xa3, 0x14, 0x3e, 0x17, 0x58, 0x21, 0x3e, 
  0xaa, 0xcd, 0x94, 0x3d, 0xb3, 0x0b, 0xdc, 0x3d, 0x51, 0x04, 0x08, 0x3e, 
  0x26, 0xe7, 0xdf, 0x3c, 0xa9, 0xf4, 0xbb, 0x3d, 0x24, 0x4d, 0xb4, 0xbd, 
  0x15, 0xf3, 0x20, 0x3e, 0x79, 0x48, 0x52, 0xbd, 0x9a, 0xf8, 0x92, 0x3d, 
  0x69, 0x61, 0x25, 0x3d, 0x02, 0x56, 0x47, 0x3d, 0x55, 0x79, 0xc7, 0xbd, 
  0x34, 0x51, 0x1e, 0x3e, 0x2f, 0x07, 0x02, 0xbe, 0xb5, 0x84, 0x03, 0xbe, 
  0x2f, 0x1e, 0xcb, 0x3d, 0xc3, 0x73, 0x07, 0xbe, 0xd4, 0xd8, 0x3f, 0x3e, 
  0x3a, 0x20, 0xe2, 0x3c, 0xb8, 0x49, 0x08, 0xbe, 0x57, 0xe9, 0x98, 0x3e, 
  0x52, 0x30, 0x02, 0x3e, 0xfd, 0xa5, 0xb3, 0xbd, 0xce, 0xe4, 0x0c, 0x3d, 
  0x5b, 0x52, 0x1b, 0x3e, 0x68, 0xd3, 0xbe, 0xbc, 0x8c, 0x89, 0x29, 0x3e, 
  0xea, 0x2a, 0x7b, 0x3d, 0x92, 0x9c, 0x4d, 0x3e, 0x69, 0x49, 0xd6, 0xbd, 
  0x16, 0xcc, 0x0c, 0x3d, 0x4b, 0xa1, 0x89, 0xbd, 0x80, 0xc3, 0x04, 0xbc, 
  0xa7, 0x0a, 0x83, 0x3a, 0x48, 0x2b, 0x14, 0x3e, 0xca, 0x1e, 0x80, 0xbc, 
  0x20, 0x68, 0x41, 0x3e, 0xb5, 0x11, 0x88, 0x3d, 0xf0, 0x55, 0x9f, 0x3d, 
  0x8f, 0x1e, 0x2d, 0x3d, 0x86, 0xf6, 0xb6, 0x3d, 0x73, 0x07, 0x63, 0x3e, 
  0x0b, 0xcb, 0xdd, 0x3d, 0xde, 0xb2, 0xaa, 0x3d, 0x83, 0x06, 0x91, 0x3e, 
  0xbf, 0xce, 0x00, 0xbd, 0xc0, 0xd3, 0xbd, 0x3d, 0xa3, 0xd8, 0x09, 0x3d, 
  0x7e, 0xf8, 0x15, 0xbe, 0x82, 0x0a, 0xf3, 0x3a, 0x33, 0x37, 0x6b, 0x3e, 
  0x61, 0x77, 0xc2, 0x3d, 0x0a, 0xe2, 0x9c, 0x3e, 0x15, 0xba, 0xd2, 0xbd, 
  0x2f, 0x09, 0xfc, 0x3d, 0x73, 0x67, 0x7a, 0xbd, 0x00, 0xbb, 0xfc, 0x3b, 
  0x10, 0xd7, 0x44, 0xbc, 0x18, 0x7f, 0x3e, 0x3e, 0x62, 0x4f, 0xec, 0xbd, 
  0x78, 0x0c, 0xc1, 0x3d, 0xc8, 0xae, 0xb0, 0xbd, 0x29, 0xd7, 0x2c, 0x3e, 
  0x39, 0x89, 0xb5, 0xbd, 0xda, 0x63, 0x17, 0x3e, 0x8d, 0x63, 0x3d, 0x3d, 
  0x3a, 0x4d, 0x7d, 0xbb, 0xea, 0x5f, 0x6c, 0xbc, 0x5c, 0xe5, 0x0c, 0x3e, 
  0x7f, 0xf1, 0x2a, 0x3e, 0x04, 0x8b, 0x3e, 0xbc, 0x51, 0x20, 0x1a, 0xbe, 
  0x60, 0x3c, 0xe2, 0xbd, 0xc6, 0x3a, 0xf1, 0xbc, 0x51, 0x85, 0x4d, 0x3e, 
  0xc4, 0x8c, 0x0c, 0xbe, 0x2d, 0x47, 0x86, 0x3e, 0xcf, 0x53, 0x0e, 0xbe, 
  0xc8, 0xe3, 0x0e, 0x3e, 0x4b, 0x61, 0x10, 0xbe, 0x32, 0x6d, 0xfd, 0x3d, 
  0x35, 0x9d, 0x0c, 0x3e, 0x8b, 0x67, 0x5a, 0x3e, 0xbe, 0x0d, 0xa1, 0x3d, 
  0x9c, 0x12, 0x83, 0x3d, 0x76, 0xbd, 0x9d, 0x3d, 0x08, 0xf7, 0x0d, 0xbe, 
  0x45, 0xbe, 0x19, 0x3e, 0xc0, 0x93, 0x5a, 0xbd, 0xd7, 0x0b, 0x38, 0x3c, 
  0x7e, 0xf7, 0x69, 0x3e, 0x8b, 0x4c, 0x06, 0xbe, 0xf5, 0x98, 0x96, 0x3d, 
  0x74, 0x9c, 0x98, 0xbd, 0xdd, 0x34, 0x50, 0x3d, 0x7f, 0x96, 0x33, 0xbd, 
  0xe8, 0x88, 0x0c, 0xbe, 0x82, 0x57, 0x8b, 0x3e, 0x90, 0x2a, 0x45, 0x3e, 
  0x38, 0x48, 0xcf, 0x3d, 0xc9, 0xe9, 0xa9, 0x3d, 0x57, 0xed, 0x64, 0xbd, 
  0x5c, 0x76, 0x2c, 0x3c, 0x8a, 0x00, 0xfe, 0x3d, 0x16, 0xe8, 0x0a, 0xbe, 
  0x5a, 0x05, 0x96, 0x3e, 0x9d, 0x3c, 0x81, 0x3e, 0xb6, 0x3c, 0xc9, 0xbd, 
  0x98, 0xcd, 0x6c, 0x3e, 0x53, 0xae, 0xfb, 0xbd, 0x4b, 0xb5, 0x59, 0x3d, 
  0x62, 0xe9, 0x51, 0x3c, 0x66, 0x08, 0x9a, 0xbd, 0x4c, 0x4e, 0x68, 0x3e, 
  0xb8, 0x37, 0x28, 0x3e, 0x57, 0x84, 0x0a, 0x3e, 0xd5, 0xce, 0x2f, 0x3e, 
  0x61, 0x66, 0xa8, 0x3d, 0x20, 0x0c, 0x2b, 0x3e, 0x29, 0x49, 0xe4, 0x3c, 
  0x54, 0xc0, 0x6e, 0x3d, 0x6e, 0x16, 0x05, 0x3e, 0xbe, 0x49, 0x8e, 0x3e, 
  0xcc, 0x1e, 0x0c, 0x3e, 0x57, 0xd5, 0x94, 0x3e, 0xe1, 0x85, 0x2e, 0xbd, 
  0xfd, 0x37, 0x1c, 0x3e, 0x79, 0xde, 0x19, 0x3d, 0x98, 0xea, 0x03, 0xbe, 
  0x05, 0xb2, 0x3c, 0x3d, 0x73, 0xb1, 0x0e, 0x3d, 0x77, 0xac, 0x0a, 0xbe, 
  0x05, 0x66, 0x6a, 0x3e, 0xdc, 0xb2, 0x93, 0x3d, 0xd3, 0x54, 0x01, 0xbe, 
  0x09, 0xad, 0xa1, 0x3d, 0xda, 0x1b, 0xd1, 0x3d, 0x3e, 0xd5, 0xe4, 0xbc, 
  0xb9, 0xc0, 0xdd, 0x3c, 0xdf, 0xeb, 0x22, 0x3e, 0x6a, 0x05, 0xd5, 0x3d, 
  0x36, 0x0d, 0xd8, 0xbd, 0x68, 0x41, 0x4e, 0x3c, 0x2c, 0x1f, 0x1c, 0xbe, 
  0x26, 0x0f, 0xc7, 0x3d, 0x0b, 0x32, 0x95, 0x3e, 0x95, 0xa3, 0x2b, 0x3e, 
  0xa3, 0x45, 0x89, 0x3d, 0x97, 0x14, 0x29, 0xba, 0x88, 0xdf, 0x2d, 0xbd, 
  0xd7, 0x0e, 0xe5, 0xbd, 0xa5, 0xcc, 0x27, 0x3e, 0x4c, 0x33, 0x27, 0xbd, 
  0x4c, 0x8e, 0x6c, 0x3e, 0x5e, 0x72, 0x74, 0x3e, 0xa8, 0x2f, 0x22, 0x3e, 
  0xb4, 0xbd, 0x89, 0x3d, 0x37, 0x71, 0x29, 0x3e, 0xc5, 0x08, 0x8c, 0x3d, 
  0x15, 0xd4, 0x8c, 0xbd, 0x18, 0x5f, 0xfa, 0xbc, 0x62, 0x09, 0x50, 0x3e, 
  0x34, 0x5e, 0x73, 0x3e, 0x4f, 0x7b, 0x43, 0xbd, 0x0d, 0x01, 0x9b, 0x3e, 
  0xaa, 0x42, 0xec, 0x3d, 0x89, 0x49, 0x9c, 0xbd, 0x32, 0x60, 0xad, 0xbd, 
  0x68, 0xc8, 0xff, 0xbc, 0xfa, 0x2d, 0x73, 0x3e, 0x73, 0x7e, 0x5b, 0x3c, 
  0xb2, 0x3e, 0xc1, 0xbd, 0xf2, 0x79, 0x9b, 0x3e, 0x07, 0x82, 0x28, 0xbd, 
  0x5f, 0x32, 0x13, 0xbe, 0x19, 0x94, 0xf1, 0x3d, 0xb4, 0x2a, 0x2c, 0x3d, 
  0x6e, 0x7a, 0x7f, 0x3d, 0x86, 0xfc, 0xe8, 0x3d, 0x3b, 0x5d, 0xf9, 0xbd, 
  0xbc, 0x0d, 0xcb, 0x3d, 0xa3, 0xb4, 0x04, 0x3e, 0x40, 0x68, 0xd2, 0x3d, 
  0x85, 0x38, 0xa8, 0xbd, 0xf2, 0xc0, 0xad, 0x3d, 0xad, 0xb7, 0x13, 0x3e, 
  0xd1, 0x5b, 0xa2, 0x3a, 0xb4, 0x31, 0x5f, 0x3d, 0x1c, 0xef, 0x8b, 0x3e, 
  0x19, 0x5b, 0x35, 0x3d, 0x08, 0x2a, 0x0b, 0xbd, 0x97, 0xd5, 0x90, 0x3d, 
  0xea, 0x0d, 0x99, 0x3d, 0xd6, 0xb0, 0x8b, 0x3e, 0x23, 0xaa, 0xb6, 0x3d, 
  0xe1, 0x6d, 0x08, 0x3e, 0xc3, 0xe2, 0x39, 0x3e, 0xb3, 0x0b, 0x11, 0xbe, 
  0x44, 0x04, 0x00, 0xbe, 0xc4, 0xc4, 0x8b, 0x3d, 0x16, 0x90, 0xfc, 0xbd, 
  0xa4, 0xc8, 0x17, 0x3e, 0x12, 0x1c, 0x95, 0x3e, 0xc4, 0x07, 0xb0, 0x3d, 
  0x2b, 0x74, 0xcc, 0x3d, 0x85, 0xe4, 0x6a, 0xbd, 0x83, 0x2f, 0x70, 0xbd, 
  0xd5, 0x5c, 0x95, 0x3c, 0xaf, 0xd7, 0x01, 0x3e, 0x87, 0xe2, 0x2a, 0x3e, 
  0xcd, 0xbb, 0x5b, 0x3e, 0x71, 0xb2, 0x18, 0xbb, 0x28, 0xfe, 0x81, 0x3d, 
  0x4a, 0xb7, 0xb8, 0xbc, 0x20, 0x7c, 0x03, 0xbe, 0xcb, 0x27, 0x3a, 0xbd, 
  0x13, 0x8d, 0x04, 0xbe, 0x9c, 0xd6, 0x81, 0x3d, 0x25, 0x11, 0x3b, 0x3e, 
  0xa7, 0x22, 0xbf, 0xbd, 0x25, 0xa5, 0x69, 0x3e, 0xb9, 0x44, 0xe4, 0xbd, 
  0x3e, 0xfd, 0x76, 0xbd, 0x9b, 0x31, 0x97, 0xbd, 0x50, 0x8c, 0x2e, 0x3c, 
  0xe2, 0xe9, 0x4c, 0x3d, 0xa3, 0x32, 0xde, 0x3d, 0xb8, 0x3f, 0x5f, 0xbd, 
  0x94, 0x5f, 0xbf, 0x3c, 0x16, 0x92, 0x1c, 0x3e, 0x5e, 0xe2, 0xb2, 0xbd, 
  0xc5, 0xa9, 0xa0, 0xbd, 0xb0, 0x56, 0x8f, 0xbd, 0x10, 0xfe, 0x84, 0x3e, 
  0xd7, 0x33, 0xd4, 0x3d, 0x0d, 0x91, 0xfb, 0x3b, 0x38, 0x55, 0x59, 0x3d, 
  0x37, 0x88, 0x96, 0x3d, 0xbb, 0x76, 0xc6, 0xbc, 0xfb, 0x75, 0xd3, 0x3b, 
  0x4a, 0xa6, 0xff, 0x3d, 0xb1, 0xbb, 0x3b, 0x3e, 0x66, 0x4b, 0x83, 0x3d, 
  0x7c, 0x46, 0x09, 0x3e, 0xb7, 0x3d, 0xa1, 0x3e, 0xca, 0xd0, 0x4f, 0x3d, 
  0x7f, 0xeb, 0x23, 0xbe, 0xbc, 0xdd, 0x25, 0xbc, 0xf4, 0xd0, 0x6a, 0x3d, 
  0x9a, 0x8a, 0x60, 0x3e, 0x00, 0x49, 0xa8, 0x3d, 0xf7, 0xe9, 0xa5, 0x3d, 
  0x75, 0xff, 0x0a, 0x3e, 0xb8, 0xa0, 0xe5, 0x3d, 0xaf, 0x7c, 0xe7, 0x3d, 
  0xa6, 0xa4, 0x18, 0x3c, 0xa2, 0xc7, 0xe0, 0x3d, 0xa5, 0xa2, 0xc4, 0x3c, 
  0xab, 0x0f, 0x8f, 0x3d, 0x47, 0x6e, 0xee, 0x3d, 0x0f, 0xce, 0x7b, 0x3d, 
  0x53, 0xa0, 0xf7, 0x3c, 0xa0, 0x58, 0x1f, 0xbd, 0x0b, 0x63, 0x58, 0x3d, 
  0x14, 0x6e, 0x04, 0xbd, 0x49, 0x31, 0x58, 0xbe, 0xd7, 0x20, 0x5c, 0xbe, 
  0xf9, 0x2f, 0x35, 0x3e, 0xd5, 0xc4, 0xc9, 0xbb, 0x17, 0x47, 0x08, 0x3e, 
  0xf9, 0xd6, 0x36, 0x3d, 0xdc, 0x73, 0xd2, 0x3c, 0x40, 0x98, 0xc6, 0xbc, 
  0x30, 0x78, 0x68, 0xbe, 0x7d, 0x52, 0xaa, 0xbb, 0xc3, 0xb2, 0xd2, 0xbd, 
  0x81, 0x09, 0x4f, 0xbe, 0x81, 0x5f, 0xac, 0x3d, 0xe5, 0x4f, 0x19, 0x3e, 
  0x44, 0xa6, 0xe3, 0x3c, 0x56, 0x11, 0xa1, 0xbd, 0x70, 0xd6, 0x41, 0xbe, 
  0x49, 0x49, 0x27, 0xbe, 0x1d, 0x1b, 0x02, 0x3e, 0xf1, 0x66, 0xf7, 0xbd, 
  0x2e, 0x7c, 0xa8, 0xbd, 0xa9, 0x01, 0xa7, 0xbd, 0x82, 0xca, 0xdd, 0xbc, 
  0x21, 0x81, 0x13, 0x3e, 0x46, 0xec, 0x8c, 0xbd, 0xc0, 0x6c, 0xcd, 0xbd, 
  0x85, 0x0c, 0x1e, 0x3e, 0xe0, 0x30, 0xbd, 0xbc, 0xdc, 0x87, 0xbd, 0x3d, 
  0x2b, 0x5d, 0xda, 0xbd, 0x44, 0xa1, 0x10, 0x3e, 0x98, 0x55, 0xee, 0xbc, 
  0x79, 0xdb, 0x3e, 0xbe, 0x42, 0xbb, 0x82, 0xbc, 0x43, 0xc7, 0xae, 0x3d, 
  0xcf, 0x62, 0xa8, 0xbc, 0x19, 0x0d, 0x37, 0xbd, 0x33, 0x82, 0x1d, 0x3e, 
  0xce, 0x87, 0x29, 0x3e, 0xa8, 0xb2, 0x84, 0x3c, 0x1d, 0x74, 0x5f, 0xbe, 
  0x50, 0x3a, 0x30, 0xbe, 0x57, 0xa6, 0x80, 0xbd, 0x3d, 0xa2, 0x8f, 0xbe, 
  0x19, 0x9f, 0x0d, 0x3e, 0xb9, 0xe4, 0xe2, 0x3d, 0x5d, 0x10, 0x02, 0x3e, 
  0x98, 0xed, 0xaa, 0xbc, 0x68, 0x3f, 0xd0, 0xbd, 0x0a, 0xa9, 0x8b, 0xbd, 
  0x59, 0x79, 0x6a, 0xbd, 0x1b, 0x82, 0x86, 0xbe, 0x7a, 0xc8, 0x72, 0x3c, 
  0x85, 0x0f, 0x34, 0x3e, 0x66, 0x83, 0xf8, 0xbc, 0x20, 0x15, 0x4f, 0xbd, 
  0xdb, 0xe1, 0xad, 0xbc, 0x66, 0xfe, 0x19, 0xbe, 0x0d, 0x30, 0xf9, 0x3d, 
  0x80, 0xb2, 0x60, 0xbc, 0x19, 0x7b, 0x75, 0x3d, 0xaa, 0x02, 0x3d, 0x3e, 
  0x32, 0x46, 0x83, 0x3d, 0xea, 0x33, 0xb4, 0x3d, 0x96, 0x2a, 0xb5, 0xb9, 
  0x3c, 0x31, 0x07, 0xbe, 0xe1, 0xd7, 0x93, 0xbc, 0x8a, 0x84, 0x8b, 0xbe, 
  0x45, 0x84, 0xaf, 0x3d, 0x72, 0xfe, 0xf3, 0x3d, 0x46, 0xb6, 0xff, 0xff, 
  0x04, 0x00, 0x00, 0x00, 0x00, 0x48, 0x00, 0x00, 0xff, 0xb2, 0x9c, 0x3c, 
  0xd7, 0x8c, 0xa3, 0x3d, 0x7f, 0x26, 0x16, 0xbc, 0xf3, 0x20, 0xb9, 0x3c, 
  0x49, 0x74, 0xdd, 0x3d, 0xc2, 0x39, 0xe5, 0xbc, 0x4b, 0xfc, 0x2e, 0x3d, 
  0x37, 0x4a, 0x9a, 0x3d, 0xac, 0xc3, 0x16, 0xbd, 0x08, 0xe2, 0x1a, 0x3c, 
  0xd4, 0xb3, 0xe2, 0x3d, 0xea, 0xff, 0xe6, 0x3c, 0x24, 0x5a, 0x94, 0x3b, 
  0x1c, 0xd0, 0x81, 0x3c, 0x6f, 0x89, 0x22, 0x3e, 0xdd, 0xc7, 0xcc, 0xbc, 
  0xd1, 0x3f, 0x49, 0x3c, 0x6b, 0x56, 0x08, 0x3e, 0x45, 0x02, 0x14, 0x3b, 
  0x2a, 0x1f, 0x46, 0x3e, 0xf0, 0xf5, 0x72, 0xbd, 0xe4, 0x2b, 0x26, 0x3c, 
  0x9c, 0xb9, 0x9f, 0x3d, 0xcc, 0xdc, 0x3b, 0xbd, 0x53, 0x4f, 0xbe, 0x3c, 
  0xf9, 0x3e, 0x41, 0xbc, 0xa0, 0x04, 0x0e, 0x3e, 0xa4, 0x4b, 0x06, 0x3e, 
  0x57, 0x00, 0x8e, 0x3c, 0x9d, 0x3b, 0x69, 0x3e, 0x7e, 0x10, 0xa6, 0x3d, 
  0x22, 0xc7, 0xc5, 0xbd, 0x81, 0xf6, 0xa5, 0xbd, 0x9b, 0x34, 0xf9, 0x3d, 
  0x53, 0xda, 0xb3, 0xbd, 0x71, 0xd2, 0x17, 0x3e, 0x64, 0x42, 0x3b, 0xbd, 
  0x95, 0x13, 0x3e, 0x3e, 0x8d, 0x37, 0xd1, 0x3d, 0xc4, 0xf6, 0x13, 0x3e, 
  0x84, 0x05, 0xd2, 0x3d, 0x81, 0xf0, 0x21, 0x3e, 0xf2, 0xac, 0x39, 0x3d, 
  0xa7, 0x53, 0x0c, 0x3e, 0xdb, 0xe9, 0x24, 0x3e, 0xb5, 0x95, 0xec, 0x3c, 
  0x66, 0x11, 0xc4, 0x3d, 0xa3, 0x7e, 0xb0, 0xbc, 0xf2, 0xe0, 0x98, 0x3d, 
  0xb8, 0xf4, 0x90, 0x3d, 0x97, 0x05, 0x0a, 0x3d, 0xe9, 0x1c, 0x48, 0x3e, 
  0x10, 0x2e, 0x1c, 0xbd, 0x26, 0x65, 0x96, 0x3d, 0x4f, 0xd0, 0xf0, 0x3b, 
  0x40, 0x8a, 0xa4, 0xba, 0xc1, 0x95, 0xa1, 0x3d, 0xb2, 0x13, 0x02, 0x3e, 
  0x69, 0x79, 0xe6, 0x3d, 0x16, 0xfe, 0xc8, 0x3d, 0xca, 0x81, 0xea, 0x3d, 
  0x8f, 0x7f, 0x9c, 0x3c, 0xa0, 0x29, 0x28, 0x3e, 0xc2, 0x19, 0x98, 0xbd, 
  0x57, 0x94, 0xc1, 0x3c, 0xc2, 0x99, 0x15, 0x3e, 0x75, 0x1c, 0xd6, 0xbd, 
  0xaa, 0xe2, 0xbf, 0xbc, 0x4e, 0x53, 0x91, 0x3c, 0x04, 0x2b, 0x1f, 0x3e, 
  0xd8, 0x46, 0x20, 0x3e, 0x6e, 0xc1, 0x18, 0x3d, 0x2a, 0x4a, 0xa3, 0x3c, 
  0x76, 0xff, 0x33, 0x3d, 0x6d, 0xd8, 0xbc, 0x3d, 0xaa, 0x66, 0xcd, 0x3d, 
  0xcd, 0xec, 0xc0, 0x3c, 0x43, 0x8c, 0x1d, 0x3e, 0x66, 0xb2, 0xe0, 0x3c, 
  0x01, 0x96, 0xa4, 0xbd, 0xac, 0x50, 0x04, 0x3c, 0x3e, 0x8b, 0x7a, 0x3e, 
  0x5e, 0x3b, 0xa3, 0x3d, 0x61, 0x7e, 0x8d, 0xbc, 0x13, 0x1e, 0x9f, 0x3d, 
  0x2f, 0x09, 0x5b, 0x3c, 0xc3, 0x6e, 0x8e, 0xbc, 0x62, 0xab, 0x32, 0xbd, 
  0x51, 0x69, 0x53, 0x3c, 0xd6, 0x7b, 0xf1, 0x3d, 0x9d, 0x7c, 0x32, 0xbc, 
  0x98, 0x02, 0x9d, 0x3d, 0xe3, 0xcd, 0x2f, 0x3e, 0x90, 0x05, 0xb2, 0x3d, 
  0x8f, 0xa6, 0x14, 0x3e, 0x53, 0x2a, 0x2c, 0x3d, 0x4f, 0xbd, 0x6c, 0xbd, 
  0xd9, 0xab, 0x6a, 0x3e, 0x2c, 0xb9, 0x86, 0xbc, 0x2e, 0x0d, 0x39, 0x3e, 
  0x22, 0x3f, 0x22, 0xbd, 0xf2, 0x49, 0x26, 0x3e, 0xb5, 0x27, 0x68, 0xbd, 
  0xdb, 0x29, 0x6b, 0x3d, 0xe2, 0x9c, 0x6a, 0x3d, 0x91, 0x97, 0x3b, 0xbc, 
  0xc8, 0xef, 0x1c, 0x3e, 0x37, 0xe5, 0x95, 0x3c, 0xa4, 0x6a, 0x1d, 0x3d, 
  0x00, 0xa6, 0x5e, 0x3d, 0x76, 0xc0, 0x23, 0x3e, 0xcd, 0x34, 0xaa, 0xbd, 
  0xff, 0x6d, 0xbc, 0x3d, 0xce, 0x21, 0x90, 0x3d, 0xac, 0xc3, 0xa9, 0xbd, 
  0xfb, 0x9f, 0x35, 0x3e, 0xe9, 0xc1, 0xa9, 0x3d, 0x19, 0x66, 0x6d, 0x3d, 
  0x8e, 0x8b, 0x1f, 0x3e, 0xea, 0x50, 0x94, 0xba, 0x67, 0xbd, 0xeb, 0x3d, 
  0xab, 0x89, 0x03, 0x3e, 0xdd, 0x97, 0x2f, 0x3e, 0x52, 0x04, 0x00, 0x3e, 
  0x71, 0x1e, 0x04, 0x3e, 0x20, 0x12, 0x9d, 0x3d, 0xd0, 0x5c, 0x06, 0xbc, 
  0x0d, 0xa3, 0xcb, 0xbc, 0x24, 0xc8, 0x12, 0xbc, 0x96, 0xd1, 0x1c, 0x3e, 
  0x2e, 0x18, 0x2e, 0x3d, 0xeb, 0x9c, 0x2b, 0x3d, 0x91, 0xb1, 0x91, 0xbd, 
  0x27, 0x5a, 0x43, 0x3e, 0x0d, 0xce, 0x94, 0xbc, 0x7f, 0x3a, 0x06, 0x3e, 
  0x28, 0x76, 0xf3, 0xbc, 0x37, 0x94, 0x3f, 0x3e, 0x80, 0x0f, 0x5e, 0x3d, 
  0xf5, 0x7b, 0x3b, 0x3e, 0xfd, 0x35, 0x0e, 0x3e, 0xea, 0xb2, 0x57, 0x3d, 
  0x7e, 0x26, 0xeb, 0x3d, 0x3a, 0xdf, 0xa2, 0x3d, 0x74, 0x12, 0xd1, 0xbb, 
  0x63, 0xb2, 0xd1, 0xbd, 0x95, 0x36, 0xcf, 0xbd, 0x30, 0xf5, 0x9b, 0xbd, 
  0xe6, 0x2a, 0x0d, 0x3e, 0xf2, 0xdc, 0xd6, 0xbc, 0xba, 0x4e, 0x60, 0x3d, 
  0x4a, 0x83, 0xfc, 0x3d, 0x09, 0xc9, 0x78, 0x3c, 0xdc, 0x69, 0xfb, 0xbd, 
  0xe5, 0xed, 0xb0, 0xbb, 0x99, 0x0e, 0xf9, 0xbd, 0x52, 0x68, 0x52, 0xbe, 
  0xcc, 0xf9, 0xab, 0xbd, 0x66, 0x09, 0x1d, 0xbe, 0x71, 0x44, 0xa6, 0x3d, 
  0x8b, 0xbf, 0x1c, 0x3e, 0x6f, 0xcf, 0x53, 0xbe, 0x9f, 0x00, 0x56, 0xbd, 
  0x28, 0x70, 0xbb, 0xbb, 0xcd, 0x23, 0x71, 0x3c, 0x23, 0x7b, 0xef, 0xbd, 
  0x2b, 0xc4, 0xf9, 0xbd, 0x05, 0xc7, 0xda, 0x3d, 0xcb, 0xf8, 0xd3, 0xbd, 
  0xea, 0x1c, 0xa3, 0xbd, 0xa0, 0xb5, 0x2d, 0x3b, 0xa7, 0x5d, 0xbf, 0xbd, 
  0xd8, 0x78, 0x37, 0xbe, 0x33, 0xab, 0x00, 0xbe, 0xba, 0x4c, 0x80, 0x3d, 
  0x5a, 0xb1, 0x07, 0x3e, 0xf8, 0xad, 0x18, 0x3e, 0x8a, 0xca, 0x03, 0xbe, 
  0xd6, 0xed, 0x89, 0x3d, 0xd9, 0x4f, 0x56, 0xbd, 0x81, 0xfb, 0xdd, 0x3c, 
  0x10, 0x14, 0x0c, 0xbe, 0x29, 0x9d, 0xe5, 0x3c, 0x3c, 0x1d, 0x05, 0xbd, 
  0x94, 0xb9, 0xe7, 0x3d, 0xc6, 0xa2, 0x58, 0x3c, 0x85, 0x74, 0xf8, 0xbd, 
  0x49, 0xca, 0x0d, 0xbe, 0xe5, 0x38, 0x00, 0xbd, 0x9f, 0xed, 0xfa, 0xbd, 
  0xd0, 0xd5, 0xf7, 0xbd, 0xcc, 0x86, 0x31, 0x3d, 0x20, 0xbb, 0x53, 0x3d, 
  0x13, 0xc5, 0xa1, 0xbd, 0xe5, 0xe8, 0x48, 0xbd, 0x48, 0xbc, 0x21, 0xbd, 
  0xc8, 0xae, 0x22, 0xbc, 0x71, 0xcf, 0x62, 0x3d, 0x77, 0xd2, 0xac, 0xbd, 
  0x38, 0x2f, 0x8e, 0x3d, 0x2e, 0x17, 0x9f, 0x3c, 0xf4, 0x9e, 0xc8, 0x3a, 
  0x3b, 0x81, 0x2d, 0xbd, 0xf0, 0x4a, 0x70, 0xbd, 0xe1, 0xe6, 0xef, 0xbd, 
  0xef, 0x08, 0x63, 0xbe, 0x0e, 0x71, 0x41, 0x3d, 0xb3, 0xcf, 0xcd, 0x3d, 
  0xda, 0x7b, 0x43, 0xbd, 0x8f, 0x3c, 0x1c, 0xbd, 0x62, 0xd1, 0x92, 0x3d, 
  0xb4, 0x2c, 0x58, 0x3d, 0x7e, 0x94, 0xc2, 0x3d, 0x9a, 0x7f, 0x9b, 0xbd, 
  0xbe, 0x43, 0x3f, 0x3d, 0x49, 0x59, 0x5a, 0xbc, 0x3f, 0xc4, 0x92, 0x3d, 
  0x52, 0x80, 0x20, 0x3c, 0x11, 0x27, 0xdf, 0xbd, 0x6f, 0x15, 0x1e, 0xbe, 
  0xb6, 0xcc, 0x0d, 0xbe, 0x50, 0x2b, 0x16, 0xbc, 0xad, 0xd0, 0xe5, 0x3b, 
  0x88, 0x88, 0x12, 0x3e, 0x9c, 0x62, 0xfa, 0x3d, 0x1b, 0xd5, 0x3e, 0xbe, 
  0xeb, 0x52, 0xf9, 0xbd, 0x3e, 0xe5, 0xfd, 0xbd, 0xe9, 0x53, 0xfc, 0x3d, 
  0xa8, 0x9d, 0xdc, 0xbc, 0x31, 0x60, 0x78, 0x3d, 0x07, 0x91, 0xc2, 0xbd, 
  0x73, 0x61, 0x84, 0xbd, 0xc1, 0xff, 0xa4, 0xbd, 0x2f, 0x04, 0x10, 0xbe, 
  0xd7, 0x09, 0x2c, 0xbe, 0x59, 0x76, 0x02, 0xbe, 0x59, 0x79, 0xd3, 0xbc, 
  0x9e, 0xb8, 0xe3, 0xbd, 0x04, 0x26, 0x80, 0x3b, 0x31, 0xc6, 0x9c, 0x3c, 
  0xe0, 0xe9, 0x88, 0xbd, 0xfb, 0xe4, 0x35, 0x3d, 0xca, 0xfc, 0xc0, 0xbd, 
  0x9e, 0xb2, 0xaa, 0x3d, 0x74, 0x09, 0x5f, 0x3d, 0x3c, 0x75, 0xe6, 0x3a, 
  0xab, 0xe5, 0xc2, 0x3d, 0x40, 0xfa, 0xf8, 0x3c, 0xc6, 0x28, 0x0b, 0xbd, 
  0x7a, 0x55, 0xe3, 0xbd, 0xfd, 0xbb, 0x5e, 0xbd, 0x60, 0x56, 0x55, 0xbe, 
  0xf7, 0xec, 0xe4, 0xbd, 0x67, 0xc5, 0x9b, 0xbd, 0x1e, 0x75, 0x1a, 0x3d, 
  0x7d, 0xeb, 0x0e, 0xbd, 0xfb, 0xe4, 0x17, 0xbe, 0xd2, 0xe7, 0xb5, 0x3c, 
  0x48, 0x13, 0xdf, 0xbd, 0x3a, 0x12, 0xd2, 0x3d, 0x48, 0x3a, 0x9f, 0x3b, 
  0x09, 0x21, 0x8f, 0xbd, 0x07, 0xe8, 0x03, 0x3e, 0x4f, 0xb0, 0xd6, 0x3d, 
  0x5e, 0xfe, 0x4a, 0x3d, 0xbc, 0x62, 0x54, 0xbd, 0x82, 0xcb, 0x33, 0xbb, 
  0xf8, 0xed, 0xe7, 0xbd, 0xaf, 0x43, 0x88, 0x3b, 0x54, 0x71, 0xd3, 0xbd, 
  0xbe, 0xf2, 0x8c, 0x3d, 0x07, 0xb9, 0xc8, 0x3d, 0xa4, 0xfd, 0xdf, 0xbd, 
  0x04, 0x99, 0xc9, 0xbb, 0x6b, 0x53, 0x0f, 0xbe, 0x7e, 0xd6, 0x13, 0x3e, 
  0x62, 0xf5, 0x5c, 0xbc, 0xb8, 0x7a, 0x42, 0x3d, 0x12, 0x04, 0x94, 0xbd, 
  0xcb, 0xa9, 0x81, 0x3d, 0xb9, 0x09, 0x51, 0xbb, 0x8a, 0x03, 0x29, 0xbe, 
  0x52, 0xe3, 0x45, 0xbe, 0x80, 0xc3, 0x9f, 0xbd, 0x16, 0xb4, 0x40, 0xbe, 
  0x85, 0x13, 0x09, 0xbe, 0x8e, 0x69, 0x6a, 0x3c, 0xf9, 0x25, 0x37, 0x3c, 
  0x06, 0xb3, 0xc9, 0x3c, 0x8b, 0x7e, 0xc0, 0xbd, 0x1e, 0xdf, 0x4e, 0x3e, 
  0xb7, 0xb6, 0xd8, 0x3d, 0xc5, 0xf4, 0x14, 0x3e, 0x68, 0x98, 0x58, 0x3d, 
  0xff, 0x7a, 0x94, 0x3d, 0x16, 0x8f, 0x53, 0xbc, 0x02, 0x22, 0x44, 0x3e, 
  0x80, 0x6f, 0x7e, 0x3d, 0x2e, 0x42, 0xcc, 0x3c, 0xc6, 0x94, 0x90, 0x3b, 
  0xca, 0xf3, 0x31, 0x3e, 0xde, 0xec, 0x24, 0xbd, 0x44, 0xeb, 0x05, 0x3b, 
  0xfb, 0xdd, 0x0c, 0xbd, 0x40, 0xc0, 0x6f, 0x3d, 0x92, 0xfb, 0xef, 0x3d, 
  0x6f, 0x76, 0x3d, 0x3d, 0x07, 0x21, 0x7d, 0xbd, 0xf0, 0xa4, 0x2e, 0x3e, 
  0x40, 0xd5, 0x0a, 0x3e, 0xb6, 0x66, 0x36, 0x3d, 0xfa, 0xd2, 0x0a, 0xbb, 
  0xe4, 0x9d, 0xb9, 0x3c, 0x3e, 0x8e, 0x04, 0x3e, 0x8f, 0x7d, 0xb7, 0x3d, 
  0x35, 0x5d, 0x7d, 0x3b, 0xd1, 0xd0, 0x06, 0x3e, 0x83, 0x0d, 0x80, 0xbd, 
  0x5f, 0xe3, 0x9a, 0x3c, 0xbc, 0xb6, 0x85, 0xbb, 0xbf, 0xdc, 0x34, 0x3e, 
  0x60, 0x77, 0x73, 0xbd, 0x76, 0x24, 0x47, 0x3e, 0x09, 0x64, 0xdc, 0xbd, 
  0xb5, 0x88, 0x3d, 0x3e, 0x8d, 0xf9, 0xba, 0x3d, 0x5d, 0xc2, 0xb5, 0x3d, 
  0x13, 0x26, 0x82, 0xbd, 0xa7, 0xe8, 0x25, 0x3e, 0x15, 0x56, 0x9a, 0x3d, 
  0xbe, 0x7e, 0x76, 0x3e, 0xd5, 0x37, 0x1d, 0x3e, 0x24, 0x2c, 0x89, 0xbc, 
  0x03, 0xc4, 0x07, 0x3e, 0x86, 0x93, 0x40, 0xbd, 0x28, 0x25, 0xd1, 0xbd, 
  0x77, 0xca, 0x31, 0x3e, 0xb3, 0xee, 0x9e, 0x3d, 0xd5, 0x29, 0x83, 0x3d, 
  0x54, 0x5d, 0x32, 0xbb, 0x43, 0xe2, 0x39, 0x3e, 0xd9, 0x34, 0x5c, 0x3d, 
  0x6c, 0xff, 0x74, 0x3d, 0x93, 0xa4, 0xa2, 0xbd, 0xbd, 0x9b, 0x64, 0x3d, 
  0x30, 0x5d, 0x28, 0x3e, 0x9f, 0x88, 0x6b, 0x3e, 0xe8, 0xf4, 0xfc, 0x3d, 
  0x57, 0x77, 0x01, 0x3e, 0x70, 0x1f, 0xfc, 0x3d, 0xb6, 0x0f, 0x2e, 0x3b, 
  0x68, 0xed, 0x78, 0x3d, 0xf3, 0x59, 0xb3, 0x3d, 0x61, 0x25, 0xc3, 0xbc, 
  0x03, 0xdb, 0xc7, 0xbb, 0x3e, 0x36, 0xaf, 0xbd, 0x09, 0x0e, 0xe0, 0x3d, 
  0xb3, 0x20, 0xc8, 0x3d, 0xca, 0x72, 0xd1, 0x3d, 0x6b, 0xf2, 0xda, 0xbd, 
  0xd4, 0xc2, 0x8b, 0x3d, 0x99, 0x91, 0x48, 0x3e, 0x14, 0x06, 0x4c, 0x3e, 
  0x73, 0xbe, 0x13, 0xbb, 0x58, 0x0b, 0x16, 0x3d, 0x0c, 0x5a, 0xfc, 0x3d, 
  0xe5, 0x3e, 0xda, 0xbd, 0x81, 0xe5, 0xb5, 0xbd, 0xd1, 0xcb, 0x22, 0x3e, 
  0xf4, 0x79, 0xa5, 0x3d, 0x43, 0x36, 0x2b, 0x3e, 0x6b, 0x2d, 0x7b, 0x3d, 
  0xc0, 0x0e, 0x00, 0x3d, 0xbc, 0x99, 0x2b, 0x3e, 0x08, 0x8e, 0x98, 0x3d, 
  0x73, 0xf5, 0xcd, 0xba, 0xed, 0x99, 0x70, 0x3d, 0x91, 0x82, 0xa1, 0xbc, 
  0xf0, 0xe1, 0x25, 0x3e, 0xd5, 0x4c, 0x21, 0x3e, 0x2f, 0x74, 0x0e, 0xbb, 
  0x38, 0x38, 0x06, 0x3e, 0x90, 0x8b, 0x0f, 0x3d, 0xab, 0x66, 0xe7, 0xbc, 
  0x0e, 0x48, 0x4a, 0x3e, 0xf5, 0x1e, 0xd2, 0xbd, 0x05, 0x9d, 0x23, 0x3e, 
  0x32, 0x4a, 0xcc, 0x3d, 0x41, 0x3d, 0xa5, 0xbc, 0xd6, 0x8a, 0xc0, 0x3d, 
  0x76, 0xc7, 0xf8, 0x3d, 0x4f, 0x6f, 0xab, 0x3c, 0x73, 0x95, 0x4c, 0x3e, 
  0x04, 0x17, 0x20, 0x3e, 0x09, 0xfd, 0x77, 0x3c, 0x01, 0x94, 0x11, 0x3e, 
  0x81, 0x63, 0x1a, 0x3d, 0x6f, 0xf8, 0xef, 0x3d, 0x04, 0xe5, 0x8b, 0xbb, 
  0x28, 0xe5, 0x68, 0xbd, 0x2b, 0x83, 0x22, 0x3e, 0x27, 0x77, 0x34, 0x3d, 
  0x50, 0x1c, 0x13, 0x3d, 0xe5, 0xb4, 0x89, 0x3d, 0x19, 0xd3, 0x1f, 0x3e, 
  0x7b, 0xdf, 0x3e, 0xbc, 0x73, 0x69, 0xdf, 0x3c, 0x0f, 0x5a, 0x9e, 0x3d, 
  0x56, 0x9e, 0x43, 0x3e, 0xf6, 0x5d, 0x57, 0x3d, 0x73, 0x67, 0x30, 0x3d, 
  0x06, 0x9c, 0x34, 0x3d, 0xc7, 0xf0, 0x7b, 0x3d, 0x25, 0x0a, 0x01, 0x3e, 
  0xb9, 0xda, 0xa0, 0xbd, 0x5b, 0x76, 0x6d, 0x3d, 0x2f, 0x6b, 0x4b, 0xbc, 
  0x84, 0x5a, 0xc9, 0x3d, 0x79, 0x2a, 0x94, 0x3c, 0x71, 0xea, 0x99, 0xbb, 
  0x06, 0xc0, 0x54, 0x3d, 0x1e, 0x48, 0xc7, 0x3d, 0x96, 0x15, 0xe4, 0x3d, 
  0x5d, 0x2c, 0x2f, 0x3d, 0x70, 0x8a, 0xc4, 0x3d, 0x1c, 0x46, 0x8d, 0x3d, 
  0xa8, 0x7c, 0x1d, 0x3e, 0x6b, 0xb3, 0xee, 0x3c, 0x32, 0x79, 0x71, 0x3c, 
  0x92, 0x69, 0x50, 0x3c, 0x23, 0x49, 0x1c, 0x3d, 0x8c, 0x5b, 0x31, 0xbd, 
  0x91, 0x2b, 0xde, 0xbd, 0x00, 0x3b, 0x8f, 0xbb, 0x2a, 0x37, 0x96, 0xbd, 
  0xa4, 0x09, 0xa3, 0xbd, 0x7b, 0x1c, 0x80, 0xbc, 0x02, 0x49, 0x15, 0x3d, 
  0xa8, 0x7b, 0x98, 0x3c, 0xba, 0x0c, 0x41, 0x3d, 0x6d, 0x31, 0x51, 0x3c, 
  0xb3, 0xd1, 0x67, 0x3d, 0xd6, 0x9f, 0x92, 0xbd, 0x94, 0x40, 0x77, 0xbc, 
  0xaf, 0xe3, 0xac, 0x3d, 0x4f, 0x15, 0x63, 0x3d, 0xe9, 0x4a, 0xa7, 0x3d, 
  0x84, 0x8e, 0xc2, 0xbb, 0xc0, 0x70, 0xd9, 0x3d, 0xc0, 0xef, 0x80, 0x3b, 
  0x86, 0x6c, 0x3b, 0xbd, 0x34, 0x95, 0xb8, 0xbb, 0x8a, 0x6f, 0x74, 0x3d, 
  0x95, 0xa2, 0xaa, 0xbd, 0x2f, 0xa1, 0x4f, 0xbd, 0xc6, 0x61, 0x4c, 0x3d, 
  0xc5, 0xd1, 0xf0, 0xbd, 0x9a, 0xc4, 0x41, 0x3c, 0x19, 0xec, 0xe5, 0xbd, 
  0x04, 0x91, 0x8c, 0xbd, 0xd2, 0xaf, 0xa3, 0x3d, 0xd4, 0xc8, 0xfd, 0xbc, 
  0xc7, 0xc2, 0x86, 0x3d, 0x1d, 0x50, 0x5b, 0xbc, 0x10, 0xeb, 0xa9, 0x3a, 
  0x9e, 0xc4, 0x73, 0x3d, 0x6e, 0x88, 0x7f, 0x3d, 0xa7, 0x31, 0x98, 0xbb, 
  0xe3, 0x8c, 0xb3, 0xbd, 0x75, 0x33, 0xc9, 0x3d, 0xa7, 0x0b, 0x34, 0xbd, 
  0x0e, 0x71, 0x86, 0xbd, 0xdc, 0x5a, 0xd4, 0x3d, 0x02, 0x1e, 0xb8, 0xba, 
  0xbe, 0x97, 0x99, 0x3d, 0xf7, 0x33, 0xda, 0x3d, 0xab, 0xf4, 0xfb, 0xbd, 
  0xc4, 0x2d, 0xfb, 0x3c, 0x95, 0x9c, 0xd2, 0xbd, 0xf1, 0x6a, 0x5f, 0x3d, 
  0xef, 0xa1, 0x55, 0xbd, 0x10, 0xc8, 0xe6, 0xbc, 0xc5, 0x62, 0x63, 0xbd, 
  0x49, 0xc7, 0xbb, 0x3d, 0x48, 0xa1, 0x28, 0xbd, 0x00, 0x91, 0x5c, 0x3a, 
  0x6b, 0x39, 0xa5, 0xbc, 0x60, 0xa8, 0x4e, 0xbb, 0x19, 0xa5, 0xc9, 0xbc, 
  0xef, 0xe8, 0xff, 0xbd, 0x2a, 0xa7, 0x2f, 0x3d, 0xf9, 0xd8, 0xdb, 0xbd, 
  0x86, 0xb4, 0x23, 0xbd, 0x82, 0x58, 0x65, 0x3d, 0x4a, 0x7d, 0xf5, 0xbd, 
  0x21, 0xfe, 0x86, 0x3d, 0xbd, 0x7a, 0xce, 0xbd, 0x11, 0x98, 0xd4, 0x3d, 
  0x48, 0x68, 0x65, 0xbc, 0xa8, 0x36, 0x2a, 0xbc, 0x0e, 0x23, 0x75, 0xbd, 
  0xa3, 0x1a, 0xc4, 0xbd, 0x46, 0x48, 0x45, 0xbd, 0x54, 0xd2, 0x0a, 0x3d, 
  0xb3, 0x13, 0xc4, 0x3d, 0x0f, 0x04, 0xa4, 0xbd, 0x55, 0x15, 0xed, 0xbd, 
  0xfa, 0xc3, 0x76, 0xbd, 0xa6, 0x5c, 0xb3, 0x3d, 0x52, 0x9b, 0x2a, 0x3c, 
  0x75, 0x2c, 0x3f, 0x3d, 0x38, 0x87, 0x9d, 0x3c, 0x11, 0x5b, 0x48, 0x3d, 
  0x80, 0x2c, 0x9c, 0xbb, 0x00, 0x63, 0xa3, 0xbd, 0xd0, 0x19, 0x90, 0x3c, 
  0x2f, 0xcf, 0x0c, 0x3d, 0x7c, 0x86, 0xb4, 0x3c, 0x38, 0x1d, 0xca, 0xbd, 
  0x57, 0x21, 0xc6, 0xbd, 0xbe, 0x7e, 0x3e, 0x3d, 0x00, 0xa0, 0xdb, 0x3c, 
  0x75, 0xf8, 0xae, 0x3d, 0x11, 0xb2, 0x04, 0xbd, 0xb4, 0x5a, 0x54, 0xbc, 
  0x25, 0x19, 0xcf, 0x3a, 0x74, 0x32, 0x85, 0x3d, 0xfe, 0xc0, 0xe5, 0xbd, 
  0xdd, 0x31, 0xad, 0x3c, 0x46, 0xf3, 0x7b, 0x3d, 0xff, 0x53, 0xec, 0x3d, 
  0x64, 0x70, 0x6d, 0x3b, 0xf3, 0x36, 0xd7, 0x3d, 0x02, 0xae, 0x36, 0xbd, 
  0x85, 0x94, 0xa3, 0x3b, 0x8b, 0xf7, 0xd7, 0xbd, 0xde, 0x23, 0x3a, 0x3d, 
  0x8c, 0x2b, 0xe2, 0xbd, 0x27, 0x96, 0x8e, 0x3c, 0x8a, 0x7e, 0xdc, 0xbd, 
  0xc1, 0xcd, 0x5a, 0xbd, 0xc0, 0x00, 0xd8, 0x3c, 0x91, 0xc1, 0x96, 0xbd, 
  0x75, 0x11, 0xed, 0xbd, 0x2b, 0x32, 0xbc, 0x3d, 0x3a, 0x64, 0x31, 0x3d, 
  0x34, 0xa7, 0x18, 0xbd, 0xd9, 0x3d, 0x9a, 0x3c, 0x98, 0xab, 0x13, 0xbd, 
  0xe4, 0x55, 0x6f, 0xbd, 0x62, 0x41, 0x43, 0xbd, 0x01, 0xb8, 0xea, 0x3d, 
  0xa2, 0x2c, 0x45, 0x3c, 0x08, 0x61, 0xa9, 0xbd, 0x5f, 0x1a, 0x62, 0x3d, 
  0xf2, 0xec, 0x1b, 0x3d, 0x1c, 0xdb, 0x33, 0x3d, 0x26, 0xa1, 0xfa, 0xbd, 
  0xb0, 0x40, 0x98, 0xbd, 0xc3, 0xb5, 0xb1, 0xbd, 0x14, 0x6b, 0x27, 0xbb, 
  0x18, 0x67, 0x0f, 0x3c, 0x06, 0x01, 0x77, 0x3d, 0x88, 0x87, 0x32, 0xbd, 
  0x2f, 0x2d, 0x9a, 0xbd, 0x7c, 0x1b, 0x6b, 0xbd, 0x2b, 0x21, 0x8f, 0xbd, 
  0x6e, 0x84, 0x4f, 0xbd, 0xfc, 0xf5, 0x94, 0xbd, 0xf2, 0xef, 0x1f, 0x3c, 
  0xca, 0xf3, 0xa9, 0x3d, 0x28, 0xce, 0xe3, 0xbb, 0x5f, 0x03, 0xfb, 0xbc, 
  0x0f, 0xdd, 0xfc, 0x3b, 0x24, 0x0f, 0xf2, 0xbc, 0x37, 0xd0, 0x22, 0x3d, 
  0x03, 0x19, 0x26, 0x3e, 0xf7, 0xcf, 0x5d, 0xbc, 0xcf, 0x16, 0x39, 0xbc, 
  0x63, 0xe0, 0xb5, 0xbc, 0xed, 0x1f, 0x3e, 0x3e, 0xaf, 0x39, 0x28, 0x3e, 
  0xf8, 0x8b, 0x0e, 0x3e, 0x2a, 0x71, 0xcd, 0x3c, 0xb5, 0xa4, 0xe1, 0x3d, 
  0x60, 0x4f, 0x0b, 0x3e, 0xb5, 0xbc, 0x10, 0x3d, 0x3e, 0x90, 0x91, 0x3c, 
  0x63, 0x5a, 0x60, 0x3e, 0xda, 0xd0, 0x06, 0x3e, 0xd1, 0x71, 0x28, 0xbd, 
  0x94, 0xdc, 0xf3, 0x3d, 0x32, 0x20, 0x16, 0x3e, 0xa6, 0xd9, 0xd0, 0xbc, 
  0xea, 0x98, 0x35, 0x3e, 0xa4, 0xd7, 0x37, 0xbd, 0x70, 0xa0, 0x37, 0x3d, 
  0xa9, 0xfc, 0xe2, 0xbc, 0x40, 0xf6, 0x1e, 0x3c, 0x86, 0x6d, 0x41, 0x3b, 
  0x9d, 0x86, 0x20, 0x3e, 0x4e, 0x3b, 0x43, 0x3e, 0xd6, 0x48, 0xf2, 0x3d, 
  0xaf, 0xdd, 0x65, 0x3c, 0xfd, 0x50, 0x11, 0x3e, 0xf5, 0x5f, 0x65, 0x3d, 
  0xb0, 0x5d, 0xd0, 0x3d, 0x74, 0xc4, 0xaa, 0xbd, 0xd2, 0x8c, 0x03, 0x3e, 
  0x35, 0xd2, 0x81, 0x3c, 0x32, 0x18, 0x3f, 0x3d, 0xf2, 0x30, 0x8a, 0xbd, 
  0x32, 0xb5, 0x80, 0xbc, 0x7f, 0x34, 0xbb, 0x3d, 0x41, 0xe6, 0xda, 0x3d, 
  0xca, 0xfb, 0x80, 0x3c, 0x2f, 0x85, 0x98, 0x3d, 0xc2, 0x20, 0x0d, 0x3e, 
  0x13, 0xaa, 0x4f, 0x3e, 0xb1, 0x97, 0x53, 0x3e, 0xc7, 0x02, 0x1c, 0x3e, 
  0xce, 0xfb, 0xb4, 0x3d, 0x56, 0x76, 0x97, 0xbd, 0xf5, 0xc6, 0x8b, 0xbd, 
  0x0c, 0xe3, 0x40, 0x3c, 0x9d, 0x51, 0xaf, 0xbd, 0x1a, 0x41, 0x4a, 0x3e, 
  0x78, 0x14, 0xe9, 0x3d, 0x15, 0x57, 0x07, 0x3e, 0x0f, 0xe3, 0xcc, 0x3d, 
  0x87, 0xfb, 0x59, 0x3d, 0x8a, 0xc9, 0xb8, 0xbd, 0xd3, 0x5c, 0x4b, 0x3c, 
  0xbf, 0x42, 0xe4, 0x3d, 0x64, 0x7c, 0x05, 0x3e, 0xc4, 0x2d, 0x0e, 0x3e, 
  0xe4, 0xf1, 0x9f, 0x3d, 0x64, 0x95, 0x10, 0x3d, 0x6e, 0x95, 0x78, 0x3c, 
  0x48, 0xcd, 0x98, 0x3d, 0xff, 0x94, 0x27, 0x3e, 0x20, 0xfe, 0x88, 0x3c, 
  0xa3, 0xff, 0xa1, 0x3d, 0x77, 0x17, 0xc7, 0x3c, 0x40, 0x0e, 0xf6, 0x3d, 
  0x57, 0x5d, 0x70, 0xbd, 0x56, 0x4c, 0x87, 0xbb, 0x1b, 0x37, 0xf1, 0x3d, 
  0xbc, 0x7c, 0x33, 0x3e, 0xa0, 0xc8, 0xe8, 0x3d, 0xe0, 0xfc, 0x05, 0x3c, 
  0xee, 0x65, 0x1e, 0x3e, 0x9e, 0x62, 0xdb, 0x3c, 0xd5, 0x11, 0x7d, 0x3d, 
  0xc9, 0x5a, 0x27, 0x3c, 0x70, 0xbd, 0xb3, 0xbd, 0x3e, 0x24, 0xa8, 0x3c, 
  0x6c, 0x04, 0xd1, 0xbd, 0x35, 0xed, 0xc9, 0x3c, 0xf1, 0x9b, 0xbb, 0xbd, 
  0x23, 0x49, 0xd9, 0x3c, 0xf8, 0x4b, 0x7e, 0xbd, 0x4e, 0x1a, 0xae, 0x3c, 
  0xa8, 0x6a, 0x21, 0x3c, 0x19, 0x30, 0x41, 0x3e, 0x41, 0x9a, 0x6a, 0x3d, 
  0x83, 0xcc, 0x2b, 0x3c, 0x21, 0xf1, 0x5d, 0x3e, 0x6f, 0xe7, 0x66, 0x3e, 
  0x41, 0x2d, 0x5a, 0xbb, 0xa6, 0x23, 0xb1, 0xbd, 0xc5, 0xb1, 0xab, 0x3d, 
  0x86, 0x15, 0xa5, 0x3c, 0x0c, 0x32, 0xe0, 0x3d, 0x4e, 0x51, 0x01, 0x3d, 
  0x1a, 0x2a, 0xba, 0xbd, 0xee, 0x02, 0x3b, 0x3d, 0x36, 0x5d, 0x39, 0xbd, 
  0x05, 0x17, 0xfb, 0x3c, 0xf7, 0xbb, 0xcf, 0x3c, 0xd9, 0x03, 0x91, 0xbb, 
  0x5a, 0x6e, 0xe6, 0x3c, 0xdf, 0xf0, 0x5b, 0x3e, 0xa1, 0x6b, 0xe8, 0x3d, 
  0xdd, 0x92, 0x2b, 0x3e, 0x62, 0xd6, 0xd5, 0x3d, 0xd1, 0x82, 0xbe, 0x3c, 
  0x5a, 0x26, 0xea, 0xb9, 0x7d, 0x9c, 0x17, 0x3e, 0x50, 0x21, 0x36, 0x3c, 
  0xd2, 0x6a, 0x30, 0x3e, 0xce, 0x1e, 0xa9, 0x3d, 0xb0, 0x1b, 0xd0, 0xba, 
  0xb8, 0xbb, 0xc4, 0x3d, 0x78, 0xab, 0xc8, 0xbd, 0xba, 0x6f, 0x5e, 0xbd, 
  0xae, 0xe7, 0x03, 0xbd, 0x34, 0x0f, 0x44, 0x3e, 0x1d, 0xa8, 0x3c, 0x3c, 
  0x72, 0x2e, 0xf6, 0x3c, 0xeb, 0x77, 0x19, 0x3e, 0xa0, 0x0c, 0x15, 0x3e, 
  0x9f, 0x7d, 0xb3, 0xba, 0x3d, 0x14, 0xa4, 0x3d, 0x75, 0xe2, 0xf0, 0x3d, 
  0x4c, 0x38, 0xfd, 0xbc, 0xc1, 0xd2, 0xdd, 0x3d, 0xb8, 0xff, 0xda, 0xbd, 
  0x29, 0x3d, 0xef, 0x3d, 0xad, 0x14, 0xb2, 0x3d, 0xdc, 0x0f, 0x8e, 0xbc, 
  0x44, 0x2a, 0x9f, 0xbd, 0x9e, 0x2b, 0x50, 0x3c, 0x75, 0x61, 0x4e, 0x3e, 
  0x61, 0xc2, 0x6c, 0x3d, 0x06, 0x0c, 0x46, 0x3e, 0x9e, 0xc1, 0x83, 0x3d, 
  0xd0, 0x9a, 0x9a, 0x3d, 0xc6, 0xdf, 0xa7, 0xbc, 0x65, 0xed, 0x1a, 0x3e, 
  0xa3, 0x11, 0x31, 0xbd, 0x16, 0x52, 0xf5, 0xbd, 0x6c, 0xcf, 0x46, 0xbd, 
  0xa5, 0x9d, 0xa0, 0x3d, 0x7c, 0x87, 0xa2, 0xbc, 0xb8, 0x87, 0xa5, 0xbd, 
  0x1e, 0xd5, 0xe0, 0xbb, 0x28, 0xee, 0xce, 0xbc, 0xb3, 0xd0, 0xa2, 0xbd, 
  0xda, 0x51, 0xc9, 0x3c, 0xc1, 0x6d, 0x13, 0xbe, 0x67, 0x9e, 0x19, 0xbe, 
  0x14, 0xc3, 0x72, 0xbd, 0x75, 0x0e, 0xa2, 0xba, 0x5f, 0xa7, 0x17, 0x3e, 
  0x99, 0x5c, 0xa9, 0x3d, 0xe3, 0x1d, 0x3c, 0xbb, 0xeb, 0x00, 0x0c, 0x3d, 
  0x76, 0xd0, 0x04, 0xbe, 0xf6, 0x48, 0x65, 0xbd, 0x16, 0xb3, 0x8c, 0x3d, 
  0x06, 0xe2, 0x95, 0x3d, 0x8c, 0x1f, 0x1c, 0xbd, 0x5e, 0x01, 0x56, 0x3d, 
  0x8c, 0x0e, 0x17, 0xbd, 0xf2, 0x8a, 0x2f, 0xbe, 0xcc, 0x2a, 0x8f, 0xbd, 
  0x55, 0xb1, 0xb6, 0xbd, 0xf9, 0x52, 0x32, 0xbe, 0x0f, 0x68, 0x4d, 0x3d, 
  0x37, 0x69, 0xec, 0x3d, 0xf6, 0x3b, 0x00, 0x3e, 0xc6, 0x05, 0x97, 0xbd, 
  0x8d, 0x6d, 0xa6, 0xbb, 0x51, 0xce, 0x2a, 0xbe, 0x7c, 0x53, 0x69, 0x3d, 
  0x83, 0xd4, 0x2c, 0xbd, 0x56, 0xf3, 0xff, 0xbc, 0x94, 0x42, 0xa4, 0xbb, 
  0x02, 0x71, 0x99, 0x3d, 0x8d, 0x49, 0xa6, 0xbc, 0xb2, 0x1b, 0x43, 0xb9, 
  0xe4, 0x6a, 0x64, 0xbe, 0xc7, 0x0a, 0x42, 0xbe, 0x72, 0xe6, 0x42, 0xbc, 
  0x0e, 0xa1, 0x2a, 0x3d, 0x70, 0x3e, 0xa8, 0xbb, 0x16, 0x9f, 0xea, 0xbb, 
  0x64, 0x0c, 0x24, 0xbe, 0x4f, 0x64, 0xfe, 0xbc, 0x8b, 0x32, 0xaf, 0xbd, 
  0x0f, 0xcf, 0xce, 0x3d, 0xb8, 0xa8, 0xc0, 0xbd, 0x88, 0x9b, 0x36, 0xbd, 
  0xfc, 0x70, 0x92, 0x3c, 0xec, 0x8b, 0xde, 0x3d, 0xff, 0x83, 0xc6, 0xbd, 
  0x14, 0xce, 0x4a, 0xbc, 0x2c, 0xef, 0xe3, 0xbd, 0x25, 0x58, 0x0d, 0xbe, 
  0x65, 0x06, 0x38, 0xbd, 0xbb, 0x83, 0x08, 0xbe, 0x97, 0x18, 0xda, 0xbc, 
  0x5d, 0xcf, 0xe7, 0x3d, 0xb0, 0xd3, 0x13, 0xbe, 0x13, 0xdc, 0x8c, 0x3d, 
  0x80, 0x8f, 0x33, 0xbd, 0xcc, 0xa8, 0x1a, 0x3e, 0x86, 0x6a, 0x9d, 0xbd, 
  0x41, 0x9c, 0xdc, 0xbd, 0xa9, 0xeb, 0xce, 0x3d, 0x78, 0xb1, 0x30, 0x3d, 
  0xf2, 0xcc, 0xf3, 0xbd, 0x01, 0x8b, 0xe9, 0xbc, 0xa7, 0xdf, 0x6e, 0xbd, 
  0xf5, 0x56, 0x04, 0xbc, 0x96, 0xf3, 0x40, 0xbe, 0x53, 0xdd, 0x7a, 0xbc, 
  0x17, 0x72, 0xc0, 0x3b, 0x5a, 0xb0, 0xca, 0x3d, 0x1f, 0x7e, 0x4c, 0xbd, 
  0xee, 0xad, 0xb0, 0xbd, 0xb2, 0x53, 0xa7, 0x3b, 0x08, 0x9c, 0x0c, 0x3d, 
  0x8e, 0xcb, 0x90, 0x3c, 0x93, 0xf3, 0xab, 0x3d, 0x84, 0x66, 0xa9, 0xbd, 
  0xf1, 0xab, 0x92, 0x3c, 0x2c, 0xef, 0x00, 0x3d, 0x8c, 0x86, 0xe1, 0xbd, 
  0x1e, 0xb4, 0x33, 0xbe, 0xa4, 0x42, 0x0e, 0xbd, 0xff, 0xc0, 0x4a, 0xbe, 
  0x7e, 0xe6, 0xfe, 0xbd, 0x4e, 0xd5, 0xa3, 0xbc, 0x62, 0xa1, 0x26, 0x3d, 
  0x4b, 0x52, 0x41, 0xbe, 0x1c, 0xdb, 0xc8, 0x3c, 0x80, 0x8d, 0x20, 0xbe, 
  0x76, 0x41, 0xfe, 0x3d, 0x7b, 0xb8, 0x12, 0xbe, 0x3e, 0x33, 0xc3, 0xbc, 
  0x81, 0x6a, 0xe7, 0x3d, 0xdf, 0x47, 0xee, 0xbd, 0xc3, 0x4a, 0x05, 0xbd, 
  0xae, 0x0c, 0xbd, 0xbd, 0xb8, 0xaf, 0x1f, 0xbe, 0x00, 0x87, 0xf8, 0xbd, 
  0xc9, 0xd6, 0xea, 0xbd, 0x95, 0xb0, 0xac, 0x3c, 0x51, 0xc2, 0x05, 0x3e, 
  0x00, 0x8e, 0x12, 0x3e, 0x46, 0x44, 0x8d, 0x3b, 0x8c, 0x78, 0x5e, 0xbd, 
  0x6e, 0x9d, 0x1c, 0x3b, 0x53, 0xc3, 0x83, 0x3d, 0x94, 0x98, 0x16, 0xbe, 
  0xbc, 0x94, 0x20, 0xbd, 0x6a, 0x4e, 0x48, 0x3b, 0x31, 0x80, 0xbe, 0x3d, 
  0xb1, 0xf6, 0x42, 0x3d, 0x66, 0xad, 0x05, 0xbe, 0xab, 0xde, 0x36, 0xbd, 
  0x10, 0xb4, 0xa3, 0xbd, 0x24, 0x1c, 0xc4, 0xbd, 0xf6, 0xa5, 0x80, 0xbd, 
  0x76, 0x02, 0x36, 0x3e, 0x31, 0xb9, 0x55, 0xbd, 0x67, 0xbc, 0xd5, 0x3c, 
  0x3a, 0xee, 0xad, 0x3b, 0x58, 0x6e, 0x0e, 0xbe, 0x72, 0xf4, 0x9f, 0xbb, 
  0x5d, 0x75, 0x48, 0xbd, 0x96, 0x5b, 0x8b, 0x3c, 0x98, 0x0a, 0x7c, 0xbc, 
  0x4b, 0xeb, 0x39, 0xbd, 0x63, 0x35, 0x5b, 0xbd, 0xda, 0x34, 0x28, 0xbd, 
  0x4d, 0x9d, 0x2f, 0xbe, 0xea, 0x3d, 0xc5, 0x3b, 0x39, 0x9e, 0x3e, 0xbe, 
  0xdc, 0x11, 0x85, 0xbc, 0x0b, 0x2a, 0x3f, 0xbd, 0x0c, 0x86, 0xbc, 0xbd, 
  0xf6, 0x0d, 0xf4, 0x3d, 0x70, 0x14, 0xab, 0xbd, 0x5e, 0x57, 0x8f, 0xbb, 
  0x92, 0x05, 0x59, 0xbd, 0x55, 0x30, 0x93, 0x3d, 0x53, 0x6c, 0x33, 0x3e, 
  0xd9, 0x2f, 0xb1, 0x3c, 0xfc, 0x74, 0xbd, 0xbd, 0xe9, 0x74, 0x0a, 0x3e, 
  0xed, 0xfc, 0x88, 0x3d, 0x5a, 0x95, 0x12, 0x3e, 0xf7, 0x46, 0x79, 0x3e, 
  0x50, 0x59, 0xb0, 0x3d, 0x05, 0x8c, 0x47, 0x3e, 0x96, 0x1c, 0x8c, 0xbc, 
  0xe7, 0x6e, 0xbc, 0xbc, 0x45, 0x4f, 0x62, 0x3e, 0x4d, 0x53, 0x69, 0xbb, 
  0x26, 0x06, 0x01, 0x3c, 0xba, 0xfd, 0xa5, 0x3b, 0xdb, 0x0e, 0x75, 0xbc, 
  0xb8, 0x8a, 0x92, 0x3c, 0x7b, 0x97, 0x81, 0x3d, 0x4c, 0x6f, 0x7e, 0x3d, 
  0xd4, 0x1a, 0xdf, 0x3d, 0xa6, 0xae, 0x79, 0x3c, 0xae, 0xac, 0x78, 0x3e, 
  0x72, 0x38, 0xa4, 0x3d, 0x4f, 0xd7, 0x1e, 0x3e, 0xd0, 0xcb, 0xca, 0x3b, 
  0x7a, 0xe6, 0x12, 0xbc, 0x3b, 0x19, 0xce, 0x3d, 0x59, 0x75, 0x7a, 0x3d, 
  0xf5, 0x14, 0xcc, 0xbc, 0xf1, 0x72, 0xc4, 0x3d, 0xe6, 0x91, 0xd3, 0x3d, 
  0x7e, 0xc0, 0xb5, 0x3c, 0x2f, 0x59, 0x21, 0x3e, 0x59, 0x55, 0x8e, 0x3d, 
  0x77, 0xbd, 0x5a, 0x3c, 0x78, 0xca, 0x9d, 0x3d, 0xe9, 0xb2, 0x61, 0x3d, 
  0x3b, 0xcc, 0x18, 0x3e, 0x05, 0xbb, 0x3c, 0x3e, 0xd6, 0xc1, 0x88, 0x3e, 
  0x10, 0x8c, 0xad, 0x3d, 0xe6, 0xc2, 0x71, 0x3d, 0xfb, 0x77, 0xa3, 0xbd, 
  0x7d, 0x28, 0x75, 0x3e, 0x51, 0x83, 0x7e, 0x3d, 0x66, 0xc8, 0xbe, 0x3d, 
  0x2d, 0x45, 0x94, 0x3d, 0x4e, 0x5e, 0x5a, 0x3d, 0x37, 0xc8, 0x11, 0xbc, 
  0x21, 0x2d, 0xad, 0xbd, 0xb3, 0xfb, 0x92, 0x3c, 0x99, 0x3f, 0xf8, 0xbb, 
  0x6f, 0xd1, 0x55, 0x3e, 0xed, 0x4a, 0x45, 0x3e, 0xee, 0xd7, 0x3e, 0x3e, 
  0x87, 0xfc, 0x5f, 0x3e, 0x4f, 0xb2, 0x89, 0xbb, 0x5a, 0x43, 0xd0, 0xbd, 
  0xcc, 0xfa, 0xc8, 0xbc, 0xc5, 0xe8, 0x22, 0x3d, 0xc9, 0x80, 0x98, 0x3d, 
  0x3c, 0x38, 0x16, 0x3e, 0xac, 0x63, 0x0c, 0x3d, 0x22, 0xb4, 0xe9, 0x3d, 
  0x3e, 0xe4, 0x8b, 0x3d, 0xf4, 0x56, 0xa6, 0x3d, 0xe6, 0x6f, 0xde, 0xbd, 
  0xe0, 0x91, 0xef, 0x3c, 0xcc, 0x5e, 0x6b, 0x3c, 0xf2, 0x37, 0x8e, 0x3d, 
  0xb2, 0x17, 0x41, 0x3e, 0x4b, 0x62, 0x43, 0x3e, 0x15, 0xd2, 0xf7, 0xbc, 
  0x71, 0xb5, 0xa2, 0x3d, 0x5b, 0x0f, 0x00, 0x3e, 0x41, 0x28, 0x59, 0x3d, 
  0x3f, 0x97, 0x7b, 0x3d, 0xeb, 0xf6, 0x00, 0x3e, 0x43, 0x2d, 0xb3, 0xbd, 
  0xad, 0x49, 0x1b, 0x3d, 0xb1, 0x28, 0x25, 0xbd, 0xf7, 0xae, 0xca, 0x3d, 
  0x14, 0x28, 0xc2, 0xbd, 0xa9, 0xb4, 0xf5, 0x3d, 0xc9, 0xa6, 0x37, 0x3d, 
  0xb9, 0xdd, 0x38, 0x3e, 0xc7, 0x97, 0x78, 0x3d, 0x37, 0x9c, 0x52, 0x3e, 
  0xee, 0x2f, 0x0f, 0xba, 0x8f, 0xb2, 0x3d, 0x3d, 0x4e, 0x93, 0x89, 0xbd, 
  0x34, 0x5c, 0x7d, 0x3d, 0x62, 0x1f, 0x61, 0x3d, 0x29, 0x94, 0xa8, 0x3d, 
  0x62, 0x10, 0x95, 0xbd, 0x0f, 0xb3, 0xb4, 0x3d, 0xa2, 0x88, 0xa4, 0x3d, 
  0x00, 0xdb, 0xac, 0xbd, 0xad, 0x0e, 0xde, 0xbd, 0x53, 0x09, 0x61, 0x3c, 
  0x1a, 0x23, 0x4d, 0x3e, 0xbe, 0x30, 0x8d, 0x3d, 0x32, 0x19, 0xcc, 0x3d, 
  0x46, 0x8b, 0xd4, 0x3d, 0xe0, 0x13, 0xba, 0xbc, 0x2d, 0x21, 0x9b, 0xbd, 
  0x1b, 0x2e, 0xb1, 0xbb, 0xe6, 0xf5, 0x42, 0x3e, 0x00, 0x97, 0x6b, 0x3b, 
  0x38, 0xf3, 0x3d, 0x3e, 0x59, 0x6f, 0x2f, 0x3d, 0xe4, 0x95, 0x29, 0x3e, 
  0x4d, 0xfc, 0x71, 0x3d, 0xec, 0xd2, 0x97, 0x3a, 0xa4, 0xb8, 0xd0, 0xbd, 
  0xd4, 0x4a, 0x6f, 0xbc, 0x99, 0x3a, 0x03, 0x3e, 0x70, 0xa0, 0x54, 0x3e, 
  0x5c, 0x3c, 0x3e, 0x3d, 0x6a, 0x7c, 0x79, 0x3d, 0xe8, 0xbd, 0x3b, 0x3e, 
  0x6d, 0xcf, 0x7d, 0xbd, 0x6b, 0x61, 0x3a, 0xbd, 0x9b, 0x03, 0x5a, 0x3e, 
  0x73, 0x79, 0xcb, 0xbd, 0x83, 0x91, 0xe0, 0xbc, 0xf0, 0xf2, 0x9e, 0x3d, 
  0x98, 0xe3, 0x52, 0xbb, 0x6d, 0x74, 0x40, 0xbd, 0x51, 0x7d, 0xef, 0x3d, 
  0x79, 0x37, 0x9c, 0x3d, 0x73, 0xc9, 0x0e, 0x3e, 0x70, 0x39, 0xb5, 0x3d, 
  0xb2, 0x74, 0x13, 0x3e, 0xb6, 0xbf, 0x43, 0x3e, 0xe7, 0x6a, 0xe8, 0x3d, 
  0x84, 0xbf, 0x15, 0x3e, 0x66, 0x9f, 0xea, 0x3c, 0xd5, 0xeb, 0x5e, 0xbd, 
  0xcf, 0xf9, 0x7c, 0xbd, 0x16, 0xc4, 0x52, 0x3d, 0x87, 0x17, 0xc1, 0x3b, 
  0xf7, 0x16, 0x2d, 0x3d, 0xc0, 0x71, 0xfc, 0xbd, 0xb2, 0x65, 0x91, 0x3d, 
  0x36, 0x64, 0x8b, 0xbd, 0x71, 0x85, 0x2f, 0x3c, 0x26, 0x49, 0x30, 0xbd, 
  0xaf, 0xda, 0x0a, 0xbc, 0x59, 0x9d, 0x1f, 0xbd, 0xe1, 0x13, 0x76, 0x3c, 
  0x73, 0x2f, 0x11, 0x3c, 0x43, 0x40, 0x03, 0xbe, 0x21, 0x06, 0x65, 0xbd, 
  0x42, 0x27, 0xa8, 0xbd, 0xc5, 0x3d, 0x0e, 0x3c, 0x04, 0x6b, 0x68, 0x3d, 
  0x95, 0x07, 0x93, 0xba, 0x4c, 0x90, 0x54, 0xbd, 0x02, 0x42, 0xe4, 0xbd, 
  0xb2, 0xa8, 0xf4, 0xbc, 0xf2, 0x00, 0x0d, 0xbd, 0x16, 0x43, 0xf6, 0x3c, 
  0xea, 0xc5, 0x21, 0x3d, 0x31, 0x3c, 0x82, 0xbd, 0xb9, 0x0e, 0xc3, 0x3d, 
  0x73, 0x42, 0xd3, 0xbd, 0x46, 0xf6, 0x98, 0xbd, 0x1b, 0x6c, 0xb7, 0x3d, 
  0x6d, 0x19, 0xd3, 0xbd, 0x29, 0x69, 0xbe, 0xbd, 0x36, 0x9b, 0x97, 0xbd, 
  0x28, 0xda, 0x18, 0x3d, 0xf0, 0x9a, 0xd7, 0xbc, 0xd3, 0x65, 0xf9, 0xbd, 
  0x3c, 0x45, 0xcf, 0xbd, 0xd9, 0x3c, 0x82, 0x3d, 0x2c, 0x54, 0x86, 0xbb, 
  0x08, 0x06, 0xe4, 0xbd, 0xae, 0xd9, 0x4a, 0xbb, 0xd7, 0x87, 0xe5, 0xbc, 
  0x86, 0xd0, 0xc7, 0x3d, 0x6c, 0x28, 0xc7, 0x3d, 0x03, 0xb9, 0x81, 0x3d, 
  0x85, 0x9c, 0x33, 0x3d, 0x6b, 0xcd, 0x94, 0x3d, 0xa7, 0xd5, 0x95, 0x3d, 
  0x65, 0xc8, 0x90, 0xbd, 0x6c, 0x2e, 0x8c, 0xbd, 0x66, 0x3a, 0x94, 0x3c, 
  0xd5, 0x46, 0x23, 0x3d, 0x87, 0x41, 0x95, 0x3d, 0xa5, 0xde, 0x00, 0xbe, 
  0x58, 0xf2, 0x45, 0x3d, 0xb2, 0x16, 0x66, 0xbd, 0xa7, 0x49, 0x52, 0xbd, 
  0x65, 0x8e, 0x27, 0x3d, 0x29, 0x03, 0xba, 0x3c, 0xb9, 0xf6, 0xc9, 0xbd, 
  0x56, 0xd4, 0x33, 0x3d, 0x61, 0xae, 0xff, 0xbc, 0xec, 0x20, 0xaf, 0x3d, 
  0x61, 0x95, 0xb8, 0xbd, 0x0a, 0x36, 0x9a, 0x3d, 0x65, 0x01, 0xd8, 0xbd, 
  0x6e, 0x71, 0xcc, 0x3d, 0xbc, 0x88, 0x84, 0x3d, 0x97, 0x86, 0x9e, 0x3d, 
  0xec, 0x96, 0x6c, 0xbd, 0x41, 0xab, 0x0a, 0xbd, 0xc5, 0x70, 0x39, 0x3d, 
  0xed, 0xf6, 0x89, 0x3c, 0xe0, 0x35, 0x1d, 0xbd, 0xb7, 0x13, 0xe6, 0x3c, 
  0x91, 0x83, 0xc4, 0x3c, 0xb5, 0x4c, 0x86, 0xbd, 0x0d, 0xdd, 0x8d, 0xbd, 
  0xb4, 0xcc, 0xea, 0xbd, 0x84, 0x96, 0x62, 0x3d, 0x6c, 0xd5, 0x13, 0xbd, 
  0x96, 0xe9, 0x9f, 0x3d, 0x25, 0x94, 0x96, 0xbc, 0x6a, 0x39, 0xf0, 0xbd, 
  0xef, 0x6b, 0x96, 0xbc, 0x46, 0x15, 0xc0, 0x3d, 0x27, 0xfc, 0xde, 0xbd, 
  0xf2, 0x7d, 0x22, 0x3d, 0xc6, 0xbc, 0x9e, 0x3d, 0x3f, 0x41, 0x4c, 0x3d, 
  0x70, 0x9c, 0x78, 0x3b, 0x4d, 0xeb, 0x33, 0x3d, 0xbd, 0xf8, 0xd8, 0x3d, 
  0x53, 0x79, 0x8d, 0xbd, 0x17, 0x4c, 0x82, 0xbd, 0xc5, 0xf1, 0x55, 0x3d, 
  0x60, 0x41, 0x23, 0xbd, 0xec, 0x6e, 0xef, 0xbd, 0x68, 0xe8, 0xc8, 0x3d, 
  0x51, 0x1c, 0xb4, 0xbd, 0xac, 0x5e, 0xde, 0xbd, 0x02, 0xb8, 0xc7, 0xbd, 
  0x86, 0x0c, 0xff, 0xbb, 0xdf, 0x65, 0xda, 0xbd, 0x33, 0x89, 0x95, 0x3d, 
  0x02, 0x7a, 0xe2, 0x3b, 0xa0, 0xa1, 0x28, 0x3d, 0xb3, 0x75, 0x6d, 0xbd, 
  0x09, 0x66, 0x8e, 0xbc, 0x87, 0xfe, 0xf7, 0xbc, 0x91, 0x92, 0x9a, 0x3d, 
  0x1c, 0x71, 0x1b, 0xbd, 0x21, 0x1c, 0xb3, 0xbd, 0x02, 0x9c, 0x7b, 0x3d, 
  0x36, 0x3c, 0xb7, 0xbd, 0x1f, 0x0c, 0x4f, 0xbd, 0xf9, 0x6c, 0xac, 0x3d, 
  0x4e, 0x63, 0x82, 0x3d, 0x35, 0x60, 0xf1, 0xbc, 0xf9, 0xab, 0xa3, 0xbd, 
  0x08, 0x8c, 0x14, 0xbe, 0xe6, 0x18, 0x70, 0x3d, 0x22, 0x26, 0xab, 0xbd, 
  0x13, 0x2f, 0x40, 0xbd, 0x4f, 0xbd, 0xaf, 0xbb, 0x54, 0x4a, 0x92, 0xbd, 
  0x25, 0xbb, 0xc7, 0x3d, 0x61, 0xb1, 0xb7, 0x3b, 0xab, 0xbe, 0xb0, 0x3d, 
  0x75, 0xc8, 0xc3, 0x3d, 0xb2, 0x21, 0x14, 0xbd, 0xcd, 0x88, 0xe9, 0xbd, 
  0x95, 0x8b, 0x9f, 0x3d, 0x54, 0x04, 0x18, 0xbc, 0xdd, 0x12, 0x91, 0x3d, 
  0xd8, 0xb9, 0x53, 0x3c, 0xe4, 0x10, 0x69, 0xbc, 0x82, 0x15, 0x37, 0x3d, 
  0xe5, 0x02, 0x4e, 0xbd, 0x8f, 0xa3, 0xf5, 0xbd, 0x73, 0xeb, 0x3d, 0xbd, 
  0xe5, 0xf8, 0x90, 0x3b, 0x7f, 0x63, 0xd0, 0x3d, 0x87, 0x4a, 0xeb, 0x3c, 
  0x7d, 0x05, 0x5d, 0x3e, 0x02, 0x3f, 0x27, 0xbd, 0x6d, 0xa7, 0x4a, 0x3d, 
  0xd9, 0x1f, 0xc9, 0x3d, 0xe3, 0xd6, 0x08, 0xbd, 0x7e, 0x74, 0x09, 0x3c, 
  0xc7, 0x01, 0xf0, 0x3d, 0xc5, 0x87, 0x50, 0xbd, 0x7f, 0x88, 0x17, 0x3d, 
  0xe1, 0x8f, 0x7e, 0x3d, 0xa0, 0x1e, 0xcc, 0x3d, 0x24, 0xdf, 0x33, 0x3e, 
  0x18, 0xf5, 0x55, 0x3e, 0x06, 0xb2, 0x87, 0x3d, 0x6e, 0xf1, 0x0c, 0xbc, 
  0xe5, 0x95, 0x87, 0x3d, 0x49, 0x0d, 0x52, 0x3d, 0x10, 0x5c, 0x9c, 0xbc, 
  0x58, 0x70, 0x21, 0xbc, 0xd2, 0xe2, 0x4a, 0x3d, 0x49, 0x8b, 0x2c, 0x3d, 
  0x3a, 0x27, 0xd7, 0xbc, 0x21, 0xef, 0x5c, 0xbd, 0x38, 0x9e, 0xda, 0xbc, 
  0xb8, 0x46, 0x01, 0x3d, 0x49, 0x79, 0x56, 0x3e, 0xb4, 0xb4, 0x8a, 0x3d, 
  0xc2, 0x25, 0x39, 0x3e, 0xb8, 0x3f, 0x29, 0x3e, 0x4a, 0xf1, 0xba, 0xbb, 
  0x64, 0x36, 0xcb, 0x3d, 0xc3, 0x65, 0x52, 0xbd, 0x1c, 0x32, 0x26, 0x3e, 
  0x63, 0x72, 0xf0, 0x3d, 0x90, 0x42, 0x67, 0x3c, 0x31, 0x6b, 0xcd, 0xbc, 
  0x7e, 0x42, 0xcf, 0xbc, 0xa7, 0xc3, 0x85, 0xbb, 0x2f, 0x99, 0x9e, 0x3d, 
  0xdc, 0x67, 0x17, 0x3d, 0x4c, 0x39, 0x85, 0x3e, 0x9f, 0x7f, 0x44, 0x3e, 
  0x9c, 0x90, 0x6e, 0x3d, 0x55, 0x68, 0xf8, 0x3d, 0x5f, 0xdf, 0x36, 0x3e, 
  0x4c, 0xf4, 0xcd, 0xbc, 0x1a, 0x65, 0x00, 0xbd, 0xd2, 0x5d, 0x2c, 0xbd, 
  0x2d, 0x88, 0x54, 0x3e, 0x7b, 0x3c, 0xbf, 0xbd, 0xc9, 0x12, 0x88, 0x3d, 
  0x76, 0x91, 0xa7, 0x3c, 0x58, 0x32, 0x87, 0x3d, 0xc5, 0xc6, 0xc5, 0x3d, 
  0x69, 0xbe, 0xc5, 0xbc, 0x28, 0x88, 0xca, 0xbd, 0xf0, 0x96, 0x85, 0x3d, 
  0x11, 0x10, 0x26, 0x3e, 0x9d, 0x85, 0xb6, 0x3d, 0xa5, 0x13, 0x7b, 0x3e, 
  0x5c, 0x37, 0x76, 0x3e, 0x53, 0xac, 0x06, 0x3e, 0x4c, 0x60, 0xda, 0xbd, 
  0x9d, 0xb2, 0xd9, 0x3d, 0xe5, 0x0f, 0x70, 0x3e, 0xd9, 0x90, 0xec, 0x3d, 
  0xab, 0x69, 0x45, 0x3e, 0x94, 0x22, 0xe6, 0xbd, 0x08, 0xde, 0x04, 0x3d, 
  0xa4, 0x55, 0xe2, 0x3c, 0xfc, 0x83, 0xb6, 0x3d, 0xbf, 0xfb, 0x5b, 0xbd, 
  0x82, 0x47, 0x19, 0x3e, 0x55, 0x19, 0x31, 0x3e, 0x28, 0x72, 0x4d, 0x3e, 
  0xc2, 0x98, 0x10, 0x3e, 0x86, 0x51, 0xcd, 0x3d, 0x3e, 0xf7, 0x2d, 0x3e, 
  0x69, 0x58, 0x87, 0xbd, 0x74, 0x75, 0x8a, 0xbc, 0x5b, 0xc0, 0x3b, 0x3e, 
  0xa0, 0x41, 0xe6, 0xbd, 0x93, 0x19, 0x07, 0x3e, 0xca, 0x9d, 0x8e, 0xbc, 
  0x6d, 0x9c, 0xcb, 0xbc, 0x92, 0xaa, 0x9e, 0xbc, 0x17, 0x42, 0xe8, 0x3c, 
  0x4c, 0x2c, 0xcc, 0x3d, 0x6e, 0x95, 0x6d, 0x3e, 0x4f, 0x83, 0x59, 0x3c, 
  0xbc, 0xae, 0xd9, 0x3d, 0x33, 0x1c, 0x58, 0x3e, 0x43, 0xa2, 0xc2, 0x3d, 
  0x0f, 0x54, 0x37, 0x3e, 0xce, 0x3d, 0xad, 0xbd, 0x5d, 0xd5, 0x84, 0xbc, 
  0xd9, 0x4a, 0x3e, 0x3d, 0xd7, 0x47, 0x60, 0x3d, 0x0d, 0xe8, 0x3e, 0x3d, 
  0xb7, 0x9e, 0x87, 0x3d, 0x50, 0xb6, 0x9e, 0x3d, 0x91, 0x85, 0x13, 0x3e, 
  0x69, 0x54, 0xdf, 0x3d, 0x00, 0xf8, 0x11, 0xbc, 0xda, 0x75, 0x77, 0x3e, 
  0xe7, 0xb1, 0x19, 0x3e, 0xd1, 0xe0, 0x01, 0x3e, 0x92, 0xfa, 0x13, 0x3e, 
  0xd7, 0x22, 0x82, 0x3e, 0xae, 0x7b, 0xfa, 0x3d, 0xe6, 0xe7, 0x4c, 0x3d, 
  0x03, 0xf4, 0x5a, 0x3d, 0x1b, 0xd6, 0x37, 0x3e, 0x81, 0xcb, 0xca, 0xbd, 
  0xd8, 0x56, 0x93, 0x3d, 0x5a, 0x30, 0xd4, 0xbd, 0x51, 0xbf, 0x06, 0x3c, 
  0xb2, 0x0c, 0x0a, 0x3e, 0xc3, 0x0b, 0xe2, 0x3d, 0x5b, 0x83, 0x33, 0x3d, 
  0x0f, 0x39, 0x6e, 0x3e, 0x24, 0x0f, 0x8d, 0x3d, 0x01, 0xe7, 0xa4, 0x3d, 
  0xc8, 0xc9, 0x75, 0x3e, 0x25, 0xeb, 0x4c, 0x3d, 0x8a, 0x7f, 0x21, 0x3e, 
  0xf9, 0xcc, 0x6e, 0x3c, 0x04, 0xc6, 0x16, 0xbd, 0x05, 0x8e, 0x46, 0x3d, 
  0x19, 0x89, 0x92, 0xbd, 0x4d, 0xdf, 0x97, 0x3d, 0x82, 0xc1, 0x67, 0x3c, 
  0xa4, 0xb2, 0x23, 0x3e, 0x69, 0xe5, 0x4b, 0x3e, 0xa0, 0x72, 0xaf, 0x3d, 
  0x7a, 0x2f, 0xea, 0x3d, 0xad, 0xf8, 0xaa, 0x3d, 0xed, 0xe2, 0xc3, 0x3c, 
  0x88, 0xd2, 0xc1, 0x3d, 0xc3, 0xfc, 0x3e, 0x3e, 0xc9, 0x58, 0xcb, 0x3c, 
  0xfa, 0x94, 0xf3, 0xbc, 0x5f, 0xf5, 0x94, 0xbd, 0xe4, 0xc4, 0xe0, 0xbd, 
  0xc4, 0x7a, 0x4b, 0xbd, 0x4b, 0xe4, 0x65, 0xbd, 0x97, 0x13, 0xdd, 0x3d, 
  0x8c, 0xd4, 0xd5, 0x3d, 0x67, 0xc0, 0xf0, 0xbd, 0xfe, 0x08, 0x9b, 0xbd, 
  0xe9, 0x61, 0x50, 0x3d, 0x7c, 0x79, 0x89, 0x3c, 0x04, 0xc0, 0x82, 0x3c, 
  0x10, 0x9c, 0x53, 0xbc, 0xf6, 0x4d, 0x0f, 0x3d, 0x24, 0xe4, 0x6c, 0x3c, 
  0x34, 0x2b, 0xcb, 0xbd, 0x02, 0x94, 0x8d, 0x3d, 0x7a, 0xd5, 0x0f, 0xba, 
  0x4f, 0x04, 0x4f, 0xbd, 0x7c, 0x7a, 0xda, 0xbd, 0x10, 0xc9, 0x7a, 0xbc, 
  0x57, 0xe6, 0xae, 0xbd, 0x53, 0x82, 0x96, 0xbd, 0xcf, 0x46, 0xb1, 0x3d, 
  0x92, 0xb7, 0x49, 0xbd, 0x7d, 0x24, 0x35, 0xbd, 0xfd, 0x14, 0xe3, 0x3d, 
  0x17, 0xfe, 0xd2, 0xbc, 0xe3, 0x7a, 0xfa, 0xbd, 0x27, 0x1b, 0x2b, 0x3d, 
  0x55, 0x71, 0xde, 0x3d, 0x34, 0x72, 0x49, 0xbd, 0x37, 0x7b, 0x80, 0xbd, 
  0xbd, 0xf3, 0xa0, 0xbc, 0x75, 0x96, 0x80, 0x3d, 0x1e, 0x77, 0xd9, 0xbd, 
  0x96, 0x60, 0x03, 0x3d, 0xf2, 0x88, 0x84, 0xbd, 0xe2, 0x0f, 0xc1, 0xbc, 
  0xf6, 0xe5, 0x54, 0xbd, 0x10, 0x25, 0xeb, 0xbd, 0x60, 0x60, 0x4f, 0xbd, 
  0x6a, 0x54, 0xeb, 0xbd, 0xd0, 0x78, 0xec, 0xbc, 0x43, 0xfa, 0x36, 0xbc, 
  0x61, 0x4d, 0x1a, 0xbd, 0x4d, 0xf5, 0x71, 0x3d, 0xae, 0x1e, 0xa3, 0x3d, 
  0xaa, 0x42, 0xdd, 0x3d, 0x3a, 0xc8, 0x2d, 0xbd, 0x21, 0xea, 0x72, 0xbd, 
  0x0e, 0xab, 0x66, 0x3c, 0x4e, 0x8b, 0x0a, 0x3d, 0xe7, 0xe2, 0xa4, 0xbd, 
  0x7f, 0xe2, 0x8d, 0x3d, 0x95, 0xe8, 0x28, 0xbd, 0xab, 0x0a, 0x26, 0xbd, 
  0x87, 0xd5, 0xaa, 0xbd, 0xbe, 0x2e, 0xad, 0xbd, 0x05, 0x2e, 0xd3, 0xbd, 
  0x5e, 0xb4, 0x53, 0xbd, 0x3c, 0xf7, 0xc0, 0x3d, 0x82, 0x93, 0x72, 0x3c, 
  0x5f, 0x60, 0xd7, 0xbd, 0x2b, 0x10, 0x87, 0xbd, 0xda, 0xd1, 0x62, 0xbd, 
  0xdb, 0x5b, 0xcf, 0xbd, 0x67, 0xd7, 0x8e, 0xbb, 0xf7, 0x41, 0x97, 0x3d, 
  0x40, 0x91, 0x15, 0xbc, 0x05, 0x56, 0x4c, 0xbd, 0x12, 0xd0, 0x55, 0xbc, 
  0x0c, 0x8c, 0xc2, 0xbc, 0x8f, 0x55, 0xd2, 0x3b, 0xa7, 0x77, 0x33, 0xbd, 
  0xf2, 0x00, 0xda, 0x3d, 0x71, 0x1b, 0xaa, 0x3c, 0xfe, 0x23, 0xa6, 0xbb, 
  0x99, 0xa8, 0xbf, 0xbd, 0x64, 0x04, 0x79, 0x3d, 0x13, 0xaa, 0x2a, 0x3d, 
  0xa6, 0x67, 0x8f, 0xbd, 0xc9, 0x99, 0x4c, 0xbd, 0xca, 0x5e, 0xf4, 0xbd, 
  0x42, 0x11, 0x23, 0xbd, 0x59, 0x20, 0xb3, 0x3d, 0xde, 0x63, 0xc1, 0x3d, 
  0xd1, 0xf1, 0xb7, 0xbd, 0xda, 0x93, 0xe6, 0x3d, 0x17, 0x06, 0xdf, 0xbc, 
  0x13, 0x98, 0x94, 0x3d, 0xf5, 0x80, 0x8b, 0xbd, 0x2d, 0xb7, 0x9b, 0xbd, 
  0xa3, 0x15, 0x94, 0x3b, 0xc2, 0xfc, 0xec, 0xbd, 0x87, 0x88, 0xc5, 0xbd, 
  0x03, 0x50, 0xda, 0xbd, 0xf8, 0x82, 0x02, 0x3c, 0x2e, 0xbe, 0xeb, 0xbd, 
  0x5c, 0xd3, 0x6f, 0x3d, 0x62, 0x45, 0xa6, 0xbd, 0xbd, 0xe5, 0xd8, 0xbd, 
  0xe5, 0x66, 0xcb, 0xbc, 0x57, 0x3e, 0xba, 0x3d, 0x2d, 0x1e, 0x52, 0x3c, 
  0x64, 0xf2, 0xe3, 0xbd, 0x79, 0x47, 0xd5, 0x3d, 0xc2, 0xa0, 0x5d, 0x3d, 
  0x0a, 0x98, 0x9d, 0xbd, 0xf5, 0x5c, 0xf4, 0xbd, 0x8a, 0x31, 0xb3, 0xbd, 
  0x89, 0x4b, 0x24, 0x3d, 0x80, 0x56, 0xea, 0xbd, 0x54, 0xeb, 0xb8, 0x3d, 
  0xd2, 0xcd, 0xc8, 0xbb, 0x99, 0x91, 0xc2, 0xbd, 0x1d, 0x9a, 0x95, 0x3d, 
  0xf4, 0x08, 0xc1, 0xbd, 0xee, 0x70, 0x2b, 0xbd, 0xa1, 0x55, 0x7c, 0xbd, 
  0x03, 0xd8, 0xc5, 0xbd, 0xfd, 0xc6, 0xec, 0x3c, 0xa1, 0xa2, 0xb2, 0x3d, 
  0x8b, 0xef, 0xba, 0xbc, 0x32, 0x50, 0xfd, 0xbc, 0x97, 0xc7, 0xbd, 0xbd, 
  0x9d, 0x1a, 0x00, 0xbe, 0x44, 0x8c, 0x9e, 0x3d, 0xc7, 0x13, 0x8d, 0xbd, 
  0xd1, 0x2c, 0x14, 0x3d, 0x69, 0x31, 0x2a, 0x3d, 0x69, 0x16, 0x88, 0x3d, 
  0x3b, 0xa1, 0xc7, 0x3d, 0xf0, 0x69, 0x4d, 0xbd, 0x44, 0xb0, 0xb3, 0x3d, 
  0xd0, 0xcf, 0xde, 0xbd, 0x6a, 0x5e, 0x8b, 0xbd, 0x32, 0x8e, 0xc9, 0x3d, 
  0x53, 0x4a, 0x80, 0x3d, 0x3d, 0x5f, 0x82, 0xbd, 0xc9, 0x51, 0xd9, 0x3d, 
  0x8c, 0xd7, 0xd1, 0x3d, 0xe2, 0x99, 0xb5, 0x3d, 0x52, 0xf1, 0x74, 0x3c, 
  0x89, 0x88, 0x1d, 0x3c, 0xed, 0xbc, 0x9d, 0xbc, 0x4a, 0xa5, 0x97, 0xbd, 
  0x11, 0x19, 0x3b, 0xbd, 0xda, 0xb1, 0x20, 0xbd, 0xe0, 0x98, 0x23, 0xbd, 
  0xad, 0xb1, 0x60, 0x3d, 0x34, 0x20, 0xe4, 0x3d, 0x4e, 0xec, 0x83, 0x3d, 
  0xf8, 0x97, 0x5b, 0xbd, 0x97, 0x53, 0xdb, 0x3d, 0x04, 0x73, 0xb2, 0x3d, 
  0x00, 0x0e, 0xe1, 0xbd, 0xec, 0x10, 0x96, 0x3d, 0xd4, 0xb3, 0xe2, 0x3c, 
  0xf5, 0x85, 0xe3, 0x3c, 0xdf, 0xd6, 0xb6, 0x3d, 0xb9, 0x90, 0xa9, 0x3d, 
  0x6b, 0xd8, 0x85, 0x3d, 0x6f, 0x2c, 0xfc, 0x3c, 0xa4, 0x0c, 0x35, 0xbd, 
  0xdc, 0x46, 0xbf, 0x3c, 0xa0, 0xd2, 0x6f, 0x3d, 0xa1, 0x2c, 0xe1, 0xbd, 
  0xb9, 0x0d, 0xba, 0x3d, 0x6b, 0x2d, 0xd1, 0xbd, 0xbc, 0x91, 0x47, 0xbd, 
  0x9c, 0xda, 0x31, 0x3c, 0x76, 0xa3, 0x3c, 0xbd, 0xf1, 0xa4, 0x45, 0xbd, 
  0x5a, 0x22, 0x51, 0x3d, 0xdc, 0x69, 0x6b, 0x3d, 0x6f, 0x95, 0xfe, 0xbd, 
  0x19, 0x18, 0x82, 0x3a, 0xa7, 0x96, 0xcc, 0xbd, 0xe2, 0xd6, 0x7e, 0x3d, 
  0x98, 0x6b, 0x30, 0x3c, 0xc6, 0x00, 0x65, 0x3d, 0x8a, 0x95, 0xdc, 0x3d, 
  0x5d, 0x20, 0x41, 0xbd, 0xb8, 0x3d, 0x0d, 0x3d, 0x1b, 0x4e, 0xd8, 0xbc, 
  0xe3, 0x47, 0x57, 0x3c, 0xae, 0x46, 0xd8, 0xbc, 0x6e, 0x81, 0xdf, 0xbd, 
  0x0f, 0x00, 0x28, 0xbc, 0x79, 0xf6, 0xae, 0xbd, 0x13, 0x9b, 0xe2, 0xbd, 
  0x01, 0x3b, 0x69, 0xbc, 0x7b, 0xf7, 0xdc, 0x3c, 0x52, 0x1b, 0x87, 0x3d, 
  0xed, 0x1d, 0x2d, 0x3d, 0x30, 0x40, 0xb3, 0xbb, 0x5a, 0xa0, 0x83, 0xbd, 
  0xe5, 0x2b, 0x6e, 0xbd, 0x87, 0xb2, 0xc1, 0xbd, 0x6b, 0x3c, 0xcf, 0xbd, 
  0xe9, 0xe7, 0x5f, 0xbd, 0xf0, 0x3e, 0xe2, 0xbc, 0x44, 0x56, 0x44, 0xbc, 
  0x79, 0xf5, 0xb5, 0xbb, 0x02, 0xcb, 0x23, 0x3c, 0x36, 0x6f, 0xc0, 0x3d, 
  0xf1, 0x23, 0x9b, 0xbd, 0x77, 0x96, 0x26, 0x3d, 0x17, 0xd6, 0xf5, 0xbd, 
  0xb9, 0xaf, 0x93, 0xbd, 0xad, 0x8c, 0x2d, 0x3c, 0xd9, 0xf5, 0xa5, 0xbd, 
  0xa2, 0x65, 0x13, 0x3d, 0x7a, 0x36, 0x9b, 0xbd, 0xda, 0x61, 0x7d, 0x3d, 
  0x58, 0xfc, 0x59, 0x3c, 0x53, 0x93, 0x18, 0x3d, 0x50, 0xba, 0xb8, 0x3d, 
  0x8a, 0x5d, 0xa5, 0xbd, 0xca, 0x45, 0x86, 0x3d, 0xa9, 0x95, 0x7e, 0x3d, 
  0x35, 0x5f, 0xcf, 0x3d, 0x4b, 0x4a, 0x2e, 0x3d, 0xa7, 0xb0, 0xc6, 0x3b, 
  0x73, 0xae, 0x92, 0xbc, 0x69, 0x98, 0x94, 0x3d, 0x8b, 0x7e, 0xef, 0x3b, 
  0xc0, 0xfb, 0x05, 0xbc, 0x72, 0x67, 0x43, 0xbd, 0x49, 0x8a, 0xfd, 0xbd, 
  0xa9, 0x53, 0xae, 0x3d, 0x2a, 0x55, 0xc5, 0x3d, 0x66, 0xd7, 0x4c, 0xbd, 
  0xae, 0x4e, 0xc2, 0xbd, 0x93, 0x9f, 0x91, 0xbd, 0xea, 0xd4, 0xbb, 0xbd, 
  0xe2, 0xe0, 0x04, 0x3d, 0x7d, 0x5c, 0xd7, 0x3d, 0x83, 0xb6, 0x51, 0x3d, 
  0xbb, 0x19, 0x6f, 0xbd, 0xdd, 0xcc, 0xa5, 0x3c, 0x0d, 0x22, 0xd6, 0xbd, 
  0x30, 0xd1, 0xf4, 0xbc, 0x22, 0x00, 0x1f, 0x3d, 0x62, 0x7e, 0x49, 0xbd, 
  0x78, 0x46, 0xd5, 0x3b, 0xea, 0x39, 0x8d, 0x3d, 0x2f, 0x3a, 0xb4, 0xbd, 
  0x62, 0x00, 0xc9, 0x3d, 0x1d, 0xcc, 0xd2, 0xbd, 0xb5, 0x6a, 0x31, 0x3b, 
  0x41, 0x96, 0xdb, 0x3d, 0x47, 0x70, 0xf0, 0xbd, 0xa7, 0x87, 0xc0, 0x3d, 
  0xc0, 0x45, 0x40, 0xbd, 0x43, 0x28, 0xad, 0xbd, 0x01, 0x9d, 0xba, 0x3d, 
  0xc2, 0x08, 0x8e, 0xbd, 0xc6, 0xa3, 0x6b, 0xbd, 0x98, 0xf3, 0x32, 0xbd, 
  0x9b, 0xc5, 0xde, 0xbd, 0x7a, 0x7b, 0x82, 0xbd, 0xdc, 0xc5, 0xd1, 0x3d, 
  0xc5, 0x7f, 0xa9, 0x3d, 0x91, 0x2f, 0x7f, 0x3d, 0x9b, 0xf0, 0xd0, 0xbd, 
  0xc8, 0xbb, 0xce, 0xbc, 0xd6, 0x1f, 0xff, 0xbd, 0x99, 0x63, 0xce, 0xbc, 
  0xbc, 0x16, 0x9f, 0xbd, 0x41, 0x5c, 0x5e, 0xbd, 0x8a, 0x50, 0x98, 0x3d, 
  0x8b, 0xa6, 0x25, 0xbb, 0x56, 0x91, 0x47, 0xbd, 0x47, 0xf7, 0x17, 0xbb, 
  0x32, 0xba, 0xb6, 0xbd, 0x77, 0xe9, 0x7c, 0xbd, 0x5b, 0x09, 0x33, 0xbd, 
  0xf6, 0x6e, 0xf0, 0x3c, 0x87, 0x57, 0xe6, 0xbd, 0x6e, 0x58, 0xaf, 0xbd, 
  0x0b, 0x72, 0x88, 0x3d, 0xe5, 0x66, 0x16, 0xbd, 0x85, 0x90, 0x8f, 0xbc, 
  0xe2, 0x34, 0x27, 0x3d, 0xd9, 0xcd, 0x79, 0x3d, 0x52, 0x38, 0xbf, 0xbc, 
  0x80, 0xe4, 0xda, 0xbd, 0x1f, 0x86, 0xcd, 0xbd, 0x65, 0x6a, 0x84, 0x3b, 
  0x0d, 0x7b, 0x6b, 0x3e, 0x80, 0x47, 0xfb, 0xbc, 0x02, 0xae, 0xa2, 0x3d, 
  0x84, 0x76, 0x3a, 0xbc, 0x32, 0xd0, 0x94, 0x3a, 0x4c, 0xa3, 0x80, 0xbc, 
  0x3d, 0xc0, 0x0b, 0x3e, 0xbe, 0x17, 0xbb, 0x3c, 0x27, 0xa4, 0x93, 0x3d, 
  0xe0, 0x14, 0x00, 0x3e, 0xb9, 0xe3, 0x0d, 0x3c, 0xaf, 0x67, 0xad, 0x3d, 
  0x2a, 0x70, 0x3a, 0x3e, 0x1d, 0xdd, 0x2d, 0xbc, 0x3f, 0xe2, 0xcb, 0xbd, 
  0x8f, 0x24, 0x1e, 0x3d, 0x80, 0x7f, 0x52, 0x3d, 0x19, 0xee, 0x78, 0xbd, 
  0x2a, 0xd7, 0xf5, 0x3d, 0x00, 0xb3, 0x99, 0xbd, 0x94, 0xd2, 0x06, 0x3e, 
  0x39, 0xad, 0x15, 0x3d, 0xa4, 0x71, 0xa1, 0x3c, 0x59, 0x59, 0xb6, 0x3d, 
  0x10, 0x94, 0xe3, 0x3b, 0x61, 0xe4, 0x09, 0x3e, 0x5a, 0x2c, 0x63, 0x3e, 
  0x84, 0xe2, 0x14, 0x3e, 0xa9, 0xdc, 0x11, 0x3e, 0x34, 0xc7, 0xc9, 0xbb, 
  0xb1, 0x54, 0xc3, 0xbd, 0xe7, 0x03, 0x4e, 0xbc, 0xab, 0xd4, 0xd9, 0x3d, 
  0x5e, 0x53, 0x14, 0xbd, 0xec, 0xe1, 0x4a, 0x3e, 0xca, 0x58, 0xab, 0xbd, 
  0xea, 0x4c, 0x8b, 0x3d, 0xff, 0x81, 0x3c, 0x3d, 0xb6, 0x88, 0xa1, 0x3d, 
  0xff, 0xe5, 0x88, 0x3d, 0xc5, 0x2f, 0x20, 0x3c, 0x69, 0x9d, 0xbd, 0x3d, 
  0x22, 0xf4, 0x24, 0x3e, 0x5e, 0xb8, 0xbc, 0x3d, 0x33, 0x2c, 0xa5, 0x3d, 
  0xdf, 0xe8, 0xe3, 0x3c, 0x1f, 0x4e, 0x2b, 0x3d, 0x9b, 0xdf, 0xbc, 0x3d, 
  0xfe, 0x72, 0xca, 0x3d, 0x89, 0x46, 0x64, 0xbb, 0x8e, 0xbf, 0xfb, 0x3d, 
  0x96, 0x11, 0xd2, 0xbc, 0x7e, 0x80, 0xf3, 0x3d, 0x1c, 0x81, 0x0f, 0x3e, 
  0x2c, 0x7b, 0x38, 0x3d, 0x8a, 0x04, 0xb0, 0xbc, 0xab, 0x07, 0x1f, 0x3e, 
  0x90, 0x69, 0x09, 0x3e, 0xfa, 0x2d, 0xdd, 0x3d, 0x51, 0xc7, 0x83, 0x3d, 
  0xbe, 0x66, 0x1f, 0x3e, 0xdf, 0x52, 0x40, 0x3c, 0x4f, 0xfe, 0x9e, 0x39, 
  0x97, 0x38, 0xee, 0x3d, 0xa0, 0x49, 0x06, 0x3e, 0x4e, 0x56, 0x3c, 0x3d, 
  0x77, 0xd5, 0xda, 0x3a, 0x19, 0xa4, 0x7b, 0x3d, 0x50, 0x6e, 0x10, 0x3e, 
  0x08, 0x9a, 0x52, 0xbc, 0xb4, 0xe4, 0x40, 0x3d, 0x48, 0xbe, 0x59, 0xbc, 
  0xba, 0xf5, 0xb6, 0xbb, 0xe5, 0x28, 0x7a, 0x3c, 0x9c, 0x9b, 0x21, 0x3e, 
  0xee, 0x71, 0x11, 0x3e, 0x74, 0xcd, 0x58, 0x3e, 0x83, 0xa8, 0xa5, 0x3d, 
  0x37, 0x3c, 0xe7, 0x3d, 0x0b, 0xba, 0x4d, 0x3d, 0x0a, 0xe1, 0x64, 0x3d, 
  0x8b, 0x12, 0xf5, 0x3d, 0x5e, 0x0d, 0xf5, 0x3d, 0x7c, 0xa2, 0xbd, 0x3c, 
  0xa8, 0x75, 0xb2, 0xbb, 0x69, 0x96, 0x43, 0xbc, 0x8d, 0x40, 0x08, 0x3e, 
  0x85, 0x9f, 0x5e, 0x3d, 0xa6, 0x68, 0x4c, 0x3e, 0xc4, 0x65, 0xef, 0x3c, 
  0x63, 0xd3, 0xb5, 0x3c, 0x4b, 0x65, 0x26, 0x3e, 0xb9, 0xcb, 0x33, 0x3e, 
  0x7a, 0xf0, 0x6a, 0x3d, 0x93, 0x79, 0xe6, 0xbd, 0xc7, 0x51, 0x98, 0x3c, 
  0x68, 0x60, 0x28, 0x3e, 0xa0, 0x81, 0x96, 0xbd, 0x6e, 0xc2, 0x65, 0x3d, 
  0x79, 0x3b, 0xb8, 0xbd, 0x48, 0x8f, 0xb9, 0x3d, 0x8e, 0x18, 0x08, 0x3e, 
  0xa1, 0x7d, 0x9c, 0xbd, 0x34, 0x98, 0xe9, 0xbc, 0xd6, 0x0b, 0xb6, 0x3d, 
  0xd8, 0x98, 0xd1, 0x3d, 0xbc, 0xc1, 0x16, 0x3d, 0xb3, 0x64, 0x22, 0x3e, 
  0xe2, 0x87, 0x67, 0x3d, 0x2a, 0x7a, 0xe1, 0x3d, 0xad, 0x50, 0xb2, 0xbc, 
  0x69, 0xd7, 0x94, 0xbd, 0xad, 0xe2, 0x8f, 0xbb, 0x3c, 0xa6, 0xf1, 0x3c, 
  0x08, 0xa3, 0x11, 0x3e, 0xe0, 0x0e, 0xaa, 0x3b, 0x54, 0x4a, 0xbc, 0x3c, 
  0x52, 0x65, 0x0c, 0x3e, 0xe2, 0x46, 0xd2, 0x3c, 0x75, 0x2d, 0x90, 0x3d, 
  0x57, 0x1b, 0xaf, 0x3d, 0x9f, 0x1f, 0x91, 0xbc, 0x96, 0x5a, 0x62, 0x3e, 
  0x1c, 0xa5, 0xed, 0x3d, 0x40, 0x8e, 0x17, 0x3e, 0x93, 0x15, 0x04, 0x3e, 
  0x86, 0x34, 0xc7, 0xbd, 0x86, 0xc2, 0xef, 0x3d, 0xf0, 0x59, 0x60, 0x3e, 
  0xe1, 0x84, 0xd1, 0x3d, 0x18, 0xac, 0x38, 0x3c, 0x91, 0xb0, 0x8f, 0xbd, 
  0x2b, 0x59, 0x22, 0x3e, 0xed, 0x59, 0x24, 0x3e, 0x8b, 0x09, 0xcf, 0xbd, 
  0x90, 0x7d, 0x09, 0xbd, 0x06, 0xa2, 0x32, 0x3e, 0xe6, 0x47, 0xd7, 0xbc, 
  0x39, 0x80, 0xe6, 0x3d, 0x42, 0xe8, 0x5d, 0x3e, 0xe8, 0xeb, 0x51, 0x3e, 
  0x73, 0x02, 0x23, 0x3e, 0xf5, 0x56, 0xef, 0xbc, 0x22, 0xf9, 0xda, 0x3c, 
  0x13, 0x9d, 0x98, 0xbd, 0x9e, 0x1f, 0x27, 0xbd, 0x71, 0xd6, 0xde, 0x3c, 
  0xf7, 0x74, 0xf5, 0xbb, 0xd3, 0x4a, 0x36, 0xbd, 0x6d, 0x70, 0x13, 0x3d, 
  0xb3, 0x5b, 0x42, 0xbd, 0xf9, 0x40, 0xa3, 0x3d, 0xf4, 0xc1, 0xfc, 0xbd, 
  0xc8, 0xb1, 0x31, 0x3d, 0x1c, 0x51, 0x25, 0xbc, 0xc8, 0xd0, 0x7c, 0x3d, 
  0xab, 0x57, 0xdd, 0xbd, 0xc9, 0x21, 0xa0, 0x3b, 0x46, 0x21, 0x3d, 0xbd, 
  0x47, 0x97, 0x98, 0x3d, 0x80, 0x2a, 0xaa, 0x3c, 0x04, 0x32, 0xb1, 0xbc, 
  0x44, 0x62, 0xa4, 0x3d, 0x90, 0xfb, 0x9d, 0x3d, 0x53, 0x91, 0x8d, 0x3d, 
  0xca, 0x56, 0x68, 0x3c, 0x6e, 0xcc, 0x54, 0x3d, 0xc0, 0x65, 0x36, 0x3d, 
  0x73, 0x1a, 0x8c, 0x3d, 0x4c, 0x22, 0xed, 0xbd, 0xd5, 0x8f, 0x88, 0xbc, 
  0xf9, 0x80, 0x8a, 0xbd, 0x05, 0x71, 0x0f, 0x3d, 0xe8, 0x7f, 0x18, 0x3d, 
  0xfb, 0x38, 0xe9, 0xbb, 0xec, 0xd2, 0x96, 0xbd, 0x03, 0x48, 0xeb, 0xbc, 
  0x00, 0x5b, 0xab, 0xba, 0xdf, 0xdf, 0x1b, 0xbd, 0x99, 0x35, 0xef, 0xba, 
  0x35, 0xd9, 0x85, 0x3d, 0x4d, 0x13, 0x76, 0x3d, 0x78, 0xc5, 0x85, 0xbd, 
  0xdd, 0x1c, 0x1f, 0x3c, 0x99, 0x15, 0xb4, 0x3c, 0xa1, 0x3e, 0xbe, 0x3c, 
  0xfb, 0x47, 0x2b, 0x3d, 0x03, 0x8e, 0xad, 0xbd, 0xb9, 0x06, 0xda, 0x3d, 
  0x8b, 0xc8, 0x20, 0xbb, 0x7b, 0x13, 0x30, 0xbd, 0xb9, 0xea, 0xbc, 0x3d, 
  0x93, 0x50, 0x84, 0xbd, 0xcc, 0xca, 0xfb, 0x3c, 0xb5, 0xd2, 0x58, 0x3c, 
  0x51, 0x24, 0xf0, 0x3c, 0x75, 0x31, 0xa4, 0xbd, 0x70, 0x95, 0xfa, 0xbd, 
  0x4e, 0x7a, 0xbc, 0xbd, 0xb2, 0x8c, 0xf4, 0x3b, 0xe6, 0xe2, 0x9f, 0x3d, 
  0x91, 0x65, 0x59, 0xbd, 0x05, 0xe5, 0x4d, 0xbd, 0x25, 0xc4, 0x50, 0x3d, 
  0x61, 0x3b, 0x68, 0x3d, 0xf7, 0xa8, 0x77, 0xbd, 0x9e, 0x87, 0x56, 0x3d, 
  0x95, 0x53, 0x9d, 0x3d, 0x26, 0x0d, 0xae, 0x3d, 0xe7, 0x2d, 0x93, 0x3d, 
  0xc4, 0x15, 0xd2, 0x3c, 0x06, 0x9d, 0x92, 0xbd, 0xb1, 0xd1, 0xd0, 0xbd, 
  0x2e, 0x2d, 0x8f, 0xbd, 0xe4, 0xeb, 0xba, 0x3d, 0x21, 0x87, 0x9e, 0xbc, 
  0x9b, 0x45, 0x9e, 0xbd, 0x48, 0x95, 0x99, 0x3b, 0x97, 0xa1, 0xb5, 0x3d, 
  0x43, 0x58, 0x92, 0xbc, 0xc4, 0xc3, 0xd4, 0x3c, 0xc6, 0x69, 0xc6, 0xbc, 
  0xcc, 0x80, 0xe1, 0xbd, 0x94, 0x3c, 0x83, 0xbd, 0x50, 0xb4, 0x14, 0xbb, 
  0x7b, 0xdb, 0xe4, 0x3d, 0x48, 0x44, 0xc8, 0xbd, 0x32, 0x3c, 0x15, 0x3d, 
  0x08, 0x28, 0x19, 0xbc, 0xd3, 0xa1, 0xde, 0xbd, 0x6c, 0xc1, 0xd7, 0xbc, 
  0xd2, 0xab, 0x6f, 0x3d, 0x39, 0xbb, 0x6f, 0x3c, 0x0c, 0x96, 0x29, 0xbc, 
  0x6f, 0x6e, 0xbd, 0x3d, 0xcd, 0xe8, 0x10, 0xbd, 0xf1, 0xd0, 0x99, 0xbc, 
  0x7a, 0x33, 0x9a, 0x3c, 0x08, 0x00, 0xaa, 0xbd, 0x9b, 0x04, 0xf4, 0xbd, 
  0xdc, 0x03, 0xb7, 0xbd, 0x18, 0x5a, 0xc7, 0xbd, 0xc8, 0xfd, 0x30, 0x3d, 
  0xe5, 0xa1, 0x89, 0xbd, 0x6f, 0xc5, 0xd7, 0x3d, 0xb7, 0xda, 0xf3, 0xbd, 
  0x23, 0x53, 0x38, 0xbd, 0x96, 0x18, 0xa8, 0xbd, 0x0d, 0x85, 0xdc, 0x3c, 
  0xeb, 0x51, 0xd0, 0x3c, 0xf2, 0xbe, 0xb6, 0xbd, 0x89, 0x37, 0x97, 0xbd, 
  0x29, 0x9f, 0xdc, 0xbd, 0xea, 0x49, 0x8e, 0x3c, 0x7e, 0xfa, 0x37, 0x3d, 
  0xa3, 0x43, 0x07, 0x3d, 0x08, 0x5a, 0x49, 0xbd, 0x93, 0x3e, 0xad, 0x3d, 
  0x0e, 0xe9, 0xc0, 0xbd, 0xf3, 0x5a, 0xcc, 0xbd, 0x57, 0xf0, 0x26, 0x3d, 
  0xe0, 0x18, 0xb9, 0x3c, 0x12, 0xb7, 0xae, 0x3d, 0xeb, 0xa9, 0xcc, 0xbd, 
  0xc1, 0xf2, 0x90, 0x3d, 0x54, 0xcc, 0x68, 0x3d, 0x2a, 0xfa, 0xd1, 0x3c, 
  0xea, 0x8b, 0xe7, 0xbd, 0x39, 0x48, 0x75, 0x3d, 0x83, 0x7d, 0x8e, 0x3b, 
  0x67, 0x15, 0xdf, 0xbd, 0x36, 0x2f, 0x91, 0x3d, 0x78, 0x95, 0x64, 0x3d, 
  0xe2, 0x44, 0x1c, 0x3d, 0x5e, 0xde, 0xbf, 0x3d, 0xf2, 0x31, 0x92, 0xbd, 
  0x8e, 0x8b, 0xb0, 0x3c, 0x2b, 0x0b, 0xe1, 0xbd, 0xe5, 0x96, 0xbd, 0x3d, 
  0x56, 0xa7, 0x8a, 0x3d, 0xe7, 0x8f, 0x1f, 0xbb, 0xd8, 0xfc, 0xed, 0xbc, 
  0xe9, 0x90, 0xe8, 0xbd, 0x94, 0xb2, 0xb6, 0x3d, 0x24, 0x65, 0x93, 0x3d, 
  0x80, 0x19, 0xb9, 0x3c, 0xc0, 0xb3, 0x81, 0xbd, 0x44, 0x76, 0x47, 0x3c, 
  0x21, 0x8b, 0x5b, 0x3d, 0x03, 0x37, 0xcc, 0xbd, 0xb4, 0x5b, 0xf9, 0x3c, 
  0xb3, 0xbe, 0x5e, 0x3d, 0xef, 0xdd, 0x9a, 0xbd, 0x4e, 0x48, 0x0d, 0xbd, 
  0x55, 0x48, 0x42, 0x3d, 0xb2, 0xdd, 0x34, 0x3d, 0xb9, 0x8a, 0x80, 0xbc, 
  0x7b, 0x1d, 0xe9, 0xbd, 0x53, 0x66, 0x72, 0x3d, 0x17, 0xc2, 0xa9, 0xbc, 
  0xf2, 0x5e, 0x9f, 0x3d, 0xb7, 0x48, 0xbf, 0x3d, 0x5a, 0xff, 0xe8, 0x3c, 
  0x71, 0xba, 0x05, 0x3d, 0x5d, 0x52, 0x4a, 0xbd, 0x3a, 0xd2, 0x57, 0x3d, 
  0x2f, 0xd7, 0xd7, 0x3d, 0x28, 0xd1, 0x67, 0xbd, 0xf8, 0x30, 0x81, 0xbd, 
  0x20, 0x97, 0x7d, 0xbc, 0x5a, 0x45, 0xa7, 0x3d, 0xee, 0x93, 0x8f, 0x3d, 
  0x7a, 0xee, 0xbf, 0xbd, 0xe5, 0xac, 0xc2, 0x3d, 0xec, 0x41, 0xc0, 0x3d, 
  0x0a, 0xcd, 0x8e, 0x3d, 0x7b, 0x82, 0xf6, 0xbc, 0x98, 0x4a, 0x8a, 0xbd, 
  0xf4, 0x92, 0xe0, 0xbd, 0x7d, 0x65, 0x8a, 0xbd, 0xfe, 0x06, 0xb5, 0xbd, 
  0xb8, 0x38, 0x36, 0xbd, 0xc9, 0x13, 0x99, 0x3d, 0x4f, 0x6c, 0xa4, 0x3d, 
  0x3b, 0x79, 0x92, 0xbd, 0xca, 0x5a, 0xc3, 0xbd, 0xaa, 0x2e, 0xcf, 0x3d, 
  0x38, 0xa6, 0x41, 0x3d, 0x64, 0x6d, 0x9a, 0x3c, 0xed, 0xb0, 0x4c, 0x3d, 
  0x84, 0xf9, 0xec, 0xbc, 0xdc, 0xed, 0x61, 0x3d, 0x02, 0xab, 0x82, 0xbc, 
  0xde, 0xd6, 0xe1, 0x3c, 0x7c, 0x21, 0xac, 0xbd, 0x92, 0x4a, 0xe3, 0x3c, 
  0x2b, 0x98, 0xec, 0xbd, 0xe6, 0x2c, 0xad, 0xbd, 0xb5, 0xe8, 0xc2, 0x3d, 
  0x74, 0x1a, 0xbc, 0xbd, 0xfb, 0xfc, 0x9f, 0x3d, 0x40, 0xb3, 0xcc, 0xba, 
  0x93, 0x05, 0xff, 0x3c, 0xfe, 0xfb, 0x7d, 0x3d, 0x95, 0x72, 0xae, 0xbd, 
  0xa7, 0x67, 0x54, 0xbd, 0x9a, 0x41, 0x7b, 0x3d, 0x29, 0x5e, 0x94, 0x3c, 
  0x83, 0x74, 0x4e, 0x3d, 0x19, 0xc5, 0x57, 0xbc, 0xf9, 0xc8, 0xa7, 0xbd, 
  0x2d, 0xa2, 0x75, 0xbd, 0xcd, 0x9c, 0x28, 0x3d, 0x28, 0xf3, 0xc1, 0xbc, 
  0xfc, 0x06, 0x19, 0xbd, 0x63, 0x7c, 0xd8, 0x3c, 0xdf, 0x43, 0xcb, 0xbd, 
  0xcc, 0x47, 0xdb, 0xbc, 0xc7, 0xc2, 0xdc, 0x3d, 0x52, 0x0a, 0xb3, 0xbd, 
  0xfc, 0x9d, 0xa0, 0x3c, 0x27, 0xea, 0x5b, 0x3b, 0xf3, 0xa6, 0xb4, 0x3d, 
  0x2a, 0xb1, 0x30, 0xba, 0x93, 0x20, 0x7c, 0x3d, 0xb9, 0x02, 0xd5, 0xbd, 
  0xa8, 0x12, 0x7e, 0xbd, 0xec, 0x04, 0x9e, 0xbd, 0xde, 0x64, 0x84, 0xbc, 
  0x9c, 0x29, 0xae, 0x3c, 0x9f, 0x7b, 0xb9, 0x3d, 0xe6, 0xb4, 0x84, 0xbd, 
  0xd4, 0x81, 0xa7, 0xbd, 0x46, 0xe8, 0x15, 0x3d, 0x95, 0x40, 0x0a, 0x3d, 
  0xcb, 0xdb, 0xe3, 0xbd, 0xdd, 0x1a, 0xe0, 0xbb, 0x38, 0x95, 0x93, 0x3d, 
  0x55, 0x25, 0xec, 0xbd, 0x52, 0x2d, 0xb3, 0xbd, 0x77, 0x5e, 0xa8, 0xbd, 
  0xe1, 0xd8, 0x4f, 0x3c, 0x8d, 0xaf, 0x9f, 0xbd, 0x09, 0xa4, 0x84, 0xbc, 
  0x24, 0xf0, 0x13, 0xbd, 0xa4, 0xb7, 0xec, 0x3c, 0x5e, 0x19, 0x8a, 0xbd, 
  0xad, 0xf0, 0xdf, 0x3c, 0xcc, 0x55, 0xc5, 0xbd, 0x6f, 0x1b, 0x8d, 0xbd, 
  0x72, 0x06, 0x43, 0xbc, 0x69, 0xa7, 0xd8, 0x3d, 0x2c, 0xae, 0xdd, 0x3d, 
  0x98, 0x7c, 0xa7, 0x3c, 0x30, 0x82, 0xf6, 0x39, 0xc5, 0x05, 0x68, 0x3d, 
  0xce, 0x73, 0x32, 0xbd, 0x38, 0x66, 0xd9, 0x3d, 0x62, 0xa0, 0xe9, 0xbd, 
  0x2d, 0x13, 0xf7, 0xbd, 0xfc, 0xa1, 0x87, 0xbd, 0x20, 0x33, 0x9b, 0xbb, 
  0xe7, 0x66, 0xcb, 0xbd, 0xef, 0x83, 0xf7, 0xbb, 0x55, 0xff, 0xca, 0x3d, 
  0xb1, 0xa1, 0x3a, 0xbd, 0x61, 0x89, 0xcc, 0xbc, 0x9b, 0xe9, 0x6a, 0xbd, 
  0xa4, 0x1a, 0x94, 0x3d, 0x89, 0x08, 0x16, 0xbd, 0xbd, 0x9f, 0xc6, 0xbd, 
  0x49, 0x6c, 0xbe, 0xbd, 0xce, 0x36, 0x96, 0xbd, 0x14, 0x96, 0x44, 0x3d, 
  0x84, 0x48, 0x95, 0x3d, 0xc1, 0x15, 0xc1, 0x3c, 0xd3, 0xd3, 0xa0, 0x3c, 
  0xf8, 0x69, 0x35, 0x3c, 0x84, 0xb5, 0xdb, 0x3c, 0xe8, 0xa2, 0x8f, 0x3d, 
  0x26, 0x8e, 0x1c, 0x3d, 0x34, 0x0a, 0x73, 0x3c, 0x3f, 0x13, 0x98, 0xbd, 
  0x94, 0xbd, 0x8c, 0xbd, 0x8e, 0x1f, 0xa6, 0x3d, 0xb6, 0x68, 0x88, 0xbd, 
  0x4a, 0x5a, 0x8c, 0x3d, 0xfc, 0xea, 0xcc, 0xbb, 0x3d, 0xa0, 0x3e, 0x3c, 
  0x24, 0xd3, 0xd2, 0xba, 0x4a, 0xe6, 0xa7, 0x3c, 0x3e, 0xee, 0xa5, 0x3b, 
  0x5f, 0xc3, 0x92, 0x3d, 0xc3, 0x8a, 0x30, 0xbd, 0xd3, 0x65, 0xeb, 0x3d, 
  0xca, 0x68, 0xf8, 0xbb, 0xc9, 0x3b, 0x79, 0x3c, 0xad, 0x3e, 0xd1, 0x3d, 
  0xda, 0x07, 0x01, 0x3d, 0x52, 0xa7, 0x0d, 0x3d, 0xa5, 0x60, 0x30, 0x3e, 
  0xca, 0x0a, 0x7a, 0x3d, 0x2e, 0xd8, 0x74, 0x3e, 0x7a, 0x02, 0x79, 0x3e, 
  0x49, 0xa7, 0x38, 0x3e, 0x79, 0x06, 0xe2, 0x3d, 0x94, 0x3b, 0x78, 0xbd, 
  0xab, 0xfd, 0x59, 0xbd, 0xce, 0x93, 0x72, 0x3e, 0xd8, 0x13, 0xb1, 0xbd, 
  0xa5, 0x68, 0xaf, 0x3c, 0x36, 0x40, 0xeb, 0x3c, 0x58, 0xd0, 0x44, 0xbb, 
  0x8e, 0x42, 0x04, 0xbd, 0x17, 0x89, 0x0e, 0x3e, 0xb2, 0x87, 0xef, 0xbd, 
  0x24, 0x91, 0x5c, 0x3e, 0x1c, 0xbc, 0xf0, 0x3d, 0x61, 0xfe, 0xc3, 0x3c, 
  0x3d, 0x72, 0x3d, 0x3e, 0x9b, 0x93, 0x73, 0x3e, 0x8f, 0xb6, 0xea, 0x3a, 
  0x9c, 0xfb, 0x80, 0xbd, 0xae, 0xce, 0x4b, 0x3d, 0x84, 0x50, 0x60, 0x3e, 
  0x99, 0xf7, 0xbd, 0x3d, 0x27, 0xcd, 0x19, 0x3e, 0x70, 0x3c, 0x82, 0x3d, 
  0x83, 0x52, 0x1b, 0x3e, 0xb6, 0xa5, 0x26, 0xbd, 0x8c, 0x37, 0xd5, 0xbb, 
  0xf5, 0x97, 0xd9, 0xbd, 0xa6, 0x54, 0x00, 0x3e, 0xbd, 0xff, 0x87, 0x3d, 
  0x0d, 0x23, 0x82, 0x3c, 0x2e, 0xcd, 0x6f, 0x3d, 0x5b, 0x6e, 0x48, 0x3d, 
  0xa6, 0xc5, 0x33, 0x3e, 0xb1, 0x3a, 0x8c, 0xbd, 0xdd, 0x24, 0xe1, 0xbc, 
  0x72, 0x3e, 0x7d, 0x3e, 0xbb, 0xc0, 0x72, 0xbd, 0xed, 0xc1, 0xa0, 0x3d, 
  0x29, 0xf9, 0x8a, 0x3d, 0xc3, 0xde, 0x3d, 0x3e, 0x80, 0x02, 0x1e, 0xbc, 
  0xd4, 0x11, 0x21, 0x3e, 0xd0, 0x26, 0x93, 0xbc, 0x41, 0x59, 0xf8, 0x3d, 
  0x16, 0xb6, 0xa6, 0x3d, 0xbb, 0xec, 0x96, 0x3c, 0x1d, 0xbd, 0x27, 0x3e, 
  0x32, 0x30, 0x60, 0x3e, 0x89, 0xda, 0x1e, 0x3e, 0x5b, 0x7d, 0x9c, 0x3b, 
  0xf3, 0x95, 0x00, 0x3e, 0xe5, 0x53, 0x18, 0x3e, 0x2f, 0x81, 0x7e, 0x3d, 
  0xcd, 0x3f, 0xe7, 0x3d, 0xd7, 0x21, 0x1c, 0xbd, 0x84, 0x43, 0xa6, 0x3d, 
  0x46, 0x5d, 0xe7, 0x3d, 0x22, 0xb1, 0x53, 0xbd, 0x90, 0xe8, 0xc2, 0xbd, 
  0x0b, 0x32, 0x8b, 0x3c, 0xdd, 0x1a, 0x4f, 0x3e, 0x5b, 0x9c, 0x1e, 0x3e, 
  0x33, 0x9b, 0x28, 0x3c, 0x32, 0xa7, 0xc0, 0x3d, 0x23, 0x7f, 0xfb, 0x3d, 
  0xd5, 0x87, 0xaa, 0xbc, 0x2b, 0x99, 0xa4, 0xbc, 0xa1, 0x17, 0xd0, 0x3d, 
  0x2d, 0xc4, 0x81, 0xbb, 0x45, 0xc9, 0x3d, 0x3e, 0x07, 0xe5, 0x4e, 0xbd, 
  0x02, 0x27, 0x1d, 0x3e, 0xba, 0x6d, 0x25, 0x3e, 0xbd, 0x25, 0x75, 0xbc, 
  0x40, 0xee, 0x69, 0xbb, 0x56, 0x26, 0xc0, 0x3d, 0x60, 0xa9, 0x47, 0x3e, 
  0xfb, 0x0c, 0xca, 0x3d, 0x96, 0xf2, 0x36, 0x3e, 0x1d, 0x87, 0xd2, 0x3d, 
  0xf7, 0x6a, 0xab, 0x3c, 0xa6, 0xc3, 0xd4, 0xbc, 0x65, 0x3d, 0xb5, 0xbd, 
  0x80, 0xd2, 0xd7, 0x3d, 0x08, 0xd3, 0xa2, 0xbd, 0xf7, 0x67, 0x25, 0x3c, 
  0x70, 0x67, 0xf4, 0x3d, 0x34, 0x17, 0x24, 0x3d, 0xf9, 0x78, 0xe6, 0xbc, 
  0x60, 0xfa, 0x52, 0xbd, 0xc0, 0xd1, 0x1a, 0x3b, 0x09, 0x2f, 0x14, 0x3e, 
  0x1d, 0xbf, 0x62, 0x3e, 0x0e, 0xf7, 0x2f, 0x3e, 0x24, 0xfb, 0xfb, 0x3c, 
  0xe8, 0x88, 0x08, 0x3e, 0x26, 0x8d, 0xa5, 0x3d, 0x42, 0x1b, 0xe8, 0x3c, 
  0x2f, 0xc7, 0xa5, 0xbd, 0x4a, 0xed, 0x17, 0x3e, 0x5a, 0xc8, 0xb1, 0xbd, 
  0xcd, 0xb3, 0x43, 0x3e, 0x12, 0xe1, 0xca, 0x3c, 0xfb, 0x95, 0xfc, 0x3d, 
  0xb2, 0xeb, 0xca, 0x3d, 0x9a, 0xea, 0x15, 0xbc, 0xe2, 0x5b, 0xd2, 0xbd, 
  0x6f, 0xcb, 0x5c, 0x3e, 0x7b, 0xe0, 0x08, 0x3e, 0x0e, 0x7b, 0x21, 0x3e, 
  0xcc, 0x33, 0x14, 0x3e, 0xfb, 0x07, 0x12, 0x3e, 0x0a, 0x88, 0x04, 0xbd, 
  0x0e, 0xe5, 0x37, 0x3c, 0xe5, 0xf5, 0x38, 0xbd, 0x1c, 0x46, 0xd1, 0x3d, 
  0xff, 0xf6, 0x9f, 0x3d, 0xe9, 0x6f, 0x2c, 0xbd, 0xe4, 0x30, 0x1b, 0x3d, 
  0x2c, 0x2c, 0x31, 0xbd, 0x01, 0xe7, 0x1d, 0x3d, 0x6d, 0xa9, 0x1d, 0xbd, 
  0xb0, 0x03, 0xb0, 0xbb, 0xcd, 0xf1, 0x2e, 0x3e, 0x85, 0x09, 0xc4, 0x3d, 
  0x71, 0x9f, 0xa4, 0x3c, 0xdd, 0xea, 0x35, 0x3e, 0xfd, 0xe6, 0xe5, 0x3d, 
  0x26, 0xfd, 0xc5, 0xbc, 0xc6, 0xb7, 0xf2, 0x3c, 0xcb, 0x55, 0x26, 0xbd, 
  0x40, 0x05, 0xe3, 0x3d, 0x09, 0x71, 0xef, 0x3a, 0xbf, 0x7b, 0x3c, 0xbc, 
  0x08, 0x56, 0xcd, 0x3c, 0xcb, 0x8e, 0x93, 0x3d, 0x5f, 0x83, 0x15, 0xbd, 
  0xb5, 0xed, 0xc9, 0x3d, 0x03, 0x7b, 0xca, 0xba, 0xa9, 0x76, 0xf6, 0x3b, 
  0xf0, 0xd6, 0x3a, 0x3e, 0xce, 0x1e, 0x09, 0x3e, 0xd0, 0x2b, 0xad, 0x3c, 
  0x9a, 0xb7, 0xac, 0x3d, 0xd7, 0x35, 0xf9, 0x3d, 0x95, 0xbf, 0x98, 0x3d, 
  0x04, 0x72, 0xc6, 0x3d, 0xc2, 0x70, 0xa9, 0x3c, 0xee, 0x06, 0xa9, 0x3c, 
  0xe2, 0xab, 0x38, 0x3e, 0xc1, 0x44, 0xf3, 0x3c, 0xc6, 0x6f, 0xf2, 0x3c, 
  0xa7, 0xf3, 0x1f, 0xbd, 0x13, 0x49, 0xe5, 0x3d, 0xc2, 0xd4, 0x96, 0xbd, 
  0x06, 0xf4, 0x31, 0xbc, 0x6e, 0x52, 0x01, 0x3d, 0x8b, 0x9f, 0x10, 0x3e, 
  0x83, 0x21, 0x12, 0x3e, 0xf1, 0x98, 0x45, 0x3e, 0x2e, 0xc5, 0xe0, 0x3d, 
  0x71, 0x9d, 0x11, 0x3d, 0x6c, 0x3f, 0x26, 0x3d, 0x51, 0xeb, 0xda, 0x3c, 
  0x30, 0x3b, 0xcf, 0xbc, 0x60, 0x66, 0x25, 0x3e, 0x34, 0x93, 0xe5, 0xbb, 
  0x0f, 0x80, 0x6a, 0x3b, 0xab, 0x7e, 0x26, 0x3e, 0x45, 0x2d, 0xc6, 0x3d, 
  0x6f, 0x72, 0xc1, 0x3c, 0x50, 0x2c, 0x0a, 0x3e, 0x0a, 0xac, 0x5b, 0x3d, 
  0xf1, 0x8c, 0x93, 0x3d, 0xd0, 0x71, 0x1f, 0x3e, 0x70, 0x17, 0x54, 0x3e, 
  0xed, 0x99, 0x18, 0x3d, 0x4f, 0x01, 0x00, 0xbe, 0xa1, 0xb5, 0xc1, 0xbd, 
  0xb4, 0x62, 0x06, 0x3d, 0xe2, 0x42, 0x64, 0x3b, 0xbe, 0x4e, 0x40, 0x3d, 
  0xcd, 0xf5, 0x74, 0x3d, 0x24, 0xd0, 0xf3, 0xbb, 0x34, 0xa9, 0x1d, 0x3e, 
  0x53, 0x73, 0x2b, 0xbd, 0xae, 0x23, 0xfa, 0xbc, 0x0d, 0xd6, 0xcc, 0x3d, 
  0xb0, 0x6d, 0x23, 0x3e, 0xb2, 0xe7, 0x52, 0x3e, 0x2d, 0xd9, 0xf7, 0x3d, 
  0xaf, 0x23, 0x85, 0xbc, 0x6c, 0xa8, 0x8a, 0x3c, 0xd4, 0xb3, 0x0b, 0xbd, 
  0x16, 0x7b, 0x0c, 0xbd, 0x52, 0x20, 0xcf, 0x3b, 0x19, 0x3c, 0x2f, 0x3d, 
  0xf6, 0x5e, 0x1e, 0x3d, 0xe4, 0xf9, 0xc8, 0x3d, 0xbd, 0xf0, 0x14, 0x3d, 
  0x70, 0x93, 0x99, 0x3d, 0x11, 0xe2, 0xb3, 0xbd, 0x08, 0x85, 0xa4, 0x3d, 
  0xc7, 0x0e, 0xce, 0x3d, 0xeb, 0xdf, 0x38, 0x3d, 0xbb, 0x59, 0x2f, 0x3e, 
  0xae, 0x92, 0xe2, 0x3d, 0xaa, 0x44, 0xfe, 0x3c, 0xe7, 0xc9, 0xef, 0xbc, 
  0x1f, 0x7d, 0x07, 0x3d, 0x9f, 0x2a, 0x04, 0xbe, 0xa4, 0x3e, 0x41, 0x3e, 
  0x0c, 0xbe, 0xe9, 0x3d, 0x0d, 0x99, 0xf3, 0xbc, 0x5a, 0x23, 0x07, 0xbe, 
  0x35, 0x33, 0x4f, 0xbd, 0xd3, 0x16, 0xef, 0x3d, 0x86, 0x51, 0x39, 0x3d, 
  0x90, 0x46, 0xb3, 0x3d, 0xef, 0x28, 0x23, 0x3e, 0xd9, 0xed, 0x43, 0x3e, 
  0x65, 0x1a, 0x9f, 0x3d, 0x4e, 0x59, 0xd9, 0x3c, 0x9c, 0xe9, 0x93, 0x3d, 
  0x5c, 0xf2, 0x58, 0x3b, 0x7b, 0xa9, 0x22, 0xbc, 0x5b, 0x52, 0x79, 0xbd, 
  0xbf, 0x3b, 0xeb, 0x3d, 0x8c, 0x8f, 0x3d, 0xbc, 0x19, 0xb4, 0x6c, 0x3d, 
  0x5f, 0xee, 0xb4, 0x3d, 0xda, 0x1a, 0x02, 0xbd, 0x8f, 0x9d, 0x78, 0xbd, 
  0xf8, 0xff, 0x72, 0x3d, 0x8f, 0x22, 0x0d, 0xbd, 0xbe, 0xad, 0x37, 0x3c, 
  0x16, 0x5d, 0x27, 0x3e, 0x70, 0xfa, 0x35, 0x3e, 0x47, 0x84, 0x00, 0x3e, 
  0x0b, 0xd0, 0x03, 0x3d, 0xa9, 0x78, 0x1d, 0xbd, 0xa6, 0x22, 0xb4, 0xbd, 
  0xab, 0x97, 0xb7, 0x3d, 0x99, 0x69, 0x0b, 0xbc, 0x01, 0xe0, 0x1d, 0xbd, 
  0x9b, 0x68, 0xc5, 0x3d, 0x2b, 0x82, 0xa3, 0xbd, 0x57, 0x6d, 0x82, 0x3d, 
  0xb7, 0x00, 0x0b, 0x3e, 0x1d, 0xbe, 0xc8, 0x3d, 0x9e, 0x05, 0xd9, 0x3d, 
  0xa5, 0x3e, 0xae, 0x3c, 0x9f, 0x2d, 0x9e, 0x3d, 0xa3, 0x3c, 0xea, 0x3c, 
  0xa7, 0x91, 0x4b, 0x3e, 0xdc, 0x13, 0xb5, 0x3d, 0x06, 0x41, 0x8e, 0x3d, 
  0x99, 0xfd, 0xa8, 0x3d, 0x03, 0x45, 0x50, 0x3d, 0x3c, 0x91, 0x3e, 0xbc, 
  0x86, 0xc9, 0x3d, 0x3c, 0x24, 0xa6, 0xe8, 0xbb, 0x0e, 0x33, 0x26, 0xbd, 
  0x04, 0x94, 0x12, 0xbd, 0xda, 0x3c, 0x24, 0x3e, 0xee, 0x8b, 0x7f, 0x3d, 
  0xbb, 0xf7, 0x74, 0x3d, 0x0b, 0x65, 0x9b, 0x3d, 0xfe, 0xe7, 0xfe, 0x3d, 
  0x8a, 0xd7, 0x45, 0x3e, 0x23, 0x59, 0xc1, 0x3d, 0xf4, 0xc0, 0x13, 0x3e, 
  0x1a, 0x43, 0xce, 0x3d, 0xeb, 0x32, 0xd3, 0x3c, 0x26, 0x04, 0xc2, 0x3d, 
  0xcf, 0x32, 0x10, 0x3e, 0x9c, 0xb9, 0x4b, 0xbd, 0x0f, 0xd3, 0x8e, 0xbc, 
  0x9c, 0xd5, 0x20, 0x3d, 0x41, 0x45, 0x65, 0x3d, 0x92, 0xb7, 0x26, 0xbc, 
  0x22, 0xb5, 0x14, 0x3e, 0xb8, 0x8d, 0xb0, 0xbd, 0xfb, 0x1f, 0xc7, 0x3c, 
  0xa9, 0x4a, 0x8f, 0x3d, 0xbb, 0x2b, 0x2c, 0x3e, 0x79, 0xfe, 0x5a, 0x3e, 
  0x72, 0xf5, 0x63, 0x3d, 0x2b, 0xec, 0x0b, 0x3d, 0x1a, 0xd4, 0xbe, 0xbd, 
  0x2c, 0x97, 0x11, 0xbd, 0x28, 0x0d, 0xfb, 0x3d, 0x00, 0x63, 0x2d, 0xba, 
  0xf4, 0x4e, 0x21, 0x3e, 0x53, 0xcd, 0x7e, 0x3d, 0xd7, 0x49, 0xdf, 0x3c, 
  0x8e, 0x92, 0x66, 0x3c, 0x11, 0x12, 0xa1, 0x3d, 0x5c, 0x8f, 0x63, 0x3c, 
  0xb3, 0x33, 0x4d, 0x3e, 0x92, 0xc5, 0x57, 0x3e, 0x5e, 0x66, 0xb2, 0x3d, 
  0xfa, 0x0c, 0x36, 0x3e, 0x94, 0x80, 0xf6, 0x3d, 0x35, 0xad, 0x2e, 0xbb, 
  0x20, 0xfc, 0x7f, 0x3c, 0x8b, 0xa5, 0x14, 0x3d, 0xa1, 0x9b, 0x29, 0x3e, 
  0x44, 0x8f, 0xb6, 0x3d, 0xe1, 0x60, 0x9f, 0x3d, 0x50, 0xa5, 0xd0, 0xbd, 
  0xbe, 0xa6, 0xe5, 0x3d, 0xd5, 0xf8, 0xee, 0x3d, 0x55, 0x4b, 0x59, 0xbd, 
  0xbc, 0x29, 0xca, 0xbd, 0x83, 0x02, 0xbc, 0x3d, 0x4d, 0x68, 0x56, 0x3d, 
  0x1d, 0x8b, 0x46, 0x3e, 0x7f, 0x96, 0x64, 0x3e, 0x4b, 0xc3, 0x85, 0x3e, 
  0xa4, 0x99, 0x5c, 0x3e, 0x44, 0x2c, 0xc1, 0x3d, 0x6b, 0x80, 0xdd, 0xbd, 
  0xfa, 0xa9, 0x91, 0x3e, 0xfe, 0x41, 0xa7, 0xbd, 0x87, 0xef, 0xba, 0x3d, 
  0x68, 0x99, 0xce, 0x3b, 0x5b, 0xe9, 0x20, 0x3d, 0xc7, 0xdc, 0xb7, 0x3d, 
  0xa8, 0x4c, 0xf3, 0xbb, 0xbc, 0x55, 0xc6, 0x3d, 0x34, 0xa2, 0xce, 0x3c, 
  0xac, 0x94, 0xe2, 0x3d, 0x3c, 0x6f, 0x59, 0x3e, 0xc8, 0xda, 0x54, 0x3d, 
  0xf6, 0x90, 0x91, 0x3e, 0x08, 0xdd, 0x3c, 0xbc, 0x93, 0x35, 0xc1, 0xbc, 
  0x70, 0xaa, 0x40, 0xbd, 0x85, 0xe6, 0xa3, 0x3d, 0x5e, 0x2f, 0xaf, 0x3a, 
  0x04, 0x8d, 0xf7, 0x3c, 0x27, 0x46, 0x21, 0x3d, 0x1d, 0x76, 0x34, 0x3e, 
  0xb8, 0x71, 0x43, 0x3d, 0x4a, 0x3c, 0x57, 0x3d, 0x0f, 0xba, 0x3e, 0xbd, 
  0xac, 0x3c, 0x26, 0x3e, 0x79, 0xc9, 0x71, 0x3e, 0xd5, 0x77, 0x4f, 0x3e, 
  0x71, 0x63, 0xb8, 0x3d, 0x2f, 0xb6, 0x81, 0x3e, 0x87, 0x67, 0x88, 0x3d, 
  0xe1, 0x28, 0xec, 0x3c, 0x5f, 0x5e, 0xa4, 0x3c, 0x83, 0xdb, 0x62, 0x3e, 
  0x3a, 0xc8, 0x14, 0xbd, 0x86, 0x7f, 0x4b, 0x3e, 0xd9, 0xf5, 0xe5, 0xbd, 
  0xdf, 0x5d, 0x0d, 0x3e, 0xe4, 0x72, 0x42, 0x3c, 0x7b, 0x45, 0x82, 0xbd, 
  0x2a, 0x26, 0x3a, 0xbd, 0x24, 0x6a, 0x8c, 0x3d, 0x2b, 0xea, 0x76, 0x3d, 
  0x94, 0x23, 0x13, 0x3e, 0xc0, 0x0b, 0xd8, 0x3d, 0x66, 0x6d, 0xcd, 0x3d, 
  0x9c, 0xb8, 0x11, 0x3e, 0xcb, 0x32, 0xd3, 0x3d, 0xcb, 0xf0, 0x92, 0xbd, 
  0x8a, 0xa9, 0xf6, 0x3d, 0x38, 0x20, 0xed, 0xbd, 0x51, 0x90, 0xcc, 0x3c, 
  0x59, 0xb1, 0xa2, 0xbc, 0xf5, 0x8e, 0xf8, 0x3c, 0x3f, 0x05, 0x26, 0x3e, 
  0x72, 0x7e, 0xc6, 0xbd, 0x70, 0xa2, 0x81, 0xbd, 0x3d, 0xa5, 0x51, 0x3e, 
  0x5b, 0xcb, 0x42, 0x3e, 0x29, 0x3e, 0x64, 0x3e, 0x82, 0x5b, 0xaf, 0x3c, 
  0x23, 0xd9, 0x18, 0x3e, 0xff, 0xbb, 0xc8, 0x3d, 0x69, 0x2b, 0xe8, 0xbc, 
  0xb8, 0x3f, 0x3c, 0x3d, 0x7d, 0x98, 0x85, 0x3d, 0x51, 0x0a, 0xb0, 0x3d, 
  0x6a, 0xbb, 0x09, 0x3e, 0xf0, 0x53, 0x93, 0xbd, 0x3d, 0xa2, 0x36, 0x3d, 
  0x9e, 0x9c, 0xee, 0x3d, 0x72, 0xcb, 0xc7, 0xbd, 0xaf, 0x32, 0xe2, 0xbd, 
  0x47, 0x77, 0x67, 0x3d, 0x6d, 0x42, 0x92, 0x3d, 0x2c, 0x20, 0xb3, 0x3d, 
  0xb4, 0xf2, 0xda, 0x3c, 0x60, 0xdf, 0x2a, 0x3e, 0xa1, 0xba, 0xed, 0x3c, 
  0x26, 0xca, 0x16, 0xb9, 0xff, 0x3e, 0x3c, 0x3d, 0x52, 0x73, 0x15, 0x3e, 
  0xe0, 0x0b, 0x0c, 0xbd, 0x07, 0x0f, 0x14, 0x3e, 0x4f, 0x3f, 0xd0, 0xbd, 
  0x5e, 0x74, 0x02, 0x3e, 0x6d, 0x10, 0x0e, 0x3e, 0x20, 0x42, 0xe8, 0x3d, 
  0x29, 0xb9, 0xbc, 0xbd, 0x55, 0xe7, 0xb7, 0x3c, 0x08, 0xd8, 0x3a, 0x3e, 
  0x0d, 0xbe, 0x91, 0x3d, 0x95, 0x71, 0x28, 0x3e, 0x8a, 0xc6, 0x00, 0x3e, 
  0xa2, 0x0a, 0x15, 0x3e, 0xd8, 0x70, 0xa9, 0x3d, 0xa9, 0xdc, 0x2f, 0x3d, 
  0xc8, 0x98, 0x1a, 0x3d, 0xe3, 0xe6, 0x22, 0xbd, 0xdb, 0x3f, 0x79, 0x3d, 
  0x21, 0xcb, 0x89, 0xbd, 0x29, 0x3d, 0x5a, 0x3c, 0x94, 0xa5, 0xc2, 0x3c, 
  0x36, 0xb0, 0xc0, 0x3d, 0xe5, 0xeb, 0xaf, 0x3d, 0xbc, 0xea, 0x69, 0x3d, 
  0x17, 0x6e, 0xc1, 0xbd, 0xb5, 0x39, 0x44, 0x3d, 0xd4, 0xf4, 0xdf, 0xbd, 
  0xdd, 0x20, 0xb3, 0xbd, 0x77, 0x74, 0xc2, 0xbd, 0x90, 0x8a, 0xc9, 0xbd, 
  0x0e, 0x8f, 0x8b, 0xbd, 0x05, 0x6f, 0x5b, 0x3d, 0x24, 0x6e, 0xfc, 0xbc, 
  0x1a, 0x35, 0x6c, 0xbd, 0x5f, 0xbe, 0xea, 0xbd, 0xef, 0xc0, 0x7a, 0xbb, 
  0xf9, 0xdf, 0xff, 0xbd, 0x90, 0x17, 0xb7, 0x3c, 0x1a, 0x73, 0xcc, 0x3d, 
  0xcc, 0xda, 0xc6, 0xbd, 0xde, 0xb2, 0xfe, 0xbd, 0x0a, 0x0c, 0x83, 0x3d, 
  0x39, 0x87, 0xcb, 0xbd, 0x3e, 0x77, 0xc4, 0x3d, 0xca, 0x47, 0x8a, 0xbd, 
  0xdb, 0xf0, 0x5c, 0xbd, 0x51, 0xb7, 0x4f, 0xbd, 0xb8, 0x56, 0x9f, 0x3d, 
  0xdd, 0xa6, 0x57, 0x3d, 0x25, 0xf0, 0xd5, 0xbd, 0x9f, 0x3c, 0x0b, 0x3b, 
  0x38, 0x98, 0xe3, 0xbc, 0xd0, 0x6d, 0x73, 0xbb, 0xad, 0x30, 0x62, 0xbc, 
  0x9f, 0x8c, 0xea, 0xbd, 0x95, 0xaa, 0x7d, 0xbd, 0x6a, 0xc8, 0x8b, 0x3d, 
  0xd6, 0x37, 0x44, 0xbd, 0xce, 0xae, 0xfb, 0xbd, 0x5f, 0xa2, 0x05, 0xbd, 
  0x5a, 0x81, 0x91, 0x3c, 0xee, 0xd1, 0xe1, 0xbd, 0xea, 0x6c, 0x04, 0x3c, 
  0xf9, 0x31, 0xb4, 0x3d, 0x4a, 0x42, 0x24, 0x3d, 0x83, 0x8c, 0x96, 0xbc, 
  0x5f, 0xb5, 0x43, 0xbd, 0xbb, 0x6e, 0xbb, 0x3d, 0x0a, 0xc9, 0xab, 0xbd, 
  0x7d, 0xee, 0x32, 0x3d, 0xe1, 0x0d, 0x36, 0xbd, 0x9d, 0xff, 0x84, 0xbd, 
  0x3d, 0x89, 0x43, 0x3b, 0x39, 0x89, 0xb4, 0xbc, 0x89, 0x6a, 0xb5, 0x3c, 
  0x21, 0xdd, 0x82, 0x3d, 0xc3, 0xa5, 0x7a, 0xbd, 0x09, 0xf7, 0xf1, 0xbd, 
  0xb2, 0x52, 0xab, 0x3d, 0x72, 0x67, 0xab, 0x3c, 0x42, 0xf3, 0xa2, 0x3c, 
  0x58, 0x8c, 0x8e, 0xbc, 0x4f, 0x8c, 0xb3, 0x3d, 0x03, 0x2c, 0xb4, 0x3c, 
  0xf6, 0x5b, 0x0b, 0x3d, 0xcc, 0xb6, 0x8c, 0x3c, 0x81, 0xec, 0xcc, 0xbd, 
  0xd9, 0x11, 0xd7, 0xbd, 0x6f, 0x26, 0x9a, 0xbb, 0x51, 0x76, 0x9c, 0x3d, 
  0x71, 0x9f, 0xc5, 0xbd, 0xd5, 0x45, 0x67, 0xbd, 0xf4, 0x9c, 0x7f, 0xbc, 
  0xad, 0x09, 0x81, 0xbd, 0x27, 0x64, 0x9a, 0xbd, 0x5d, 0xd1, 0x1c, 0xbd, 
  0x04, 0x7d, 0xd9, 0xbd, 0x77, 0xea, 0x69, 0xbd, 0x9d, 0x57, 0xa3, 0x3d, 
  0xa7, 0x54, 0x8a, 0x3d, 0x95, 0x88, 0x44, 0xbd, 0x07, 0xdd, 0x53, 0xbd, 
  0xed, 0x69, 0x1a, 0x3d, 0x69, 0x03, 0xcb, 0xbd, 0xa7, 0x95, 0x57, 0x3d, 
  0x13, 0x13, 0xe2, 0xbb, 0x87, 0xea, 0xd3, 0xbd, 0xbb, 0xa5, 0x82, 0x3b, 
  0x69, 0x87, 0xc4, 0x3d, 0xcf, 0xc2, 0x71, 0xbd, 0x50, 0x9e, 0xab, 0x3d, 
  0xa4, 0xb1, 0xc1, 0xba, 0x13, 0xda, 0x81, 0x3c, 0xd2, 0x17, 0xf6, 0xbd, 
  0x04, 0x24, 0xb6, 0x3c, 0xf2, 0x21, 0x3e, 0xbd, 0x08, 0xa2, 0x9c, 0x3b, 
  0x4f, 0x52, 0xa2, 0x3c, 0x9d, 0xe3, 0xa3, 0xbb, 0x7d, 0x91, 0x18, 0x3d, 
  0xcd, 0x01, 0xa4, 0x3d, 0x73, 0x9a, 0xa0, 0x3d, 0x3c, 0x15, 0xcf, 0x3c, 
